{
  "version": "1.0",
  "truncation": null,
  "padding": null,
  "added_tokens": [
    {
      "id": 0,
      "special": true,
      "content": "[PAD]",
      "single_word": false,
      "lstrip": false,
      "rstrip": false,
      "normalized": false
    },
    {
      "id": 1,
      "special": true,
      "content": "[UNK]",
      "single_word": false,
      "lstrip": false,
      "rstrip": false,
      "normalized": false
    },
    {
      "id": 2,
      "special": true,
      "content": "[CLS]",
      "single_word": false,
      "lstrip": false,
      "rstrip": false,
      "normalized": false
    },
    {
      "id": 3,
      "special": true,
      "content": "[SEP]",
      "single_word": false,
      "lstrip": false,
      "rstrip": false,
      "normalized": false
    },
    {
      "id": 4,
      "special": true,
      "content": "[MASK]",
      "single_word": false,
      "lstrip": false,
      "rstrip": false,
      "normalized": false
    }
  ],
  "normalizer": {
    "type": "BertNormalizer",
    "clean_text": true,
    "handle_chinese_chars": true,
    "strip_accents": null,
    "lowercase": true
  },
  "pre_tokenizer": {
    "type": "BertPreTokenizer"
  },
  "post_processor": {
    "type": "TemplateProcessing",
    "single": [
      {
        "SpecialToken": {
          "id": "[CLS]",
          "type_id": 0
        }
      },
      {
        "Sequence": {
          "id": "A",
          "type_id": 0
        }
      },
      {
        "SpecialToken": {
          "id": "[SEP]",
          "type_id": 0
        }
      }
    ],
    "pair": [
      {
        "SpecialToken": {
          "id": "[CLS]",
          "type_id": 0
        }
      },
      {
        "Sequence": {
          "id": "A",
          "type_id": 0
        }
      },
      {
        "SpecialToken": {
          "id": "[SEP]",
          "type_id": 0
        }
      },
      {
        "Sequence": {
          "id": "B",
          "type_id": 1
        }
      },
      {
        "SpecialToken": {
          "id": "[SEP]",
          "type_id": 1
        }
      }
    ],
    "special_tokens": {
      "[CLS]": {
        "id": "[CLS]",
        "ids": [
          2
        ],
        "tokens": [
          "[CLS]"
        ]
      },
      "[SEP]": {
        "id": "[SEP]",
        "ids": [
          3
        ],
        "tokens": [
          "[SEP]"
        ]
      }
    }
  },
  "decoder": {
    "type": "WordPiece",
    "prefix": "##",
    "cleanup": true
  },
  "model": {
    "type": "WordPiece",
    "unk_token": "[UNK]",
    "continuing_subword_prefix": "##",
    "max_input_chars_per_word": 100,
    "vocab": {
      "[PAD]": 0,
      "[UNK]": 1,
      "[CLS]": 2,
      "[SEP]": 3,
      "[MASK]": 4,
      "!": 5,
      "\"": 6,
      "#": 7,
      "$": 8,
      "%": 9,
      "&": 10,
      "'": 11,
      "(": 12,
      ")": 13,
      "*": 14,
      "+": 15,
      ",": 16,
      "-": 17,
      ".": 18,
      "/": 19,
      "0": 20,
      "1": 21,
      "2": 22,
      "3": 23,
      "4": 24,
      "5": 25,
      "6": 26,
      "7": 27,
      "8": 28,
      "9": 29,
      ":": 30,
      ";": 31,
      "<": 32,
      "=": 33,
      ">": 34,
      "?": 35,
      "@": 36,
      "[": 37,
      "\\": 38,
      "]": 39,
      "^": 40,
      "_": 41,
      "`": 42,
      "a": 43,
      "b": 44,
      "c": 45,
      "d": 46,
      "e": 47,
      "f": 48,
      "g": 49,
      "h": 50,
      "i": 51,
      "j": 52,
      "k": 53,
      "l": 54,
      "m": 55,
      "n": 56,
      "o": 57,
      "p": 58,
      "q": 59,
      "r": 60,
      "s": 61,
      "t": 62,
      "u": 63,
      "v": 64,
      "w": 65,
      "x": 66,
      "y": 67,
      "z": 68,
      "{": 69,
      "|": 70,
      "}": 71,
      "~": 72,
      "¡": 73,
      "¢": 74,
      "£": 75,
      "¤": 76,
      "¥": 77,
      "¦": 78,
      "§": 79,
      "¨": 80,
      "©": 81,
      "ª": 82,
      "¬": 83,
      "®": 84,
      "¯": 85,
      "°": 86,
      "±": 87,
      "²": 88,
      "´": 89,
      "µ": 90,
      "¶": 91,
      "·": 92,
      "¸": 93,
      "¹": 94,
      "º": 95,
      "»": 96,
      "¼": 97,
      "½": 98,
      "¾": 99,
      "¿": 100,
      "×": 101,
      "ß": 102,
      "æ": 103,
      "ð": 104,
      "÷": 105,
      "ø": 106,
      "þ": 107,
      "đ": 108,
      "ħ": 109,
      "ı": 110,
      "ł": 111,
      "ŉ": 112,
      "œ": 113,
      "ŧ": 114,
      "ſ": 115,
      "ƒ": 116,
      "ƣ": 117,
      "ƴ": 118,
      "ƿ": 119,
      "ȝ": 120,
      "ȣ": 121,
      "ə": 122,
      "ʃ": 123,
      "ʋ": 124,
      "ʒ": 125,
      "ʹ": 126,
      "˘": 127,
      "˙": 128,
      "˚": 129,
      "˜": 130,
      "͵": 131,
      "α": 132,
      "β": 133,
      "γ": 134,
      "δ": 135,
      "ε": 136,
      "ζ": 137,
      "η": 138,
      "θ": 139,
      "ι": 140,
      "κ": 141,
      "λ": 142,
      "μ": 143,
      "ν": 144,
      "ξ": 145,
      "ο": 146,
      "π": 147,
      "ρ": 148,
      "ς": 149,
      "σ": 150,
      "τ": 151,
      "υ": 152,
      "φ": 153,
      "χ": 154,
      "ψ": 155,
      "ω": 156,
      "ϑ": 157,
      "ϛ": 158,
      "ϝ": 159,
      "ϡ": 160,
      "ϲ": 161,
      "а": 162,
      "б": 163,
      "в": 164,
      "г": 165,
      "д": 166,
      "е": 167,
      "ж": 168,
      "з": 169,
      "и": 170,
      "к": 171,
      "л": 172,
      "м": 173,
      "н": 174,
      "о": 175,
      "п": 176,
      "р": 177,
      "с": 178,
      "т": 179,
      "у": 180,
      "ф": 181,
      "х": 182,
      "ц": 183,
      "ч": 184,
      "ш": 185,
      "щ": 186,
      "ы": 187,
      "ь": 188,
      "ю": 189,
      "і": 190,
      "ә": 191,
      "ԓ": 192,
      "׃": 193,
      "א": 194,
      "ב": 195,
      "ג": 196,
      "ד": 197,
      "ה": 198,
      "ו": 199,
      "ז": 200,
      "ח": 201,
      "ט": 202,
      "י": 203,
      "ך": 204,
      "כ": 205,
      "ל": 206,
      "ם": 207,
      "מ": 208,
      "ן": 209,
      "נ": 210,
      "ס": 211,
      "ע": 212,
      "ף": 213,
      "פ": 214,
      "ץ": 215,
      "צ": 216,
      "ק": 217,
      "ר": 218,
      "ש": 219,
      "ת": 220,
      "؛": 221,
      "٭": 222,
      "ٯ": 223,
      "܋": 224,
      "܍": 225,
      "ܩ": 226,
      "ߝ": 227,
      "ߞ": 228,
      "ߪ": 229,
      "॥": 230,
      "ક": 231,
      "ဟ": 232,
      "ဣ": 233,
      "ဤ": 234,
      "ၓ": 235,
      "ᄐ": 236,
      "ᅦ": 237,
      "ᅧ": 238,
      "ᅩ": 239,
      "ᅪ": 240,
      "ᆭ": 241,
      "ᆮ": 242,
      "ᆲ": 243,
      "ᆳ": 244,
      "ᆺ": 245,
      "ᇀ": 246,
      "ᇁ": 247,
      "ሄ": 248,
      "ሓ": 249,
      "ሔ": 250,
      "ቓ": 251,
      "ᐠ": 252,
      "ᔣ": 253,
      "ᴗ": 254,
      "ỻ": 255,
      "ỽ": 256,
      "ỿ": 257,
      "῀": 258,
      "‐": 259,
      "‑": 260,
      "‒": 261,
      "–": 262,
      "—": 263,
      "―": 264,
      "‖": 265,
      "‗": 266,
      "‘": 267,
      "’": 268,
      "‚": 269,
      "“": 270,
      "”": 271,
      "„": 272,
      "†": 273,
      "‡": 274,
      "•": 275,
      "․": 276,
      "‥": 277,
      "…": 278,
      "‱": 279,
      "′": 280,
      "″": 281,
      "‴": 282,
      "‹": 283,
      "›": 284,
      "⁁": 285,
      "⁂": 286,
      "⁃": 287,
      "⁆": 288,
      "⁋": 289,
      "⁎": 290,
      "⁏": 291,
      "⁐": 292,
      "⁓": 293,
      "⁔": 294,
      "⁖": 295,
      "⁙": 296,
      "⁛": 297,
      "₣": 298,
      "€": 299,
      "₽": 300,
      "℃": 301,
      "℄": 302,
      "℈": 303,
      "℔": 304,
      "ℛ": 305,
      "℞": 306,
      "℟": 307,
      "℠": 308,
      "℣": 309,
      "℥": 310,
      "ℵ": 311,
      "⅌": 312,
      "⅑": 313,
      "⅓": 314,
      "⅔": 315,
      "⅕": 316,
      "⅖": 317,
      "⅗": 318,
      "⅘": 319,
      "⅙": 320,
      "⅚": 321,
      "⅛": 322,
      "⅜": 323,
      "⅝": 324,
      "⅞": 325,
      "ↁ": 326,
      "ↂ": 327,
      "ↄ": 328,
      "ↇ": 329,
      "ↈ": 330,
      "←": 331,
      "↑": 332,
      "→": 333,
      "↓": 334,
      "↻": 335,
      "∊": 336,
      "−": 337,
      "∓": 338,
      "∗": 339,
      "∘": 340,
      "√": 341,
      "∝": 342,
      "∞": 343,
      "∠": 344,
      "∣": 345,
      "∥": 346,
      "∧": 347,
      "∨": 348,
      "∩": 349,
      "∪": 350,
      "∫": 351,
      "∴": 352,
      "∵": 353,
      "∶": 354,
      "∷": 355,
      "∺": 356,
      "∼": 357,
      "∽": 358,
      "⊕": 359,
      "⊗": 360,
      "⊙": 361,
      "⊢": 362,
      "⊣": 363,
      "⊦": 364,
      "⊽": 365,
      "⋆": 366,
      "⋮": 367,
      "⌊": 368,
      "␣": 369,
      "①": 370,
      "②": 371,
      "③": 372,
      "④": 373,
      "⑤": 374,
      "⑥": 375,
      "⑦": 376,
      "⑧": 377,
      "⑨": 378,
      "⓪": 379,
      "┓": 380,
      "└": 381,
      "╌": 382,
      "║": 383,
      "■": 384,
      "□": 385,
      "▪": 386,
      "▭": 387,
      "△": 388,
      "▴": 389,
      "▵": 390,
      "▹": 391,
      "▿": 392,
      "◃": 393,
      "◆": 394,
      "◊": 395,
      "○": 396,
      "●": 397,
      "◦": 398,
      "◬": 399,
      "◯": 400,
      "★": 401,
      "☆": 402,
      "☉": 403,
      "☊": 404,
      "☋": 405,
      "☌": 406,
      "☍": 407,
      "☐": 408,
      "☓": 409,
      "☜": 410,
      "☝": 411,
      "☞": 412,
      "☟": 413,
      "☠": 414,
      "☦": 415,
      "☧": 416,
      "☼": 417,
      "☽": 418,
      "☾": 419,
      "☿": 420,
      "♀": 421,
      "♁": 422,
      "♂": 423,
      "♃": 424,
      "♄": 425,
      "♈": 426,
      "♉": 427,
      "♊": 428,
      "♋": 429,
      "♌": 430,
      "♍": 431,
      "♎": 432,
      "♏": 433,
      "♐": 434,
      "♑": 435,
      "♒": 436,
      "♓": 437,
      "♠": 438,
      "♡": 439,
      "♣": 440,
      "♥": 441,
      "♩": 442,
      "♫": 443,
      "♭": 444,
      "♮": 445,
      "♯": 446,
      "⚀": 447,
      "⚁": 448,
      "⚂": 449,
      "⚃": 450,
      "⚄": 451,
      "⚅": 452,
      "⚜": 453,
      "⚹": 454,
      "⚺": 455,
      "✓": 456,
      "✚": 457,
      "✝": 458,
      "✦": 459,
      "✴": 460,
      "✶": 461,
      "✿": 462,
      "❀": 463,
      "❍": 464,
      "❛": 465,
      "❧": 466,
      "⤓": 467,
      "⤔": 468,
      "⤦": 469,
      "⦣": 470,
      "⦾": 471,
      "⸓": 472,
      "⸪": 473,
      "⸫": 474,
      "⸬": 475,
      "〈": 476,
      "〉": 477,
      "〓": 478,
      "馣": 479,
      "ꝑ": 480,
      "ꝓ": 481,
      "ꝗ": 482,
      "ꝙ": 483,
      "ꝧ": 484,
      "ꝫ": 485,
      "ꝭ": 486,
      "ꝯ": 487,
      "ꝰ": 488,
      "ﬂ": 489,
      "ﬥ": 490,
      "𐆖": 491,
      "𝄀": 492,
      "𝄁": 493,
      "𝄆": 494,
      "𝄐": 495,
      "𝄑": 496,
      "𝄔": 497,
      "𝄕": 498,
      "𝄞": 499,
      "𝄡": 500,
      "𝄢": 501,
      "𝄴": 502,
      "𝅝": 503,
      "𝆶": 504,
      "𝆷": 505,
      "𝆸": 506,
      "𝆹": 507,
      "𝇁": 508,
      "𝇂": 509,
      "𝇃": 510,
      "𝇄": 511,
      "𝇅": 512,
      "𝇆": 513,
      "𝇇": 514,
      "𝇈": 515,
      "𝇊": 516,
      "𝇋": 517,
      "𝇌": 518,
      "𝇍": 519,
      "𝇎": 520,
      "🜁": 521,
      "🜂": 522,
      "🜃": 523,
      "🜄": 524,
      "🜊": 525,
      "🜋": 526,
      "🜍": 527,
      "🜔": 528,
      "🜕": 529,
      "🜖": 530,
      "🜘": 531,
      "🜭": 532,
      "🜹": 533,
      "🜺": 534,
      "🜿": 535,
      "🝁": 536,
      "🝆": 537,
      "🝊": 538,
      "🝕": 539,
      "🝗": 540,
      "🝘": 541,
      "🝞": 542,
      "🝟": 543,
      "🝣": 544,
      "🝪": 545,
      "🝯": 546,
      "𠅄": 547,
      "𣀔": 548,
      "##e": 549,
      "##n": 550,
      "##i": 551,
      "##b": 552,
      "##t": 553,
      "##r": 554,
      "##m": 555,
      "##c": 556,
      "##o": 557,
      "##p": 558,
      "##a": 559,
      "##l": 560,
      "##ſ": 561,
      "##k": 562,
      "##s": 563,
      "##f": 564,
      "##y": 565,
      "##g": 566,
      "##d": 567,
      "##h": 568,
      "##v": 569,
      "##u": 570,
      "##w": 571,
      "##q": 572,
      "##8": 573,
      "##3": 574,
      "##4": 575,
      "##z": 576,
      "##j": 577,
      "##£": 578,
      "##1": 579,
      "##5": 580,
      "##x": 581,
      "##7": 582,
      "##0": 583,
      "##2": 584,
      "##9": 585,
      "##╌": 586,
      "##ꝰ": 587,
      "##ỿ": 588,
      "##6": 589,
      "##½": 590,
      "##ỽ": 591,
      "##ι": 592,
      "##σ": 593,
      "##τ": 594,
      "##ω": 595,
      "##œ": 596,
      "##×": 597,
      "##ð": 598,
      "##ƿ": 599,
      "##æ": 600,
      "##¼": 601,
      "##ε": 602,
      "##β": 603,
      "##α": 604,
      "##˙": 605,
      "##°": 606,
      "##ο": 607,
      "##χ": 608,
      "##μ": 609,
      "##ς": 610,
      "##⅞": 611,
      "##ȝ": 612,
      "##ρ": 613,
      "##η": 614,
      "##ν": 615,
      "##∶": 616,
      "##υ": 617,
      "##θ": 618,
      "##℃": 619,
      "##κ": 620,
      "##λ": 621,
      "##║": 622,
      "##γ": 623,
      "##ꝭ": 624,
      "##´": 625,
      "##¾": 626,
      "##⅗": 627,
      "##☞": 628,
      "##−": 629,
      "##♌": 630,
      "##♍": 631,
      "##π": 632,
      "##φ": 633,
      "##ζ": 634,
      "##đ": 635,
      "##♄": 636,
      "##þ": 637,
      "##÷": 638,
      "##ß": 639,
      "##ϲ": 640,
      "##ꝑ": 641,
      "##₽": 642,
      "##ξ": 643,
      "##δ": 644,
      "##ו": 645,
      "##ד": 646,
      "##ם": 647,
      "##ꝓ": 648,
      "##∷": 649,
      "##⅛": 650,
      "##ꝗ": 651,
      "##ª": 652,
      "##⅔": 653,
      "##⅓": 654,
      "##℄": 655,
      "##ψ": 656,
      "##מ": 657,
      "##ל": 658,
      "##ח": 659,
      "##א": 660,
      "##⅝": 661,
      "##☉": 662,
      "##ỻ": 663,
      "##⅜": 664,
      "##ƴ": 665,
      "##♏": 666,
      "##√": 667,
      "##♯": 668,
      "##𝄀": 669,
      "##ᅩ": 670,
      "##ᇁ": 671,
      "##ᄐ": 672,
      "##ᅦ": 673,
      "##ᇀ": 674,
      "##ᅪ": 675,
      "##ᅧ": 676,
      "##ᆭ": 677,
      "##ሄ": 678,
      "##¦": 679,
      "##ש": 680,
      "##º": 681,
      "##ꝙ": 682,
      "##☊": 683,
      "##∣": 684,
      "##♋": 685,
      "##□": 686,
      "##✝": 687,
      "##ꝫ": 688,
      "##┓": 689,
      "##©": 690,
      "##♀": 691,
      "##♃": 692,
      "##ᆮ": 693,
      "##♎": 694,
      "##ר": 695,
      "##י": 696,
      "##ת": 697,
      "##נ": 698,
      "##⅘": 699,
      "##⅙": 700,
      "##ၓ": 701,
      "##▪": 702,
      "##✶": 703,
      "##¯": 704,
      "##℈": 705,
      "##צ": 706,
      "##ק": 707,
      "##¸": 708,
      "##⅕": 709,
      "##כ": 710,
      "##℣": 711,
      "##ሔ": 712,
      "##ı": 713,
      "##♓": 714,
      "##♈": 715,
      "##♉": 716,
      "##♊": 717,
      "##ן": 718,
      "##☜": 719,
      "##⅚": 720,
      "##♭": 721,
      "##ŉ": 722,
      "##ס": 723,
      "##ה": 724,
      "##ʹ": 725,
      "##☋": 726,
      "##ø": 727,
      "##⅖": 728,
      "##с": 729,
      "##ꝧ": 730,
      "##└": 731,
      "##⤓": 732,
      "##ߝ": 733,
      "##∠": 734,
      "##℥": 735,
      "##ᆲ": 736,
      "##¹": 737,
      "##▭": 738,
      "##♐": 739,
      "##і": 740,
      "##◊": 741,
      "##͵": 742,
      "##е": 743,
      "##ԓ": 744,
      "##⤔": 745,
      "##☽": 746,
      "##ט": 747,
      "##♮": 748,
      "##♑": 749,
      "##ƒ": 750,
      "##▿": 751,
      "##▵": 752,
      "##ע": 753,
      "##◆": 754,
      "##ↈ": 755,
      "##ဣ": 756,
      "##¨": 757,
      "##ב": 758,
      "##↑": 759,
      "##ħ": 760,
      "##פ": 761,
      "##♂": 762,
      "##☿": 763,
      "##ↄ": 764,
      "##⅑": 765,
      "##ߞ": 766,
      "##℞": 767,
      "##𝆷": 768,
      "##ቓ": 769,
      "##𝆹": 770,
      "##ә": 771,
      "##ሓ": 772,
      "##¢": 773,
      "##♒": 774,
      "##𝄡": 775,
      "##²": 776,
      "##ꝯ": 777,
      "##ך": 778,
      "##ə": 779,
      "##☐": 780,
      "##г": 781,
      "##◯": 782,
      "##❛": 783,
      "##˘": 784,
      "##¤": 785,
      "##∞": 786,
      "##❀": 787,
      "##ᆳ": 788,
      "##ג": 789,
      "##±": 790,
      "##✚": 791,
      "##☦": 792,
      "##®": 793,
      "##𝆸": 794,
      "##ף": 795,
      "##→": 796,
      "##𝄢": 797,
      "##▴": 798,
      "##〓": 799,
      "##⚜": 800,
      "##ŧ": 801,
      "##⋆": 802,
      "##ᆺ": 803,
      "##а": 804,
      "##𝄞": 805,
      "##ᐠ": 806,
      "##⋮": 807,
      "##ﬂ": 808,
      "##∼": 809,
      "##в": 810,
      "##∗": 811,
      "##♁": 812,
      "##ф": 813,
      "##𝇋": 814,
      "##∫": 815,
      "##˜": 816,
      "##↻": 817,
      "##ᔣ": 818,
      "##ϝ": 819,
      "##☧": 820,
      "##ʋ": 821,
      "##ဤ": 822,
      "##⚹": 823,
      "##℠": 824,
      "##ℵ": 825,
      "##♥": 826,
      "th": 827,
      "the": 828,
      "##er": 829,
      "##nd": 830,
      "##at": 831,
      "##in": 832,
      "##re": 833,
      "of": 834,
      "##on": 835,
      "##en": 836,
      "and": 837,
      "##ou": 838,
      "to": 839,
      "##or": 840,
      "##ed": 841,
      "##es": 842,
      "##th": 843,
      "in": 844,
      "##ll": 845,
      "##is": 846,
      "##ing": 847,
      "##an": 848,
      "##ar": 849,
      "be": 850,
      "wh": 851,
      "that": 852,
      "##ic": 853,
      "##om": 854,
      "##it": 855,
      "##ion": 856,
      "##ſt": 857,
      "##le": 858,
      "no": 859,
      "##ent": 860,
      "he": 861,
      "##as": 862,
      "wi": 863,
      "##ce": 864,
      "##ut": 865,
      "is": 866,
      "re": 867,
      "it": 868,
      "for": 869,
      "ha": 870,
      "##ir": 871,
      "##ſe": 872,
      "##ly": 873,
      "##ur": 874,
      "##al": 875,
      "##ve": 876,
      "##ld": 877,
      "as": 878,
      "##ch": 879,
      "##ay": 880,
      "not": 881,
      "##im": 882,
      "##od": 883,
      "##gh": 884,
      "##ct": 885,
      "pr": 886,
      "##id": 887,
      "his": 888,
      "an": 889,
      "with": 890,
      "##et": 891,
      "##ow": 892,
      "##ich": 893,
      "on": 894,
      "de": 895,
      "##all": 896,
      "con": 897,
      "by": 898,
      "##se": 899,
      "##ere": 900,
      "##am": 901,
      "which": 902,
      "ch": 903,
      "or": 904,
      "this": 905,
      "##ther": 906,
      "##ter": 907,
      "##ie": 908,
      "they": 909,
      "##ver": 910,
      "but": 911,
      "##ain": 912,
      "##us": 913,
      "was": 914,
      "we": 915,
      "##ad": 916,
      "##ke": 917,
      "##ore": 918,
      "##ght": 919,
      "##our": 920,
      "##ould": 921,
      "##ation": 922,
      "fr": 923,
      "all": 924,
      "com": 925,
      "##ri": 926,
      "##pe": 927,
      "##em": 928,
      "are": 929,
      "their": 930,
      "them": 931,
      "##ue": 932,
      "##nt": 933,
      "##ers": 934,
      "##ge": 935,
      "##iſ": 936,
      "there": 937,
      "ex": 938,
      "him": 939,
      "##ord": 940,
      "at": 941,
      "pro": 942,
      "##st": 943,
      "do": 944,
      "##ul": 945,
      "##il": 946,
      "##and": 947,
      "have": 948,
      "##ath": 949,
      "##fe": 950,
      "ne": 951,
      "go": 952,
      "##um": 953,
      "##ne": 954,
      "man": 955,
      "##ab": 956,
      "ſh": 957,
      "from": 958,
      "li": 959,
      "god": 960,
      "##ure": 961,
      "al": 962,
      "##ant": 963,
      "me": 964,
      "sh": 965,
      "who": 966,
      "##ate": 967,
      "##ol": 968,
      "you": 969,
      "##uch": 970,
      "##ight": 971,
      "##art": 972,
      "##au": 973,
      "se": 974,
      "st": 975,
      "will": 976,
      "had": 977,
      "##ome": 978,
      "##po": 979,
      "pre": 980,
      "##ies": 981,
      "ma": 982,
      "if": 983,
      "##ard": 984,
      "tr": 985,
      "ſe": 986,
      "up": 987,
      "##pt": 988,
      "our": 989,
      "##ig": 990,
      "were": 991,
      "one": 992,
      "##ra": 993,
      "ſo": 994,
      "##ous": 995,
      "##reat": 996,
      "le": 997,
      "##are": 998,
      "##ence": 999,
      "##ity": 1000,
      "other": 1001,
      "my": 1002,
      "##est": 1003,
      "##fore": 1004,
      "##op": 1005,
      "##ment": 1006,
      "##ot": 1007,
      "##ame": 1008,
      "so": 1009,
      "##if": 1010,
      "en": 1011,
      "ab": 1012,
      "any": 1013,
      "##aſ": 1014,
      "##iv": 1015,
      "##ill": 1016,
      "int": 1017,
      "##ac": 1018,
      "ag": 1019,
      "wor": 1020,
      "su": 1021,
      "per": 1022,
      "what": 1023,
      "comm": 1024,
      "may": 1025,
      "##ort": 1026,
      "thou": 1027,
      "would": 1028,
      "ad": 1029,
      "##ine": 1030,
      "af": 1031,
      "then": 1032,
      "ar": 1033,
      "##qu": 1034,
      "can": 1035,
      "po": 1036,
      "##ire": 1037,
      "##pp": 1038,
      "ſt": 1039,
      "when": 1040,
      "lo": 1041,
      "##ci": 1042,
      "pl": 1043,
      "qu": 1044,
      "##ud": 1045,
      "##ſſ": 1046,
      "am": 1047,
      "more": 1048,
      "great": 1049,
      "##one": 1050,
      "##ist": 1051,
      "##ings": 1052,
      "##cc": 1053,
      "##ind": 1054,
      "fa": 1055,
      "co": 1056,
      "##ive": 1057,
      "##ong": 1058,
      "ver": 1059,
      "##ions": 1060,
      "mo": 1061,
      "ta": 1062,
      "part": 1063,
      "im": 1064,
      "##ance": 1065,
      "##un": 1066,
      "##able": 1067,
      "upon": 1068,
      "##ade": 1069,
      "br": 1070,
      "##ice": 1071,
      "her": 1072,
      "where": 1073,
      "##out": 1074,
      "bo": 1075,
      "tim": 1076,
      "la": 1077,
      "##per": 1078,
      "##ess": 1079,
      "out": 1080,
      "lord": 1081,
      "##uſt": 1082,
      "##ound": 1083,
      "##nder": 1084,
      "tho": 1085,
      "##ount": 1086,
      "been": 1087,
      "fe": 1088,
      "un": 1089,
      "ye": 1090,
      "##te": 1091,
      "##ber": 1092,
      "pe": 1093,
      "##ith": 1094,
      "##ry": 1095,
      "your": 1096,
      "##ſs": 1097,
      "into": 1098,
      "again": 1099,
      "##fer": 1100,
      "cont": 1101,
      "men": 1102,
      "##aid": 1103,
      "##now": 1104,
      "ob": 1105,
      "##ary": 1106,
      "ho": 1107,
      "##iſt": 1108,
      "us": 1109,
      "good": 1110,
      "ſu": 1111,
      "##ven": 1112,
      "##ble": 1113,
      "##ro": 1114,
      "being": 1115,
      "##ust": 1116,
      "now": 1117,
      "made": 1118,
      "##ish": 1119,
      "##ag": 1120,
      "##ction": 1121,
      "##lf": 1122,
      "##les": 1123,
      "##riſt": 1124,
      "##ph": 1125,
      "yet": 1126,
      "time": 1127,
      "##nto": 1128,
      "know": 1129,
      "##iſh": 1130,
      "gr": 1131,
      "fir": 1132,
      "##ree": 1133,
      "##ull": 1134,
      "##ace": 1135,
      "bec": 1136,
      "chriſt": 1137,
      "##li": 1138,
      "##lo": 1139,
      "king": 1140,
      "##eth": 1141,
      "##ian": 1142,
      "before": 1143,
      "very": 1144,
      "after": 1145,
      "##itt": 1146,
      "te": 1147,
      "hath": 1148,
      "did": 1149,
      "##ſſe": 1150,
      "##urch": 1151,
      "##wn": 1152,
      "how": 1153,
      "ever": 1154,
      "acc": 1155,
      "ſhall": 1156,
      "##we": 1157,
      "make": 1158,
      "ca": 1159,
      "hon": 1160,
      "much": 1161,
      "##ick": 1162,
      "##ves": 1163,
      "##ach": 1164,
      "##age": 1165,
      "##ast": 1166,
      "##ally": 1167,
      "##ons": 1168,
      "##tain": 1169,
      "than": 1170,
      "##ces": 1171,
      "church": 1172,
      "many": 1173,
      "tw": 1174,
      "rep": 1175,
      "##red": 1176,
      "##ak": 1177,
      "day": 1178,
      "like": 1179,
      "word": 1180,
      "mr": 1181,
      "sp": 1182,
      "ind": 1183,
      "fo": 1184,
      "ſuch": 1185,
      "##ious": 1186,
      "diſ": 1187,
      "##uer": 1188,
      "##ward": 1189,
      "call": 1190,
      "##ign": 1191,
      "comp": 1192,
      "under": 1193,
      "##uth": 1194,
      "right": 1195,
      "law": 1196,
      "let": 1197,
      "##ition": 1198,
      "has": 1199,
      "only": 1200,
      "should": 1201,
      "hou": 1202,
      "##ough": 1203,
      "##erv": 1204,
      "##fic": 1205,
      "ap": 1206,
      "##ia": 1207,
      "might": 1208,
      "##je": 1209,
      "nor": 1210,
      "count": 1211,
      "becau": 1212,
      "thy": 1213,
      "##ok": 1214,
      "##ss": 1215,
      "##ite": 1216,
      "##ations": 1217,
      "dis": 1218,
      "##ither": 1219,
      "##int": 1220,
      "theſe": 1221,
      "##co": 1222,
      "some": 1223,
      "ord": 1224,
      "op": 1225,
      "ſome": 1226,
      "##el": 1227,
      "things": 1228,
      "##ather": 1229,
      "mat": 1230,
      "##ip": 1231,
      "therefore": 1232,
      "without": 1233,
      "##av": 1234,
      "##ren": 1235,
      "##cl": 1236,
      "bet": 1237,
      "##ned": 1238,
      "##fect": 1239,
      "could": 1240,
      "act": 1241,
      "here": 1242,
      "##land": 1243,
      "pow": 1244,
      "rem": 1245,
      "##ars": 1246,
      "##ople": 1247,
      "##ult": 1248,
      "well": 1249,
      "two": 1250,
      "such": 1251,
      "##ning": 1252,
      "imp": 1253,
      "ſhould": 1254,
      "sc": 1255,
      "##ck": 1256,
      "end": 1257,
      "people": 1258,
      "##ink": 1259,
      "##ap": 1260,
      "##oy": 1261,
      "##led": 1262,
      "##ide": 1263,
      "take": 1264,
      "gover": 1265,
      "##ſo": 1266,
      "nat": 1267,
      "gen": 1268,
      "these": 1269,
      "##ated": 1270,
      "own": 1271,
      "##ict": 1272,
      "em": 1273,
      "thoſe": 1274,
      "##irit": 1275,
      "wr": 1276,
      "way": 1277,
      "mar": 1278,
      "cons": 1279,
      "govern": 1280,
      "haue": 1281,
      "##aſt": 1282,
      "##ru": 1283,
      "rel": 1284,
      "##ang": 1285,
      "come": 1286,
      "##cre": 1287,
      "ſhe": 1288,
      "##ſh": 1289,
      "conſ": 1290,
      "mem": 1291,
      "ſay": 1292,
      "world": 1293,
      "##ents": 1294,
      "ſin": 1295,
      "##ans": 1296,
      "app": 1297,
      "##ider": 1298,
      "##other": 1299,
      "##iſe": 1300,
      "prin": 1301,
      "hand": 1302,
      "##ile": 1303,
      "ear": 1304,
      "cl": 1305,
      "##thing": 1306,
      "work": 1307,
      "both": 1308,
      "##igh": 1309,
      "##ied": 1310,
      "##ken": 1311,
      "say": 1312,
      "par": 1313,
      "##ving": 1314,
      "##way": 1315,
      "##pect": 1316,
      "min": 1317,
      "##ject": 1318,
      "##act": 1319,
      "##ory": 1320,
      "##ty": 1321,
      "deſ": 1322,
      "reg": 1323,
      "bel": 1324,
      "thing": 1325,
      "every": 1326,
      "##end": 1327,
      "power": 1328,
      "inf": 1329,
      "chr": 1330,
      "##ub": 1331,
      "whe": 1332,
      "life": 1333,
      "##orm": 1334,
      "##ene": 1335,
      "gl": 1336,
      "sub": 1337,
      "##ild": 1338,
      "those": 1339,
      "put": 1340,
      "exp": 1341,
      "unto": 1342,
      "##ors": 1343,
      "bl": 1344,
      "place": 1345,
      "cor": 1346,
      "##own": 1347,
      "bod": 1348,
      "res": 1349,
      "gra": 1350,
      "char": 1351,
      "##ved": 1352,
      "cour": 1353,
      "##lves": 1354,
      "government": 1355,
      "##pos": 1356,
      "shall": 1357,
      "ſa": 1358,
      "pres": 1359,
      "ro": 1360,
      "##ful": 1361,
      "firſt": 1362,
      "christ": 1363,
      "##lem": 1364,
      "ſaid": 1365,
      "faith": 1366,
      "eng": 1367,
      "##ise": 1368,
      "though": 1369,
      "gener": 1370,
      "muſt": 1371,
      "about": 1372,
      "thr": 1373,
      "##ens": 1374,
      "think": 1375,
      "heart": 1376,
      "off": 1377,
      "whether": 1378,
      "giv": 1379,
      "matter": 1380,
      "doth": 1381,
      "##of": 1382,
      "house": 1383,
      "alſo": 1384,
      "##llow": 1385,
      "bre": 1386,
      "over": 1387,
      "rece": 1388,
      "sin": 1389,
      "ple": 1390,
      "moſt": 1391,
      "ſp": 1392,
      "##oun": 1393,
      "againſt": 1394,
      "form": 1395,
      "true": 1396,
      "long": 1397,
      "she": 1398,
      "##ep": 1399,
      "conf": 1400,
      "##ible": 1401,
      "cer": 1402,
      "cau": 1403,
      "give": 1404,
      "ſame": 1405,
      "##ament": 1406,
      "##ced": 1407,
      "spe": 1408,
      "jud": 1409,
      "war": 1410,
      "ſee": 1411,
      "pur": 1412,
      "cr": 1413,
      "##cer": 1414,
      "preſ": 1415,
      "##ily": 1416,
      "its": 1417,
      "##ſed": 1418,
      "another": 1419,
      "far": 1420,
      "appe": 1421,
      "##ib": 1422,
      "beg": 1423,
      "##full": 1424,
      "auth": 1425,
      "##ates": 1426,
      "cond": 1427,
      "said": 1428,
      "ev": 1429,
      "##nes": 1430,
      "##so": 1431,
      "dif": 1432,
      "gent": 1433,
      "thus": 1434,
      "new": 1435,
      "##ts": 1436,
      "##00": 1437,
      "read": 1438,
      "##lfe": 1439,
      "car": 1440,
      "mer": 1441,
      "##cy": 1442,
      "ke": 1443,
      "whom": 1444,
      "##ase": 1445,
      "##ought": 1446,
      "##ures": 1447,
      "perſ": 1448,
      "##ix": 1449,
      "##ple": 1450,
      "des": 1451,
      "##erm": 1452,
      "##ave": 1453,
      "##iend": 1454,
      "inter": 1455,
      "##ues": 1456,
      "thee": 1457,
      "see": 1458,
      "called": 1459,
      "never": 1460,
      "name": 1461,
      "##ants": 1462,
      "spirit": 1463,
      "vp": 1464,
      "vnto": 1465,
      "done": 1466,
      "non": 1467,
      "exce": 1468,
      "lat": 1469,
      "friend": 1470,
      "##lic": 1471,
      "whole": 1472,
      "##ls": 1473,
      "prov": 1474,
      "death": 1475,
      "reſ": 1476,
      "di": 1477,
      "first": 1478,
      "found": 1479,
      "hee": 1480,
      "arm": 1481,
      "##neſs": 1482,
      "ac": 1483,
      "##ius": 1484,
      "nothing": 1485,
      "##ake": 1486,
      "others": 1487,
      "##ular": 1488,
      "vs": 1489,
      "himſe": 1490,
      "ſpe": 1491,
      "becauſe": 1492,
      "certain": 1493,
      "too": 1494,
      "##king": 1495,
      "##ient": 1496,
      "##ement": 1497,
      "ef": 1498,
      "fl": 1499,
      "##iz": 1500,
      "##ities": 1501,
      "bill": 1502,
      "##ass": 1503,
      "##me": 1504,
      "author": 1505,
      "must": 1506,
      "ph": 1507,
      "##rib": 1508,
      "aff": 1509,
      "##ittle": 1510,
      "adm": 1511,
      "thought": 1512,
      "pray": 1513,
      "taken": 1514,
      "find": 1515,
      "little": 1516,
      "order": 1517,
      "##wer": 1518,
      "belie": 1519,
      "bee": 1520,
      "sir": 1521,
      "##cond": 1522,
      "##ute": 1523,
      "##ner": 1524,
      "among": 1525,
      "##ians": 1526,
      "##ours": 1527,
      "holy": 1528,
      "body": 1529,
      "##ript": 1530,
      "country": 1531,
      "coun": 1532,
      "land": 1533,
      "child": 1534,
      "follow": 1535,
      "love": 1536,
      "pub": 1537,
      "high": 1538,
      "dr": 1539,
      "accord": 1540,
      "##uſ": 1541,
      "most": 1542,
      "nature": 1543,
      "##ial": 1544,
      "##und": 1545,
      "words": 1546,
      "##ution": 1547,
      "mind": 1548,
      "sa": 1549,
      "##by": 1550,
      "through": 1551,
      "wat": 1552,
      "three": 1553,
      "##ention": 1554,
      "##oub": 1555,
      "sou": 1556,
      "jo": 1557,
      "##itie": 1558,
      "fur": 1559,
      "div": 1560,
      "mean": 1561,
      "##ft": 1562,
      "doe": 1563,
      "because": 1564,
      "even": 1565,
      "ref": 1566,
      "mon": 1567,
      "##aſon": 1568,
      "adv": 1569,
      "att": 1570,
      "num": 1571,
      "ret": 1572,
      "against": 1573,
      "same": 1574,
      "pers": 1575,
      "also": 1576,
      "##ſes": 1577,
      "having": 1578,
      "##kes": 1579,
      "apo": 1580,
      "hum": 1581,
      "tem": 1582,
      "##ood": 1583,
      "gods": 1584,
      "##ters": 1585,
      "wee": 1586,
      "according": 1587,
      "##ued": 1588,
      "##res": 1589,
      "given": 1590,
      "quest": 1591,
      "tur": 1592,
      "ou": 1593,
      "gentlem": 1594,
      "prom": 1595,
      "ext": 1596,
      "rec": 1597,
      "kind": 1598,
      "partic": 1599,
      "relig": 1600,
      "##aine": 1601,
      "father": 1602,
      "##ual": 1603,
      "command": 1604,
      "common": 1605,
      "either": 1606,
      "##de": 1607,
      "point": 1608,
      "##ared": 1609,
      "consider": 1610,
      "dep": 1611,
      "##ack": 1612,
      "##cip": 1613,
      "##be": 1614,
      "inc": 1615,
      "occ": 1616,
      "dut": 1617,
      "art": 1618,
      "ra": 1619,
      "ought": 1620,
      "came": 1621,
      "truth": 1622,
      "je": 1623,
      "##gether": 1624,
      "##vers": 1625,
      "ask": 1626,
      "present": 1627,
      "##tend": 1628,
      "full": 1629,
      "tre": 1630,
      "##ted": 1631,
      "##xt": 1632,
      "##edi": 1633,
      "##ten": 1634,
      "contin": 1635,
      "ſub": 1636,
      "away": 1637,
      "##ical": 1638,
      "##not": 1639,
      "##wards": 1640,
      "contr": 1641,
      "grace": 1642,
      "gu": 1643,
      "##ae": 1644,
      "why": 1645,
      "##ief": 1646,
      "##ho": 1647,
      "cle": 1648,
      "better": 1649,
      "##io": 1650,
      "earth": 1651,
      "##cess": 1652,
      "head": 1653,
      "state": 1654,
      "##ments": 1655,
      "onely": 1656,
      "##ged": 1657,
      "vn": 1658,
      "serv": 1659,
      "light": 1660,
      "paſ": 1661,
      "years": 1662,
      "member": 1663,
      "hea": 1664,
      "eſt": 1665,
      "##cret": 1666,
      "##yn": 1667,
      "##its": 1668,
      "inde": 1669,
      "add": 1670,
      "down": 1671,
      "doct": 1672,
      "##gn": 1673,
      "##ines": 1674,
      "themſe": 1675,
      "question": 1676,
      "bur": 1677,
      "aſſ": 1678,
      "need": 1679,
      "thir": 1680,
      "lear": 1681,
      "concer": 1682,
      "ed": 1683,
      "general": 1684,
      "effect": 1685,
      "juſt": 1686,
      "est": 1687,
      "##uen": 1688,
      "##ceſſ": 1689,
      "cannot": 1690,
      "##mo": 1691,
      "brought": 1692,
      "red": 1693,
      "happ": 1694,
      "neither": 1695,
      "##ever": 1696,
      "col": 1697,
      "ey": 1698,
      "old": 1699,
      "ſet": 1700,
      "fall": 1701,
      "himſelf": 1702,
      "reaſon": 1703,
      "plac": 1704,
      "##bers": 1705,
      "##ress": 1706,
      "##quire": 1707,
      "kingd": 1708,
      "year": 1709,
      "##wne": 1710,
      "betwe": 1711,
      "ſuf": 1712,
      "reas": 1713,
      "pa": 1714,
      "##ange": 1715,
      "heaven": 1716,
      "##ude": 1717,
      "ass": 1718,
      "ele": 1719,
      "peace": 1720,
      "er": 1721,
      "bu": 1722,
      "que": 1723,
      "bar": 1724,
      "##ited": 1725,
      "differ": 1726,
      "proper": 1727,
      "vpon": 1728,
      "gre": 1729,
      "##aſe": 1730,
      "##ently": 1731,
      "##ific": 1732,
      "##ceed": 1733,
      "ru": 1734,
      "##hn": 1735,
      "parli": 1736,
      "##ances": 1737,
      "script": 1738,
      "care": 1739,
      "regard": 1740,
      "opin": 1741,
      "dra": 1742,
      "bring": 1743,
      "##cted": 1744,
      "##ks": 1745,
      "particular": 1746,
      "gentleman": 1747,
      "judg": 1748,
      "hope": 1749,
      "children": 1750,
      "##iue": 1751,
      "latin": 1752,
      "himse": 1753,
      "rather": 1754,
      "england": 1755,
      "manner": 1756,
      "commit": 1757,
      "decl": 1758,
      "##atis": 1759,
      "noble": 1760,
      "want": 1761,
      "rom": 1762,
      "##anding": 1763,
      "honour": 1764,
      "exam": 1765,
      "##ouſ": 1766,
      "ent": 1767,
      "##odu": 1768,
      "##ived": 1769,
      "together": 1770,
      "##irm": 1771,
      "##ides": 1772,
      "den": 1773,
      "##iss": 1774,
      "number": 1775,
      "##ier": 1776,
      "##up": 1777,
      "religion": 1778,
      "look": 1779,
      "clo": 1780,
      "sch": 1781,
      "son": 1782,
      "##tern": 1783,
      "parliament": 1784,
      "arg": 1785,
      "alph": 1786,
      "ly": 1787,
      "wom": 1788,
      "pat": 1789,
      "##gth": 1790,
      "offic": 1791,
      "within": 1792,
      "##que": 1793,
      "wo": 1794,
      "##erve": 1795,
      "while": 1796,
      "##eſt": 1797,
      "second": 1798,
      "##als": 1799,
      "times": 1800,
      "subject": 1801,
      "fore": 1802,
      "reſt": 1803,
      "four": 1804,
      "##neſſe": 1805,
      "##ſpe": 1806,
      "doub": 1807,
      "##itted": 1808,
      "euer": 1809,
      "dist": 1810,
      "pet": 1811,
      "ground": 1812,
      "hold": 1813,
      "##abet": 1814,
      "##oue": 1815,
      "##read": 1816,
      "enem": 1817,
      "ſaith": 1818,
      "alphabet": 1819,
      "inſt": 1820,
      "##irc": 1821,
      "till": 1822,
      "retur": 1823,
      "diſt": 1824,
      "water": 1825,
      "sac": 1826,
      "ſtr": 1827,
      "def": 1828,
      "tell": 1829,
      "##ane": 1830,
      "lords": 1831,
      "##ting": 1832,
      "und": 1833,
      "last": 1834,
      "inst": 1835,
      "pol": 1836,
      "16": 1837,
      "free": 1838,
      "ill": 1839,
      "##arge": 1840,
      "conſider": 1841,
      "just": 1842,
      "##ness": 1843,
      "between": 1844,
      "blo": 1845,
      "ten": 1846,
      "lab": 1847,
      "themſelves": 1848,
      "hor": 1849,
      "vv": 1850,
      "proph": 1851,
      "##fort": 1852,
      "mor": 1853,
      "##os": 1854,
      "##ſion": 1855,
      "pract": 1856,
      "str": 1857,
      "el": 1858,
      "pay": 1859,
      "##cept": 1860,
      "enter": 1861,
      "set": 1862,
      "further": 1863,
      "deli": 1864,
      "##ages": 1865,
      "thereof": 1866,
      "##ified": 1867,
      "##ledge": 1868,
      "emp": 1869,
      "reason": 1870,
      "##ained": 1871,
      "cauſe": 1872,
      "prof": 1873,
      "open": 1874,
      "##ister": 1875,
      "##row": 1876,
      "forth": 1877,
      "wit": 1878,
      "circ": 1879,
      "creat": 1880,
      "##pose": 1881,
      "dev": 1882,
      "committe": 1883,
      "du": 1884,
      "anſ": 1885,
      "19": 1886,
      "former": 1887,
      "##oc": 1888,
      "case": 1889,
      "able": 1890,
      "##cil": 1891,
      "laſt": 1892,
      "account": 1893,
      "##ſter": 1894,
      "ſou": 1895,
      "bene": 1896,
      "cur": 1897,
      "suf": 1898,
      "indeed": 1899,
      "dire": 1900,
      "inv": 1901,
      "##alt": 1902,
      "hard": 1903,
      "ſpirit": 1904,
      "##poſe": 1905,
      "##ating": 1906,
      "liber": 1907,
      "##ove": 1908,
      "necess": 1909,
      "##ug": 1910,
      "none": 1911,
      "lay": 1912,
      "imm": 1913,
      "owne": 1914,
      "##mall": 1915,
      "believe": 1916,
      "det": 1917,
      "supp": 1918,
      "hel": 1919,
      "ty": 1920,
      "get": 1921,
      "fam": 1922,
      "members": 1923,
      "##ec": 1924,
      "##ſſed": 1925,
      "ba": 1926,
      "mone": 1927,
      "natur": 1928,
      "doctr": 1929,
      "hear": 1930,
      "10": 1931,
      "##atisf": 1932,
      "poss": 1933,
      "##aint": 1934,
      "priv": 1935,
      "##loy": 1936,
      "pass": 1937,
      "val": 1938,
      "##idence": 1939,
      "##ote": 1940,
      "ble": 1941,
      "opinion": 1942,
      "##oud": 1943,
      "fact": 1944,
      "court": 1945,
      "ſc": 1946,
      "keep": 1947,
      "##uing": 1948,
      "##ety": 1949,
      "secret": 1950,
      "proceed": 1951,
      "000": 1952,
      "##ger": 1953,
      "apoſt": 1954,
      "del": 1955,
      "ant": 1956,
      "ſelf": 1957,
      "##ised": 1958,
      "hands": 1959,
      "##imes": 1960,
      "glory": 1961,
      "blood": 1962,
      "##lish": 1963,
      "obſ": 1964,
      "kings": 1965,
      "ordin": 1966,
      "##omin": 1967,
      "##ined": 1968,
      "ſhew": 1969,
      "uſe": 1970,
      "begin": 1971,
      "next": 1972,
      "18": 1973,
      "##ficient": 1974,
      "parts": 1975,
      "writ": 1976,
      "##ets": 1977,
      "third": 1978,
      "##poſ": 1979,
      "##ail": 1980,
      "equ": 1981,
      "book": 1982,
      "##ility": 1983,
      "rich": 1984,
      "sy": 1985,
      "means": 1986,
      "committee": 1987,
      "##ident": 1988,
      "##inted": 1989,
      "##ames": 1990,
      "left": 1991,
      "themse": 1992,
      "fre": 1993,
      "##ares": 1994,
      "pleaſ": 1995,
      "##pend": 1996,
      "prev": 1997,
      "##ences": 1998,
      "##iew": 1999,
      "##anger": 2000,
      "require": 2001,
      "##liſh": 2002,
      "prince": 2003,
      "leg": 2004,
      "once": 2005,
      "##ided": 2006,
      "##erst": 2007,
      "dec": 2008,
      "##icked": 2009,
      "##any": 2010,
      "##ried": 2011,
      "neceſſ": 2012,
      "iſ": 2013,
      "preſent": 2014,
      "##ling": 2015,
      "authority": 2016,
      "##ime": 2017,
      "main": 2018,
      "##og": 2019,
      "##ech": 2020,
      "##air": 2021,
      "cap": 2022,
      "meet": 2023,
      "deſire": 2024,
      "##ately": 2025,
      "io": 2026,
      "##ale": 2027,
      "houſe": 2028,
      "large": 2029,
      "##itions": 2030,
      "##unt": 2031,
      "##ury": 2032,
      "greater": 2033,
      "mot": 2034,
      "##empt": 2035,
      "##ring": 2036,
      "each": 2037,
      "maj": 2038,
      "doubt": 2039,
      "id": 2040,
      "12": 2041,
      "##uit": 2042,
      "ser": 2043,
      "##to": 2044,
      "dy": 2045,
      "##ges": 2046,
      "wicked": 2047,
      "##cour": 2048,
      "import": 2049,
      "places": 2050,
      "fle": 2051,
      "alway": 2052,
      "pun": 2053,
      "worth": 2054,
      "nation": 2055,
      "fire": 2056,
      "kingdom": 2057,
      "miſ": 2058,
      "perfect": 2059,
      "perſon": 2060,
      "##alth": 2061,
      "const": 2062,
      "bor": 2063,
      "princip": 2064,
      "dur": 2065,
      "rest": 2066,
      "##enſ": 2067,
      "##oke": 2068,
      "propos": 2069,
      "hy": 2070,
      "15": 2071,
      "does": 2072,
      "duty": 2073,
      "##ops": 2074,
      "prop": 2075,
      "##ains": 2076,
      "##with": 2077,
      "offer": 2078,
      "##ſus": 2079,
      "##ience": 2080,
      "##omet": 2081,
      "##af": 2082,
      "allow": 2083,
      "anſwer": 2084,
      "##ices": 2085,
      "##ured": 2086,
      "teach": 2087,
      "appo": 2088,
      "himself": 2089,
      "ans": 2090,
      "##uc": 2091,
      "##iam": 2092,
      "money": 2093,
      "deb": 2094,
      "sal": 2095,
      "ſeem": 2096,
      "above": 2097,
      "went": 2098,
      "##fend": 2099,
      "yea": 2100,
      "fear": 2101,
      "night": 2102,
      "##ative": 2103,
      "##ouch": 2104,
      "report": 2105,
      "##ark": 2106,
      "view": 2107,
      "commun": 2108,
      "##hip": 2109,
      "joy": 2110,
      "##mon": 2111,
      "asked": 2112,
      "sent": 2113,
      "ce": 2114,
      "righte": 2115,
      "mil": 2116,
      "fal": 2117,
      "ve": 2118,
      "object": 2119,
      "##uted": 2120,
      "##rupt": 2121,
      "iud": 2122,
      "##ſhip": 2123,
      "##ually": 2124,
      "ſent": 2125,
      "amend": 2126,
      "ut": 2127,
      "wal": 2128,
      "pra": 2129,
      "refer": 2130,
      "preach": 2131,
      "##lues": 2132,
      "pop": 2133,
      "grant": 2134,
      "ir": 2135,
      "##veral": 2136,
      "heard": 2137,
      "ter": 2138,
      "vir": 2139,
      "##par": 2140,
      "concl": 2141,
      "stat": 2142,
      "depart": 2143,
      "knowledge": 2144,
      "whoſe": 2145,
      "##iſed": 2146,
      "ſpeak": 2147,
      "cal": 2148,
      "live": 2149,
      "fin": 2150,
      "miniſt": 2151,
      "public": 2152,
      "appear": 2153,
      "produ": 2154,
      "few": 2155,
      "##mb": 2156,
      "##ument": 2157,
      "ire": 2158,
      "dead": 2159,
      "doctrine": 2160,
      "scripture": 2161,
      "office": 2162,
      "##iour": 2163,
      "scot": 2164,
      "fort": 2165,
      "diffic": 2166,
      "##cially": 2167,
      "secretary": 2168,
      "fav": 2169,
      "##ield": 2170,
      "##form": 2171,
      "es": 2172,
      "received": 2173,
      "##lt": 2174,
      "prote": 2175,
      "wherein": 2176,
      "minister": 2177,
      "city": 2178,
      "ins": 2179,
      "force": 2180,
      "difficult": 2181,
      "##den": 2182,
      "circum": 2183,
      "often": 2184,
      "11": 2185,
      "john": 2186,
      "danger": 2187,
      "##wiſe": 2188,
      "har": 2189,
      "incre": 2190,
      "learned": 2191,
      "contrary": 2192,
      "mention": 2193,
      "med": 2194,
      "alth": 2195,
      "mod": 2196,
      "##ission": 2197,
      "##ery": 2198,
      "coll": 2199,
      "##ably": 2200,
      "##ency": 2201,
      "##cover": 2202,
      "beſt": 2203,
      "perſons": 2204,
      "gave": 2205,
      "ireland": 2206,
      "##ont": 2207,
      "etern": 2208,
      "towards": 2209,
      "conce": 2210,
      "##ifie": 2211,
      "opp": 2212,
      "labour": 2213,
      "beh": 2214,
      "##rength": 2215,
      "deal": 2216,
      "##cience": 2217,
      "ep": 2218,
      "making": 2219,
      "ann": 2220,
      "except": 2221,
      "eyes": 2222,
      "inform": 2223,
      "excell": 2224,
      "sup": 2225,
      "aſ": 2226,
      "themselves": 2227,
      "##gre": 2228,
      "kne": 2229,
      "conſt": 2230,
      "council": 2231,
      "treat": 2232,
      "fit": 2233,
      "vi": 2234,
      "glor": 2235,
      "leave": 2236,
      "##owne": 2237,
      "##joy": 2238,
      "ie": 2239,
      "use": 2240,
      "##ham": 2241,
      "capt": 2242,
      "term": 2243,
      "respect": 2244,
      "14": 2245,
      "exper": 2246,
      "run": 2247,
      "caſt": 2248,
      "##crib": 2249,
      "expect": 2250,
      "concerning": 2251,
      "phil": 2252,
      "##well": 2253,
      "ende": 2254,
      "##cial": 2255,
      "chief": 2256,
      "remem": 2257,
      "##gy": 2258,
      "##asure": 2259,
      "although": 2260,
      "13": 2261,
      "comfort": 2262,
      "pen": 2263,
      "speak": 2264,
      "##ric": 2265,
      "brit": 2266,
      "condition": 2267,
      "vert": 2268,
      "makes": 2269,
      "lond": 2270,
      "wa": 2271,
      "trade": 2272,
      "seem": 2273,
      "answer": 2274,
      "home": 2275,
      "going": 2276,
      "town": 2277,
      "##arch": 2278,
      "bapt": 2279,
      "biſh": 2280,
      "person": 2281,
      "port": 2282,
      "##lly": 2283,
      "ſuffer": 2284,
      "deliver": 2285,
      "disc": 2286,
      "desire": 2287,
      "poor": 2288,
      "##hold": 2289,
      "accept": 2290,
      "17": 2291,
      "##augh": 2292,
      "age": 2293,
      "told": 2294,
      "cro": 2295,
      "army": 2296,
      "##ead": 2297,
      "##ites": 2298,
      "clear": 2299,
      "sav": 2300,
      "##anſ": 2301,
      "divine": 2302,
      "paul": 2303,
      "##ying": 2304,
      "real": 2305,
      "##lig": 2306,
      "rome": 2307,
      "lu": 2308,
      "##ng": 2309,
      "hund": 2310,
      "sw": 2311,
      "##itude": 2312,
      "cho": 2313,
      "charge": 2314,
      "alread": 2315,
      "chriſtian": 2316,
      "##ton": 2317,
      "affect": 2318,
      "##outh": 2319,
      "works": 2320,
      "##br": 2321,
      "rule": 2322,
      "vnder": 2323,
      "da": 2324,
      "##ret": 2325,
      "##gg": 2326,
      "chap": 2327,
      "enough": 2328,
      "sen": 2329,
      "##ented": 2330,
      "che": 2331,
      "board": 2332,
      "exer": 2333,
      "##ouer": 2334,
      "##ended": 2335,
      "##ſſion": 2336,
      "neg": 2337,
      "dece": 2338,
      "exec": 2339,
      "om": 2340,
      "friends": 2341,
      "bound": 2342,
      "##ineſs": 2343,
      "london": 2344,
      "##ries": 2345,
      "evil": 2346,
      "met": 2347,
      "##por": 2348,
      "##esse": 2349,
      "##erved": 2350,
      "ſtill": 2351,
      "inh": 2352,
      "perform": 2353,
      "help": 2354,
      "underst": 2355,
      "##verſ": 2356,
      "##ieſt": 2357,
      "interest": 2358,
      "mag": 2359,
      "back": 2360,
      "mis": 2361,
      "##ins": 2362,
      "trans": 2363,
      "lad": 2364,
      "near": 2365,
      "##ium": 2366,
      "##ometimes": 2367,
      "hundred": 2368,
      "direct": 2369,
      "##lee": 2370,
      "eu": 2371,
      "##cur": 2372,
      "##athers": 2373,
      "already": 2374,
      "##che": 2375,
      "forg": 2376,
      "mercy": 2377,
      "tri": 2378,
      "ange": 2379,
      "sure": 2380,
      "took": 2381,
      "reſpect": 2382,
      "##omm": 2383,
      "mal": 2384,
      "cause": 2385,
      "##ision": 2386,
      "expre": 2387,
      "hearts": 2388,
      "service": 2389,
      "##imon": 2390,
      "##uall": 2391,
      "appro": 2392,
      "deſt": 2393,
      "touch": 2394,
      "coven": 2395,
      "ri": 2396,
      "##man": 2397,
      "conv": 2398,
      "err": 2399,
      "ſecond": 2400,
      "obs": 2401,
      "receive": 2402,
      "known": 2403,
      "sl": 2404,
      "underſt": 2405,
      "ign": 2406,
      "##fection": 2407,
      "employ": 2408,
      "enemies": 2409,
      "sea": 2410,
      "##yd": 2411,
      "##aints": 2412,
      "##iers": 2413,
      "favour": 2414,
      "av": 2415,
      "kn": 2416,
      "teſt": 2417,
      "##ands": 2418,
      "rev": 2419,
      "##ification": 2420,
      "##omp": 2421,
      "##ches": 2422,
      "##fully": 2423,
      "due": 2424,
      "##ouble": 2425,
      "inſ": 2426,
      "caſe": 2427,
      "still": 2428,
      "since": 2429,
      "soul": 2430,
      "best": 2431,
      "benef": 2432,
      "##inke": 2433,
      "ſer": 2434,
      "pope": 2435,
      "##ys": 2436,
      "ſign": 2437,
      "vo": 2438,
      "##lict": 2439,
      "late": 2440,
      "himſelfe": 2441,
      "##ination": 2442,
      "##reh": 2443,
      "##uss": 2444,
      "persons": 2445,
      "ge": 2446,
      "become": 2447,
      "sum": 2448,
      "##ior": 2449,
      "days": 2450,
      "during": 2451,
      "course": 2452,
      "fig": 2453,
      "grow": 2454,
      "##cul": 2455,
      "draw": 2456,
      "##tained": 2457,
      "always": 2458,
      "ſince": 2459,
      "##une": 2460,
      "qui": 2461,
      "whereof": 2462,
      "dem": 2463,
      "agree": 2464,
      "ouer": 2465,
      "##ixt": 2466,
      "self": 2467,
      "unt": 2468,
      "alone": 2469,
      "leaſt": 2470,
      "carry": 2471,
      "brother": 2472,
      "ſerv": 2473,
      "ven": 2474,
      "##weet": 2475,
      "corrupt": 2476,
      "##eem": 2477,
      "return": 2478,
      "laws": 2479,
      "goſpe": 2480,
      "##anc": 2481,
      "low": 2482,
      "##amp": 2483,
      "##nesse": 2484,
      "loc": 2485,
      "mid": 2486,
      "pos": 2487,
      "##wh": 2488,
      "emper": 2489,
      "tranſ": 2490,
      "plain": 2491,
      "var": 2492,
      "##leſs": 2493,
      "lie": 2494,
      "covenant": 2495,
      "bish": 2496,
      "necessary": 2497,
      "sign": 2498,
      "whose": 2499,
      "cath": 2500,
      "##aps": 2501,
      "##ah": 2502,
      "fair": 2503,
      "##aue": 2504,
      "quite": 2505,
      "##ened": 2506,
      "churches": 2507,
      "##ished": 2508,
      "20": 2509,
      "##itten": 2510,
      "ſl": 2511,
      "almo": 2512,
      "ſelfe": 2513,
      "impo": 2514,
      "exc": 2515,
      "incl": 2516,
      "##ality": 2517,
      "matters": 2518,
      "condem": 2519,
      "taking": 2520,
      "loue": 2521,
      "company": 2522,
      "however": 2523,
      "compl": 2524,
      "##oph": 2525,
      "wife": 2526,
      "gold": 2527,
      "shew": 2528,
      "##cient": 2529,
      "agre": 2530,
      "occaſ": 2531,
      "aw": 2532,
      "civ": 2533,
      "cent": 2534,
      "fac": 2535,
      "##ases": 2536,
      "face": 2537,
      "tax": 2538,
      "immedi": 2539,
      "neuer": 2540,
      "##rench": 2541,
      "party": 2542,
      "againe": 2543,
      "fathers": 2544,
      "lead": 2545,
      "advant": 2546,
      "##uly": 2547,
      "##edience": 2548,
      "yn": 2549,
      "##rael": 2550,
      "##iſhed": 2551,
      "beſ": 2552,
      "feel": 2553,
      "##iqu": 2554,
      "##uſe": 2555,
      "hol": 2556,
      "prayer": 2557,
      "##yr": 2558,
      "bear": 2559,
      "##ctions": 2560,
      "##iled": 2561,
      "tit": 2562,
      "gall": 2563,
      "build": 2564,
      "commission": 2565,
      "amendment": 2566,
      "clau": 2567,
      "laid": 2568,
      "##gr": 2569,
      "mother": 2570,
      "kept": 2571,
      "duke": 2572,
      "cut": 2573,
      "##arent": 2574,
      "aug": 2575,
      "##ration": 2576,
      "##amed": 2577,
      "euery": 2578,
      "ban": 2579,
      "young": 2580,
      "##uation": 2581,
      "##tle": 2582,
      "acts": 2583,
      "##lie": 2584,
      "##rew": 2585,
      "eſ": 2586,
      "judge": 2587,
      "oblig": 2588,
      "##bit": 2589,
      "oppos": 2590,
      "ship": 2591,
      "sur": 2592,
      "mouth": 2593,
      "##ruction": 2594,
      "chance": 2595,
      "hen": 2596,
      "ſup": 2597,
      "repres": 2598,
      "princes": 2599,
      "ſpo": 2600,
      "pap": 2601,
      "dam": 2602,
      "small": 2603,
      "##right": 2604,
      "held": 2605,
      "scho": 2606,
      "haſt": 2607,
      "##ased": 2608,
      "action": 2609,
      "knew": 2610,
      "vol": 2611,
      "##the": 2612,
      "officers": 2613,
      "liberty": 2614,
      "viol": 2615,
      "sim": 2616,
      "different": 2617,
      "confe": 2618,
      "prep": 2619,
      "##vation": 2620,
      "rul": 2621,
      "got": 2622,
      "letter": 2623,
      "repent": 2624,
      "##olution": 2625,
      "attend": 2626,
      "oper": 2627,
      "argument": 2628,
      "##ives": 2629,
      "half": 2630,
      "inn": 2631,
      "##ibus": 2632,
      "##quer": 2633,
      "##ements": 2634,
      "majest": 2635,
      "wind": 2636,
      "abſ": 2637,
      "perh": 2638,
      "whereby": 2639,
      "satisf": 2640,
      "##rif": 2641,
      "##aw": 2642,
      "sk": 2643,
      "##ths": 2644,
      "##ell": 2645,
      "##der": 2646,
      "##ession": 2647,
      "jeſus": 2648,
      "written": 2649,
      "pſ": 2650,
      "##anct": 2651,
      "feare": 2652,
      "##iness": 2653,
      "fleſh": 2654,
      "tis": 2655,
      "heau": 2656,
      "cred": 2657,
      "natural": 2658,
      "##ners": 2659,
      "##olute": 2660,
      "##ilt": 2661,
      "##uous": 2662,
      "ignor": 2663,
      "saith": 2664,
      "lim": 2665,
      "perhaps": 2666,
      "sun": 2667,
      "doing": 2668,
      "imag": 2669,
      "diu": 2670,
      "orig": 2671,
      "mount": 2672,
      "hop": 2673,
      "woman": 2674,
      "prove": 2675,
      "##ouſly": 2676,
      "##enſe": 2677,
      "following": 2678,
      "ſure": 2679,
      "ack": 2680,
      "endeav": 2681,
      "##cious": 2682,
      "turn": 2683,
      "weak": 2684,
      "##aries": 2685,
      "roy": 2686,
      "beginning": 2687,
      "##ison": 2688,
      "ecc": 2689,
      "##aut": 2690,
      "giue": 2691,
      "appointed": 2692,
      "comes": 2693,
      "suffer": 2694,
      "motion": 2695,
      "extra": 2696,
      "willing": 2697,
      "##ert": 2698,
      "speech": 2699,
      "cathol": 2700,
      "acknow": 2701,
      "mark": 2702,
      "##wise": 2703,
      "french": 2704,
      "certainly": 2705,
      "determ": 2706,
      "france": 2707,
      "earl": 2708,
      "fif": 2709,
      "##enty": 2710,
      "##aim": 2711,
      "cre": 2712,
      "##yed": 2713,
      "ſeveral": 2714,
      "##aught": 2715,
      "##cend": 2716,
      "occas": 2717,
      "domin": 2718,
      "##itution": 2719,
      "merc": 2720,
      "bat": 2721,
      "viz": 2722,
      "maje": 2723,
      "mur": 2724,
      "abs": 2725,
      "majeſt": 2726,
      "crown": 2727,
      "eaſ": 2728,
      "##cure": 2729,
      "##men": 2730,
      "mort": 2731,
      "jew": 2732,
      "##poſed": 2733,
      "ready": 2734,
      "defend": 2735,
      "viſ": 2736,
      "example": 2737,
      "##igne": 2738,
      "behold": 2739,
      "reform": 2740,
      "five": 2741,
      "sacr": 2742,
      "tal": 2743,
      "obedience": 2744,
      "##less": 2745,
      "private": 2746,
      "side": 2747,
      "euen": 2748,
      "arch": 2749,
      "belong": 2750,
      "admir": 2751,
      "women": 2752,
      "bread": 2753,
      "apost": 2754,
      "quar": 2755,
      "##uel": 2756,
      "et": 2757,
      "##bid": 2758,
      "saints": 2759,
      "vict": 2760,
      "purpose": 2761,
      "belee": 2762,
      "ſort": 2763,
      "sol": 2764,
      "##pl": 2765,
      "change": 2766,
      "die": 2767,
      "##ob": 2768,
      "ſw": 2769,
      "mans": 2770,
      "downe": 2771,
      "kill": 2772,
      "##ones": 2773,
      "ſtand": 2774,
      "uni": 2775,
      "wonder": 2776,
      "less": 2777,
      "##ond": 2778,
      "##uments": 2779,
      "ſmall": 2780,
      "sat": 2781,
      "mult": 2782,
      "##orth": 2783,
      "##ards": 2784,
      "intr": 2785,
      "iohn": 2786,
      "##iſts": 2787,
      "##ciple": 2788,
      "##aun": 2789,
      "len": 2790,
      "bir": 2791,
      "alter": 2792,
      "##aged": 2793,
      "##itable": 2794,
      "##aſh": 2795,
      "ſac": 2796,
      "foot": 2797,
      "##inal": 2798,
      "carried": 2799,
      "stand": 2800,
      "pain": 2801,
      "##yl": 2802,
      "county": 2803,
      "ſon": 2804,
      "white": 2805,
      "profe": 2806,
      "mine": 2807,
      "##oth": 2808,
      "spo": 2809,
      "acqu": 2810,
      "prob": 2811,
      "ſupp": 2812,
      "##iction": 2813,
      "pſal": 2814,
      "hence": 2815,
      "enjoy": 2816,
      "##ats": 2817,
      "amount": 2818,
      "confirm": 2819,
      "purpoſe": 2820,
      "gi": 2821,
      "##ford": 2822,
      "north": 2823,
      "nations": 2824,
      "tor": 2825,
      "bodies": 2826,
      "##lied": 2827,
      "##ps": 2828,
      "prieſt": 2829,
      "greate": 2830,
      "scotland": 2831,
      "dav": 2832,
      "admin": 2833,
      "gif": 2834,
      "delight": 2835,
      "##ii": 2836,
      "remember": 2837,
      "elſe": 2838,
      "wiſe": 2839,
      "colle": 2840,
      "##ife": 2841,
      "school": 2842,
      "##inite": 2843,
      "judgment": 2844,
      "paſſ": 2845,
      "express": 2846,
      "ther": 2847,
      "clause": 2848,
      "thinke": 2849,
      "##lick": 2850,
      "conſe": 2851,
      "beaut": 2852,
      "afterwards": 2853,
      "##aining": 2854,
      "whereas": 2855,
      "inj": 2856,
      "##angu": 2857,
      "mom": 2858,
      "##lect": 2859,
      "cler": 2860,
      "local": 2861,
      "eye": 2862,
      "##oured": 2863,
      "notice": 2864,
      "##cr": 2865,
      "occaſion": 2866,
      "imper": 2867,
      "six": 2868,
      "roman": 2869,
      "pretend": 2870,
      "thereby": 2871,
      "charact": 2872,
      "##ſon": 2873,
      "dayes": 2874,
      "##vel": 2875,
      "##iar": 2876,
      "possible": 2877,
      "cry": 2878,
      "grie": 2879,
      "##iſon": 2880,
      "thouſ": 2881,
      "goſpel": 2882,
      "artic": 2883,
      "flow": 2884,
      "##ff": 2885,
      "excellent": 2886,
      "##ern": 2887,
      "mee": 2888,
      "##icall": 2889,
      "amb": 2890,
      "notwith": 2891,
      "##uct": 2892,
      "##poſition": 2893,
      "nay": 2894,
      "##ms": 2895,
      "##ſſes": 2896,
      "coming": 2897,
      "comple": 2898,
      "extre": 2899,
      "difference": 2900,
      "mad": 2901,
      "queſt": 2902,
      "neceſſary": 2903,
      "##iſes": 2904,
      "prophet": 2905,
      "##epe": 2906,
      "therein": 2907,
      "repro": 2908,
      "deg": 2909,
      "ſoon": 2910,
      "cat": 2911,
      "ſide": 2912,
      "ſufficient": 2913,
      "##iu": 2914,
      "bra": 2915,
      "began": 2916,
      "kingdome": 2917,
      "polic": 2918,
      "majesty": 2919,
      "##quir": 2920,
      "##acy": 2921,
      "##gar": 2922,
      "##uded": 2923,
      "emb": 2924,
      "hell": 2925,
      "##oſ": 2926,
      "eſpe": 2927,
      "##icks": 2928,
      "measure": 2929,
      "ſtrong": 2930,
      "william": 2931,
      "vertue": 2932,
      "thoughts": 2933,
      "fut": 2934,
      "meanes": 2935,
      "civil": 2936,
      "bes": 2937,
      "afflict": 2938,
      "mir": 2939,
      "##aster": 2940,
      "march": 2941,
      "mentioned": 2942,
      "##az": 2943,
      "strong": 2944,
      "principle": 2945,
      "poſſe": 2946,
      "enemy": 2947,
      "conſcience": 2948,
      "##ggest": 2949,
      "least": 2950,
      "experience": 2951,
      "##aughter": 2952,
      "##ator": 2953,
      "line": 2954,
      "suggest": 2955,
      "biſhop": 2956,
      "air": 2957,
      "ſinne": 2958,
      "indust": 2959,
      "bus": 2960,
      "required": 2961,
      "diſp": 2962,
      "wound": 2963,
      "##action": 2964,
      "apoſtle": 2965,
      "gar": 2966,
      "pot": 2967,
      "gree": 2968,
      "cast": 2969,
      "##iles": 2970,
      "wine": 2971,
      "peter": 2972,
      "forward": 2973,
      "bad": 2974,
      "prou": 2975,
      "righteous": 2976,
      "redu": 2977,
      "discuss": 2978,
      "ſtrength": 2979,
      "heb": 2980,
      "##iter": 2981,
      "publick": 2982,
      "##ists": 2983,
      "dark": 2984,
      "page": 2985,
      "worthy": 2986,
      "fruit": 2987,
      "##itting": 2988,
      "##yng": 2989,
      "duties": 2990,
      "position": 2991,
      "deny": 2992,
      "length": 2993,
      "advantage": 2994,
      "germ": 2995,
      "moment": 2996,
      "worſhip": 2997,
      "glad": 2998,
      "gho": 2999,
      "paſt": 3000,
      "cases": 3001,
      "trib": 3002,
      "scriptures": 3003,
      "content": 3004,
      "pard": 3005,
      "educ": 3006,
      "bleſſed": 3007,
      "##ley": 3008,
      "super": 3009,
      "ſuc": 3010,
      "mart": 3011,
      "tong": 3012,
      "david": 3013,
      "break": 3014,
      "vis": 3015,
      "##ede": 3016,
      "##airs": 3017,
      "hus": 3018,
      "##ract": 3019,
      "ste": 3020,
      "ſatisf": 3021,
      "##quently": 3022,
      "paid": 3023,
      "worke": 3024,
      "fourth": 3025,
      "ur": 3026,
      "##ortun": 3027,
      "truly": 3028,
      "ful": 3029,
      "succ": 3030,
      "exerc": 3031,
      "test": 3032,
      "outward": 3033,
      "represent": 3034,
      "gro": 3035,
      "health": 3036,
      "##orn": 3037,
      "exh": 3038,
      "attempt": 3039,
      "ancient": 3040,
      "ze": 3041,
      "giving": 3042,
      "##ock": 3043,
      "21": 3044,
      "ang": 3045,
      "sort": 3046,
      "gone": 3047,
      "##eding": 3048,
      "##posed": 3049,
      "falſe": 3050,
      "depend": 3051,
      "##band": 3052,
      "fight": 3053,
      "##iſſion": 3054,
      "##ipp": 3055,
      "maſter": 3056,
      "##ape": 3057,
      "beene": 3058,
      "amongſt": 3059,
      "perm": 3060,
      "22": 3061,
      "##ann": 3062,
      "living": 3063,
      "virt": 3064,
      "actions": 3065,
      "##rant": 3066,
      "trouble": 3067,
      "ſal": 3068,
      "saint": 3069,
      "eſpecially": 3070,
      "fou": 3071,
      "ſelves": 3072,
      "##ey": 3073,
      "##used": 3074,
      "infl": 3075,
      "conse": 3076,
      "##cript": 3077,
      "##eme": 3078,
      "##utes": 3079,
      "neigh": 3080,
      "secondly": 3081,
      "whence": 3082,
      "fill": 3083,
      "impro": 3084,
      "goe": 3085,
      "25": 3086,
      "puniſh": 3087,
      "heauen": 3088,
      "really": 3089,
      "short": 3090,
      "goods": 3091,
      "dest": 3092,
      "##olved": 3093,
      "hur": 3094,
      "chriſtians": 3095,
      "##ſd": 3096,
      "occasion": 3097,
      "yee": 3098,
      "beſides": 3099,
      "future": 3100,
      "neighb": 3101,
      "opportun": 3102,
      "practice": 3103,
      "idol": 3104,
      "##eſ": 3105,
      "happy": 3106,
      "fellow": 3107,
      "deſign": 3108,
      "wrong": 3109,
      "pure": 3110,
      "ſtate": 3111,
      "himselfe": 3112,
      "iſrael": 3113,
      "righteouſ": 3114,
      "iuſt": 3115,
      "syst": 3116,
      "pie": 3117,
      "##go": 3118,
      "24": 3119,
      "selfe": 3120,
      "##rie": 3121,
      "apply": 3122,
      "eight": 3123,
      "system": 3124,
      "##ized": 3125,
      "trad": 3126,
      "powers": 3127,
      "##ney": 3128,
      "##ils": 3129,
      "##upon": 3130,
      "##owed": 3131,
      "wish": 3132,
      "##erable": 3133,
      "##llor": 3134,
      "##ortion": 3135,
      "wher": 3136,
      "##ging": 3137,
      "pal": 3138,
      "introdu": 3139,
      "christian": 3140,
      "##aled": 3141,
      "committed": 3142,
      "oath": 3143,
      "wood": 3144,
      "play": 3145,
      "lady": 3146,
      "breth": 3147,
      "meth": 3148,
      "ſometimes": 3149,
      "queen": 3150,
      "##aſure": 3151,
      "sil": 3152,
      "continue": 3153,
      "qual": 3154,
      "##ume": 3155,
      "pardon": 3156,
      "ordinary": 3157,
      "elect": 3158,
      "glorious": 3159,
      "anim": 3160,
      "british": 3161,
      "eas": 3162,
      "engliſh": 3163,
      "##rey": 3164,
      "##aring": 3165,
      "gather": 3166,
      "value": 3167,
      "##arily": 3168,
      "ſing": 3169,
      "bed": 3170,
      "##bert": 3171,
      "fault": 3172,
      "saviour": 3173,
      "ſhort": 3174,
      "letters": 3175,
      "##iall": 3176,
      "wil": 3177,
      "troub": 3178,
      "affirm": 3179,
      "policy": 3180,
      "apoſtles": 3181,
      "prepared": 3182,
      "field": 3183,
      "hind": 3184,
      "longer": 3185,
      "thouſand": 3186,
      "##utions": 3187,
      "23": 3188,
      "ben": 3189,
      "afore": 3190,
      "##ereſt": 3191,
      "character": 3192,
      "fell": 3193,
      "langu": 3194,
      "##itation": 3195,
      "hous": 3196,
      "brethren": 3197,
      "otherwiſe": 3198,
      "dil": 3199,
      "30": 3200,
      "##inct": 3201,
      "##ize": 3202,
      "##con": 3203,
      "leſs": 3204,
      "whate": 3205,
      "##iod": 3206,
      "greateſt": 3207,
      "ſenſe": 3208,
      "##use": 3209,
      "benefit": 3210,
      "ing": 3211,
      "##old": 3212,
      "accomp": 3213,
      "cold": 3214,
      "nob": 3215,
      "education": 3216,
      "##iety": 3217,
      "##anch": 3218,
      "evidence": 3219,
      "infer": 3220,
      "##arie": 3221,
      "uſ": 3222,
      "##iment": 3223,
      "##reſ": 3224,
      "thence": 3225,
      "juſtice": 3226,
      "vvh": 3227,
      "##cribed": 3228,
      "##orum": 3229,
      "maintain": 3230,
      "##icke": 3231,
      "ſur": 3232,
      "gives": 3233,
      "tot": 3234,
      "whatever": 3235,
      "sufficient": 3236,
      "obtain": 3237,
      "thom": 3238,
      "##rifice": 3239,
      "until": 3240,
      "ſoul": 3241,
      "sing": 3242,
      "der": 3243,
      "deu": 3244,
      "past": 3245,
      "##essed": 3246,
      "arri": 3247,
      "morning": 3248,
      "intended": 3249,
      "degree": 3250,
      "##ingu": 3251,
      "prim": 3252,
      "drink": 3253,
      "english": 3254,
      "divers": 3255,
      "fully": 3256,
      "communic": 3257,
      "parent": 3258,
      "##aments": 3259,
      "perce": 3260,
      "henry": 3261,
      "##ung": 3262,
      "ſeeing": 3263,
      "bloud": 3264,
      "##wel": 3265,
      "used": 3266,
      "royal": 3267,
      "bishop": 3268,
      "##orrow": 3269,
      "bey": 3270,
      "##ows": 3271,
      "ſweet": 3272,
      "fool": 3273,
      "##els": 3274,
      "dri": 3275,
      "##pell": 3276,
      "principles": 3277,
      "sit": 3278,
      "wy": 3279,
      "move": 3280,
      "rh": 3281,
      "##ulation": 3282,
      "subjects": 3283,
      "promiſe": 3284,
      "inhab": 3285,
      "generally": 3286,
      "consideration": 3287,
      "likewiſe": 3288,
      "cop": 3289,
      "names": 3290,
      "angels": 3291,
      "##ſtanding": 3292,
      "##ordin": 3293,
      "reven": 3294,
      "##mes": 3295,
      "##ſoever": 3296,
      "taught": 3297,
      "support": 3298,
      "beyond": 3299,
      "betw": 3300,
      "tempt": 3301,
      "farre": 3302,
      "van": 3303,
      "defence": 3304,
      "##mer": 3305,
      "south": 3306,
      "##bell": 3307,
      "finde": 3308,
      "generall": 3309,
      "attention": 3310,
      "quod": 3311,
      "diſcour": 3312,
      "gentlemen": 3313,
      "try": 3314,
      "round": 3315,
      "##ibly": 3316,
      "ſubject": 3317,
      "##aded": 3318,
      "dwell": 3319,
      "##ablish": 3320,
      "wherefore": 3321,
      "queſtion": 3322,
      "iudg": 3323,
      "poſſ": 3324,
      "eternal": 3325,
      "##ched": 3326,
      "##antly": 3327,
      "ſix": 3328,
      "cham": 3329,
      "counce": 3330,
      "quick": 3331,
      "disp": 3332,
      "text": 3333,
      "creatures": 3334,
      "chancellor": 3335,
      "circumst": 3336,
      "wall": 3337,
      "##iting": 3338,
      "foreign": 3339,
      "rate": 3340,
      "##aken": 3341,
      "ſuper": 3342,
      "win": 3343,
      "ran": 3344,
      "innoc": 3345,
      "##ſſing": 3346,
      "exact": 3347,
      "pound": 3348,
      "remed": 3349,
      "commanded": 3350,
      "prevent": 3351,
      "heare": 3352,
      "exist": 3353,
      "pleaſure": 3354,
      "heret": 3355,
      "lives": 3356,
      "compan": 3357,
      "empire": 3358,
      "fine": 3359,
      "##ander": 3360,
      "ale": 3361,
      "##alem": 3362,
      "continued": 3363,
      "chang": 3364,
      "##opt": 3365,
      "table": 3366,
      "tempor": 3367,
      "##rict": 3368,
      "deſtro": 3369,
      "##jection": 3370,
      "infinite": 3371,
      "post": 3372,
      "title": 3373,
      "certaine": 3374,
      "##erely": 3375,
      "eat": 3376,
      "born": 3377,
      "wealth": 3378,
      "twenty": 3379,
      "##leſſe": 3380,
      "##iect": 3381,
      "offend": 3382,
      "immediately": 3383,
      "major": 3384,
      "thine": 3385,
      "expl": 3386,
      "proteſt": 3387,
      "understand": 3388,
      "granted": 3389,
      "temple": 3390,
      "ſaying": 3391,
      "##cing": 3392,
      "##ired": 3393,
      "miniſters": 3394,
      "##iding": 3395,
      "aſſe": 3396,
      "reply": 3397,
      "hauing": 3398,
      "uſed": 3399,
      "##gypt": 3400,
      "affairs": 3401,
      "meaning": 3402,
      "sense": 3403,
      "ſaw": 3404,
      "else": 3405,
      "period": 3406,
      "##quence": 3407,
      "godly": 3408,
      "repe": 3409,
      "proportion": 3410,
      "information": 3411,
      "declared": 3412,
      "vain": 3413,
      "##rop": 3414,
      "##ises": 3415,
      "arms": 3416,
      "##ancy": 3417,
      "whil": 3418,
      "namely": 3419,
      "sacrament": 3420,
      "##quent": 3421,
      "entire": 3422,
      "##imony": 3423,
      "religious": 3424,
      "proposed": 3425,
      "##dle": 3426,
      "feet": 3427,
      "needs": 3428,
      "dre": 3429,
      "##leſ": 3430,
      "commons": 3431,
      "conver": 3432,
      "magn": 3433,
      "polit": 3434,
      "poore": 3435,
      "##esus": 3436,
      "##iefe": 3437,
      "buſ": 3438,
      "countries": 3439,
      "pret": 3440,
      "don": 3441,
      "##ron": 3442,
      "##ns": 3443,
      "family": 3444,
      "cum": 3445,
      "appreh": 3446,
      "prayers": 3447,
      "colon": 3448,
      "oh": 3449,
      "ioy": 3450,
      "intereſt": 3451,
      "purch": 3452,
      "declare": 3453,
      "##omes": 3454,
      "##like": 3455,
      "cuſt": 3456,
      "##riage": 3457,
      "strength": 3458,
      "##ifeſt": 3459,
      "establish": 3460,
      "thomas": 3461,
      "##itor": 3462,
      "sam": 3463,
      "dear": 3464,
      "interp": 3465,
      "##ague": 3466,
      "ſins": 3467,
      "##what": 3468,
      "knight": 3469,
      "diſcover": 3470,
      "##ots": 3471,
      "##self": 3472,
      "allowed": 3473,
      "manifeſt": 3474,
      "##ship": 3475,
      "ere": 3476,
      "##rate": 3477,
      "##ica": 3478,
      "##ſec": 3479,
      "tend": 3480,
      "wiſd": 3481,
      "milit": 3482,
      "ſeen": 3483,
      "opportunity": 3484,
      "##ising": 3485,
      "##iſm": 3486,
      "united": 3487,
      "##pet": 3488,
      "important": 3489,
      "##ining": 3490,
      "mens": 3491,
      "fund": 3492,
      "##iff": 3493,
      "note": 3494,
      "famil": 3495,
      "sonne": 3496,
      "##utation": 3497,
      "terr": 3498,
      "weight": 3499,
      "##atur": 3500,
      "wel": 3501,
      "##euer": 3502,
      "creature": 3503,
      "majeſty": 3504,
      "diſſ": 3505,
      "claim": 3506,
      "##ina": 3507,
      "offered": 3508,
      "ſend": 3509,
      "price": 3510,
      "repentance": 3511,
      "##aunt": 3512,
      "##ital": 3513,
      "result": 3514,
      "hiſt": 3515,
      "betwixt": 3516,
      "affection": 3517,
      "tender": 3518,
      "vt": 3519,
      "flo": 3520,
      "wrath": 3521,
      "virg": 3522,
      "several": 3523,
      "##eds": 3524,
      "appears": 3525,
      "national": 3526,
      "placed": 3527,
      "conne": 3528,
      "truſt": 3529,
      "pries": 3530,
      "conditions": 3531,
      "##aſes": 3532,
      "26": 3533,
      "cover": 3534,
      "ſim": 3535,
      "##tie": 3536,
      "bow": 3537,
      "ll": 3538,
      "##aves": 3539,
      "method": 3540,
      "reading": 3541,
      "##ores": 3542,
      "provin": 3543,
      "record": 3544,
      "##ples": 3545,
      "##iving": 3546,
      "ſpeake": 3547,
      "lands": 3548,
      "terms": 3549,
      "cost": 3550,
      "##ineſſe": 3551,
      "counſe": 3552,
      "blind": 3553,
      "daughter": 3554,
      "states": 3555,
      "confer": 3556,
      "months": 3557,
      "ſoule": 3558,
      "reward": 3559,
      "##ias": 3560,
      "minde": 3561,
      "points": 3562,
      "husband": 3563,
      "cy": 3564,
      "reach": 3565,
      "cou": 3566,
      "ari": 3567,
      "captain": 3568,
      "prefer": 3569,
      "##ilty": 3570,
      "quant": 3571,
      "calling": 3572,
      "something": 3573,
      "##ott": 3574,
      "##ibility": 3575,
      "##abb": 3576,
      "courſe": 3577,
      "extend": 3578,
      "class": 3579,
      "alto": 3580,
      "adopt": 3581,
      "nav": 3582,
      "render": 3583,
      "loſt": 3584,
      "considered": 3585,
      "lordship": 3586,
      "conduct": 3587,
      "particularly": 3588,
      "iss": 3589,
      "adam": 3590,
      "##asse": 3591,
      "orders": 3592,
      "dd": 3593,
      "dilig": 3594,
      "bal": 3595,
      "omn": 3596,
      "treas": 3597,
      "##ien": 3598,
      "requ": 3599,
      "prot": 3600,
      "faſt": 3601,
      "##uf": 3602,
      "circumstances": 3603,
      "jews": 3604,
      "reign": 3605,
      "ſight": 3606,
      "jer": 3607,
      "##ayne": 3608,
      "remo": 3609,
      "##isters": 3610,
      "delivered": 3611,
      "##ydd": 3612,
      "mirac": 3613,
      "business": 3614,
      "remain": 3615,
      "##pel": 3616,
      "heav": 3617,
      "fix": 3618,
      "provided": 3619,
      "28": 3620,
      "##ſp": 3621,
      "lic": 3622,
      "threat": 3623,
      "aut": 3624,
      "beaſt": 3625,
      "aware": 3626,
      "fil": 3627,
      "cra": 3628,
      "credit": 3629,
      "espe": 3630,
      "appeared": 3631,
      "##urance": 3632,
      "##aund": 3633,
      "recei": 3634,
      "walk": 3635,
      "sold": 3636,
      "dign": 3637,
      "voice": 3638,
      "altogether": 3639,
      "##wy": 3640,
      "gal": 3641,
      "plant": 3642,
      "appoint": 3643,
      "black": 3644,
      "undert": 3645,
      "##ler": 3646,
      "difficulty": 3647,
      "subst": 3648,
      "working": 3649,
      "concerned": 3650,
      "utter": 3651,
      "##alty": 3652,
      "touching": 3653,
      "india": 3654,
      "fat": 3655,
      "thous": 3656,
      "abra": 3657,
      "wild": 3658,
      "meant": 3659,
      "sanct": 3660,
      "##pri": 3661,
      "irish": 3662,
      "pride": 3663,
      "assist": 3664,
      "##itur": 3665,
      "##aſſ": 3666,
      "miſt": 3667,
      "##oted": 3668,
      "##nation": 3669,
      "bold": 3670,
      "hone": 3671,
      "latter": 3672,
      "oft": 3673,
      "gos": 3674,
      "statement": 3675,
      "wiſh": 3676,
      "excl": 3677,
      "applic": 3678,
      "mel": 3679,
      "temper": 3680,
      "sm": 3681,
      "tongue": 3682,
      "souls": 3683,
      "ſit": 3684,
      "communion": 3685,
      "horſe": 3686,
      "soon": 3687,
      "27": 3688,
      "cere": 3689,
      "abro": 3690,
      "sould": 3691,
      "eld": 3692,
      "chapter": 3693,
      "grand": 3694,
      "##ism": 3695,
      "exche": 3696,
      "##ruct": 3697,
      "soci": 3698,
      "diſe": 3699,
      "##bs": 3700,
      "##bur": 3701,
      "died": 3702,
      "##acke": 3703,
      "ſum": 3704,
      "inhabit": 3705,
      "##itive": 3706,
      "##uses": 3707,
      "pleas": 3708,
      "card": 3709,
      "priſon": 3710,
      "##ored": 3711,
      "abraham": 3712,
      "##aud": 3713,
      "saying": 3714,
      "exchequer": 3715,
      "property": 3716,
      "believed": 3717,
      "salvation": 3718,
      "##ervation": 3719,
      "eli": 3720,
      "grat": 3721,
      "appeare": 3722,
      "##iation": 3723,
      "human": 3724,
      "bro": 3725,
      "vote": 3726,
      "##iae": 3727,
      "##ify": 3728,
      "eſtate": 3729,
      "fortune": 3730,
      "##edd": 3731,
      "##lies": 3732,
      "passed": 3733,
      "equal": 3734,
      "ſav": 3735,
      "##ray": 3736,
      "pag": 3737,
      "##yſ": 3738,
      "##gra": 3739,
      "west": 3740,
      "##ze": 3741,
      "houses": 3742,
      "added": 3743,
      "furn": 3744,
      "##ike": 3745,
      "inward": 3746,
      "almoſt": 3747,
      "##rection": 3748,
      "forces": 3749,
      "pleaſe": 3750,
      "##kind": 3751,
      "drawn": 3752,
      "endeavour": 3753,
      "send": 3754,
      "countrey": 3755,
      "##oken": 3756,
      "unc": 3757,
      "##iſter": 3758,
      "hist": 3759,
      "bond": 3760,
      "##he": 3761,
      "judgement": 3762,
      "union": 3763,
      "vſe": 3764,
      "election": 3765,
      "##aſed": 3766,
      "proved": 3767,
      "demand": 3768,
      "seeing": 3769,
      "##uſed": 3770,
      "guilty": 3771,
      "perfectly": 3772,
      "mill": 3773,
      "trust": 3774,
      "deep": 3775,
      "department": 3776,
      "dangerous": 3777,
      "prophets": 3778,
      "zeal": 3779,
      "##uſion": 3780,
      "##inent": 3781,
      "inquir": 3782,
      "greatest": 3783,
      "bell": 3784,
      "food": 3785,
      "##vere": 3786,
      "justice": 3787,
      "##cies": 3788,
      "referred": 3789,
      "##jud": 3790,
      "themſelues": 3791,
      "honor": 3792,
      "##oued": 3793,
      "diſcip": 3794,
      "freed": 3795,
      "incon": 3796,
      "##come": 3797,
      "mater": 3798,
      "alt": 3799,
      "encour": 3800,
      "ide": 3801,
      "especially": 3802,
      "humane": 3803,
      "increase": 3804,
      "ſhal": 3805,
      "recomm": 3806,
      "turned": 3807,
      "rebell": 3808,
      "bit": 3809,
      "##usion": 3810,
      "authorities": 3811,
      "whiche": 3812,
      "##atter": 3813,
      "wise": 3814,
      "parents": 3815,
      "resp": 3816,
      "liue": 3817,
      "relation": 3818,
      "hurt": 3819,
      "sometimes": 3820,
      "##cks": 3821,
      "biſhops": 3822,
      "paper": 3823,
      "language": 3824,
      "##olog": 3825,
      "tree": 3826,
      "river": 3827,
      "ceremon": 3828,
      "##ym": 3829,
      "##itate": 3830,
      "##port": 3831,
      "guard": 3832,
      "hart": 3833,
      "almost": 3834,
      "au": 3835,
      "vent": 3836,
      "conven": 3837,
      "##ounded": 3838,
      "keepe": 3839,
      "##iture": 3840,
      "notwithſtanding": 3841,
      "##ties": 3842,
      "extraordin": 3843,
      "##uits": 3844,
      "chamber": 3845,
      "devil": 3846,
      "printed": 3847,
      "alex": 3848,
      "books": 3849,
      "##lation": 3850,
      "##unto": 3851,
      "agric": 3852,
      "wholly": 3853,
      "dan": 3854,
      "##ope": 3855,
      "agreed": 3856,
      "became": 3857,
      "##na": 3858,
      "quiet": 3859,
      "minds": 3860,
      "faithful": 3861,
      "##ash": 3862,
      "step": 3863,
      "eph": 3864,
      "broken": 3865,
      "##ſaid": 3866,
      "humble": 3867,
      "forbid": 3868,
      "##teen": 3869,
      "knowing": 3870,
      "rules": 3871,
      "cam": 3872,
      "daily": 3873,
      "legis": 3874,
      "sins": 3875,
      "gouer": 3876,
      "fer": 3877,
      "fly": 3878,
      "paſs": 3879,
      "returned": 3880,
      "debate": 3881,
      "write": 3882,
      "various": 3883,
      "afford": 3884,
      "heads": 3885,
      "hast": 3886,
      "perſw": 3887,
      "##isd": 3888,
      "amer": 3889,
      "ren": 3890,
      "ghoſt": 3891,
      "takes": 3892,
      "punish": 3893,
      "fles": 3894,
      "foundation": 3895,
      "rob": 3896,
      "properly": 3897,
      "##aſons": 3898,
      "emperour": 3899,
      "eccleſ": 3900,
      "od": 3901,
      "sed": 3902,
      "giuen": 3903,
      "industry": 3904,
      "hot": 3905,
      "diſc": 3906,
      "agricult": 3907,
      "ſays": 3908,
      "mut": 3909,
      "hearing": 3910,
      "aſſemb": 3911,
      "image": 3912,
      "colour": 3913,
      "miniſter": 3914,
      "chriſts": 3915,
      "eur": 3916,
      "##day": 3917,
      "ones": 3918,
      "hypo": 3919,
      "amongst": 3920,
      "##teth": 3921,
      "vill": 3922,
      "produce": 3923,
      "volunt": 3924,
      "protest": 3925,
      "ſtri": 3926,
      "hither": 3927,
      "suc": 3928,
      "degre": 3929,
      "heath": 3930,
      "ded": 3931,
      "ſil": 3932,
      "lev": 3933,
      "##imate": 3934,
      "span": 3935,
      "dry": 3936,
      "tro": 3937,
      "breath": 3938,
      "meeting": 3939,
      "stre": 3940,
      "conclude": 3941,
      "ſerve": 3942,
      "figure": 3943,
      "##worth": 3944,
      "maketh": 3945,
      "led": 3946,
      "yeares": 3947,
      "lam": 3948,
      "##agement": 3949,
      "avo": 3950,
      "subm": 3951,
      "ships": 3952,
      "aſſiſt": 3953,
      "##arm": 3954,
      "spirits": 3955,
      "acknowled": 3956,
      "eaſily": 3957,
      "##cription": 3958,
      "egypt": 3959,
      "watch": 3960,
      "alle": 3961,
      "hat": 3962,
      "31": 3963,
      "iust": 3964,
      "exceeding": 3965,
      "otherwise": 3966,
      "profit": 3967,
      "commonly": 3968,
      "merch": 3969,
      "verse": 3970,
      "##liſhed": 3971,
      "beare": 3972,
      "intention": 3973,
      "##ension": 3974,
      "proof": 3975,
      "ſpoken": 3976,
      "moſes": 3977,
      "ago": 3978,
      "admitted": 3979,
      "##erate": 3980,
      "arguments": 3981,
      "##ſie": 3982,
      "cit": 3983,
      "##rates": 3984,
      "##ciſe": 3985,
      "execution": 3986,
      "behind": 3987,
      "booke": 3988,
      "built": 3989,
      "degrees": 3990,
      "petition": 3991,
      "##imin": 3992,
      "hang": 3993,
      "commend": 3994,
      "habit": 3995,
      "##wes": 3996,
      "bab": 3997,
      "tyr": 3998,
      "arr": 3999,
      "##iah": 4000,
      "reader": 4001,
      "lib": 4002,
      "deſp": 4003,
      "press": 4004,
      "##ption": 4005,
      "##oſe": 4006,
      "lordships": 4007,
      "##olutely": 4008,
      "declar": 4009,
      "contem": 4010,
      "obey": 4011,
      "intend": 4012,
      "##ories": 4013,
      "formerly": 4014,
      "week": 4015,
      "reco": 4016,
      "charles": 4017,
      "##iouſly": 4018,
      "success": 4019,
      "ignorant": 4020,
      "dare": 4021,
      "reference": 4022,
      "##ifying": 4023,
      "sword": 4024,
      "higher": 4025,
      "leſſe": 4026,
      "29": 4027,
      "idolat": 4028,
      "plan": 4029,
      "parties": 4030,
      "show": 4031,
      "affections": 4032,
      "##iſion": 4033,
      "##yle": 4034,
      "ways": 4035,
      "opinions": 4036,
      "##oms": 4037,
      "underſtand": 4038,
      "confidence": 4039,
      "##neth": 4040,
      "meane": 4041,
      "##val": 4042,
      "ministers": 4043,
      "adu": 4044,
      "##after": 4045,
      "district": 4046,
      "flesh": 4047,
      "thor": 4048,
      "learning": 4049,
      "sau": 4050,
      "##ires": 4051,
      "addition": 4052,
      "vnd": 4053,
      "hour": 4054,
      "##icious": 4055,
      "##reſs": 4056,
      "rid": 4057,
      "sus": 4058,
      "respons": 4059,
      "##iet": 4060,
      "stated": 4061,
      "paſſe": 4062,
      "repreſ": 4063,
      "prison": 4064,
      "preſence": 4065,
      "imposs": 4066,
      "cust": 4067,
      "serm": 4068,
      "scheme": 4069,
      "birth": 4070,
      "##inity": 4071,
      "followed": 4072,
      "reb": 4073,
      "gain": 4074,
      "eſteem": 4075,
      "##erit": 4076,
      "ps": 4077,
      "##ſtance": 4078,
      "prime": 4079,
      "##arce": 4080,
      "ſinnes": 4081,
      "luſt": 4082,
      "##ically": 4083,
      "##aly": 4084,
      "##angers": 4085,
      "happen": 4086,
      "therfore": 4087,
      "convin": 4088,
      "##ſelf": 4089,
      "faire": 4090,
      "recon": 4091,
      "charity": 4092,
      "corpor": 4093,
      "improve": 4094,
      "knows": 4095,
      "yr": 4096,
      "##raid": 4097,
      "##lemn": 4098,
      "ſound": 4099,
      "##ses": 4100,
      "##ked": 4101,
      "geor": 4102,
      "besides": 4103,
      "thirdly": 4104,
      "hinder": 4105,
      "intell": 4106,
      "inhabitants": 4107,
      "medic": 4108,
      "effects": 4109,
      "vit": 4110,
      "##iſing": 4111,
      "##nal": 4112,
      "##uell": 4113,
      "honourable": 4114,
      "houſes": 4115,
      "##gan": 4116,
      "alwayes": 4117,
      "abroad": 4118,
      "importance": 4119,
      "##bury": 4120,
      "writing": 4121,
      "prevail": 4122,
      "bon": 4123,
      "cure": 4124,
      "##leep": 4125,
      "felt": 4126,
      "lawes": 4127,
      "edward": 4128,
      "likely": 4129,
      "##queſt": 4130,
      "##aſting": 4131,
      "ſervice": 4132,
      "borne": 4133,
      "hopes": 4134,
      "heat": 4135,
      "cruel": 4136,
      "recover": 4137,
      "spiritual": 4138,
      "magiſt": 4139,
      "acknowledge": 4140,
      "marriage": 4141,
      "admit": 4142,
      "gallant": 4143,
      "beat": 4144,
      "entirely": 4145,
      "perpet": 4146,
      "principal": 4147,
      "contro": 4148,
      "##ifull": 4149,
      "manif": 4150,
      "dar": 4151,
      "looke": 4152,
      "compar": 4153,
      "sweet": 4154,
      "hill": 4155,
      "##curity": 4156,
      "withd": 4157,
      "twel": 4158,
      "eſtab": 4159,
      "nar": 4160,
      "foure": 4161,
      "named": 4162,
      "riches": 4163,
      "##igned": 4164,
      "created": 4165,
      "##ural": 4166,
      "yes": 4167,
      "special": 4168,
      "conſent": 4169,
      "wrought": 4170,
      "stri": 4171,
      "gard": 4172,
      "##iſſ": 4173,
      "rent": 4174,
      "hours": 4175,
      "famous": 4176,
      "operation": 4177,
      "medi": 4178,
      "extraordinary": 4179,
      "plainly": 4180,
      "weſt": 4181,
      "providence": 4182,
      "##ams": 4183,
      "europe": 4184,
      "preaching": 4185,
      "heir": 4186,
      "##ulous": 4187,
      "40": 4188,
      "##ody": 4189,
      "alm": 4190,
      "miles": 4191,
      "sacrifice": 4192,
      "##aunce": 4193,
      "master": 4194,
      "ages": 4195,
      "sinne": 4196,
      "hom": 4197,
      "hu": 4198,
      "obtained": 4199,
      "james": 4200,
      "contrib": 4201,
      "workes": 4202,
      "##iously": 4203,
      "moved": 4204,
      "##aking": 4205,
      "pecul": 4206,
      "univers": 4207,
      "##wa": 4208,
      "patience": 4209,
      "articles": 4210,
      "ſhalt": 4211,
      "obliged": 4212,
      "servants": 4213,
      "praiſe": 4214,
      "gift": 4215,
      "along": 4216,
      "mighty": 4217,
      "perſec": 4218,
      "occup": 4219,
      "##ſſions": 4220,
      "building": 4221,
      "##app": 4222,
      "offence": 4223,
      "waters": 4224,
      "naturall": 4225,
      "##eration": 4226,
      "syn": 4227,
      "fail": 4228,
      "##pr": 4229,
      "original": 4230,
      "seven": 4231,
      "kinde": 4232,
      "minist": 4233,
      "mankind": 4234,
      "##rific": 4235,
      "deliuer": 4236,
      "rail": 4237,
      "##urrection": 4238,
      "greatly": 4239,
      "eaſt": 4240,
      "ſol": 4241,
      "iudgement": 4242,
      "false": 4243,
      "cand": 4244,
      "##for": 4245,
      "impossible": 4246,
      "opposite": 4247,
      "prepar": 4248,
      "##ceſs": 4249,
      "stud": 4250,
      "neighbour": 4251,
      "separ": 4252,
      "saw": 4253,
      "##greg": 4254,
      "thousand": 4255,
      "ſeems": 4256,
      "pleaſed": 4257,
      "##ables": 4258,
      "expend": 4259,
      "ſecret": 4260,
      "abund": 4261,
      "iniqu": 4262,
      "unless": 4263,
      "ox": 4264,
      "wayes": 4265,
      "fee": 4266,
      "goes": 4267,
      "obſerve": 4268,
      "citie": 4269,
      "intent": 4270,
      "##no": 4271,
      "colone": 4272,
      "baron": 4273,
      "diſcourſe": 4274,
      "enl": 4275,
      "conscience": 4276,
      "voy": 4277,
      "##lesse": 4278,
      "cru": 4279,
      "peculiar": 4280,
      "##inus": 4281,
      "diss": 4282,
      "seen": 4283,
      "firm": 4284,
      "warrant": 4285,
      "objection": 4286,
      "cert": 4287,
      "##ault": 4288,
      "raised": 4289,
      "aboue": 4290,
      "grave": 4291,
      "hardly": 4292,
      "yeare": 4293,
      "says": 4294,
      "##umb": 4295,
      "meaſure": 4296,
      "hab": 4297,
      "bishops": 4298,
      "##cke": 4299,
      "clergy": 4300,
      "gracious": 4301,
      "##ria": 4302,
      "ſtrange": 4303,
      "double": 4304,
      "ae": 4305,
      "beauty": 4306,
      "hym": 4307,
      "reasons": 4308,
      "lieut": 4309,
      "honeſt": 4310,
      "rever": 4311,
      "jur": 4312,
      "youth": 4313,
      "##otten": 4314,
      "neglect": 4315,
      "unf": 4316,
      "grounds": 4317,
      "##uice": 4318,
      "proſ": 4319,
      "condemned": 4320,
      "whatſoever": 4321,
      "portion": 4322,
      "entertain": 4323,
      "bare": 4324,
      "ſenſ": 4325,
      "seems": 4326,
      "tooke": 4327,
      "surely": 4328,
      "##iful": 4329,
      "ſm": 4330,
      "##unic": 4331,
      "cloſe": 4332,
      "##uce": 4333,
      "virtue": 4334,
      "toward": 4335,
      "mist": 4336,
      "##geſt": 4337,
      "judges": 4338,
      "protection": 4339,
      "dealing": 4340,
      "righteouſneſs": 4341,
      "demon": 4342,
      "depri": 4343,
      "figures": 4344,
      "##ua": 4345,
      "conſtant": 4346,
      "desir": 4347,
      "constit": 4348,
      "forced": 4349,
      "cha": 4350,
      "ow": 4351,
      "worship": 4352,
      "councell": 4353,
      "administ": 4354,
      "decre": 4355,
      "fulf": 4356,
      "lost": 4357,
      "extent": 4358,
      "##iments": 4359,
      "soule": 4360,
      "appeal": 4361,
      "ieſus": 4362,
      "perfection": 4363,
      "satan": 4364,
      "fau": 4365,
      "courage": 4366,
      "expected": 4367,
      "ni": 4368,
      "hate": 4369,
      "##isions": 4370,
      "provision": 4371,
      "##rible": 4372,
      "contract": 4373,
      "officer": 4374,
      "lod": 4375,
      "exhort": 4376,
      "remark": 4377,
      "wiſdom": 4378,
      "prud": 4379,
      "##acob": 4380,
      "contrad": 4381,
      "thinges": 4382,
      "fier": 4383,
      "forget": 4384,
      "helpe": 4385,
      "george": 4386,
      "corre": 4387,
      "ignorance": 4388,
      "##idge": 4389,
      "humb": 4390,
      "prieſts": 4391,
      "##ators": 4392,
      "lived": 4393,
      "iſa": 4394,
      "ſake": 4395,
      "commiſſion": 4396,
      "questions": 4397,
      "regul": 4398,
      "fol": 4399,
      "cauſes": 4400,
      "neceſſity": 4401,
      "ſed": 4402,
      "##pir": 4403,
      "influ": 4404,
      "destro": 4405,
      "pit": 4406,
      "ath": 4407,
      "hereafter": 4408,
      "euill": 4409,
      "quarter": 4410,
      "faithfull": 4411,
      "agreement": 4412,
      "##uſalem": 4413,
      "prejud": 4414,
      "corn": 4415,
      "piece": 4416,
      "debt": 4417,
      "##ſing": 4418,
      "psal": 4419,
      "commissioners": 4420,
      "contained": 4421,
      "##ense": 4422,
      "ſelues": 4423,
      "conſiſt": 4424,
      "evident": 4425,
      "reaſons": 4426,
      "origin": 4427,
      "##ability": 4428,
      "anno": 4429,
      "##sec": 4430,
      "throne": 4431,
      "farther": 4432,
      "enc": 4433,
      "##ode": 4434,
      "conceive": 4435,
      "necessity": 4436,
      "verſe": 4437,
      "sight": 4438,
      "##ank": 4439,
      "considerable": 4440,
      "rights": 4441,
      "seas": 4442,
      "heavenly": 4443,
      "ends": 4444,
      "delay": 4445,
      "east": 4446,
      "chiefe": 4447,
      "arrang": 4448,
      "gaue": 4449,
      "proceedings": 4450,
      "innocent": 4451,
      "doctor": 4452,
      "##edge": 4453,
      "cities": 4454,
      "ſanct": 4455,
      "ſeven": 4456,
      "lawful": 4457,
      "puniſhment": 4458,
      "dread": 4459,
      "withdra": 4460,
      "interests": 4461,
      "drun": 4462,
      "aforeſaid": 4463,
      "afraid": 4464,
      "hid": 4465,
      "christians": 4466,
      "ine": 4467,
      "ſtay": 4468,
      "contempt": 4469,
      "tells": 4470,
      "procl": 4471,
      "phar": 4472,
      "##emp": 4473,
      "ess": 4474,
      "##ſtr": 4475,
      "##umph": 4476,
      "redeem": 4477,
      "camp": 4478,
      "##ply": 4479,
      "auguſt": 4480,
      "phyſ": 4481,
      "anſwered": 4482,
      "likewise": 4483,
      "eſſ": 4484,
      "##ds": 4485,
      "£1": 4486,
      "affected": 4487,
      "##aked": 4488,
      "mary": 4489,
      "courts": 4490,
      "ordered": 4491,
      "dog": 4492,
      "warre": 4493,
      "trave": 4494,
      "thank": 4495,
      "employed": 4496,
      "middle": 4497,
      "bind": 4498,
      "fro": 4499,
      "asse": 4500,
      "supply": 4501,
      "performed": 4502,
      "##eres": 4503,
      "remedy": 4504,
      "conquer": 4505,
      "32": 4506,
      "military": 4507,
      "indiv": 4508,
      "##atio": 4509,
      "muſ": 4510,
      "vice": 4511,
      "reck": 4512,
      "proud": 4513,
      "##edient": 4514,
      "##otion": 4515,
      "##umed": 4516,
      "pros": 4517,
      "eternall": 4518,
      "##sh": 4519,
      "##aph": 4520,
      "comb": 4521,
      "particul": 4522,
      "magist": 4523,
      "everl": 4524,
      "putting": 4525,
      "ſorrow": 4526,
      "conc": 4527,
      "calls": 4528,
      "reject": 4529,
      "betweene": 4530,
      "lies": 4531,
      "quae": 4532,
      "aud": 4533,
      "dye": 4534,
      "applied": 4535,
      "ier": 4536,
      "advice": 4537,
      "anything": 4538,
      "vnt": 4539,
      "difficulties": 4540,
      "capable": 4541,
      "##ny": 4542,
      "presby": 4543,
      "conſideration": 4544,
      "iſſ": 4545,
      "trees": 4546,
      "##ole": 4547,
      "bitter": 4548,
      "feeling": 4549,
      "cele": 4550,
      "##ainted": 4551,
      "##ioy": 4552,
      "##certain": 4553,
      "schools": 4554,
      "accordingly": 4555,
      "sound": 4556,
      "sabb": 4557,
      "ſhewed": 4558,
      "meſſ": 4559,
      "vel": 4560,
      "univerſ": 4561,
      "concern": 4562,
      "##eneſs": 4563,
      "thither": 4564,
      "##eries": 4565,
      "lar": 4566,
      "pleasure": 4567,
      "ſtre": 4568,
      "suppose": 4569,
      "top": 4570,
      "inſtr": 4571,
      "swe": 4572,
      "ei": 4573,
      "behal": 4574,
      "influence": 4575,
      "triumph": 4576,
      "##hood": 4577,
      "##neſt": 4578,
      "##orie": 4579,
      "##ciences": 4580,
      "##fety": 4581,
      "ibid": 4582,
      "freely": 4583,
      "##lling": 4584,
      "diuers": 4585,
      "##lls": 4586,
      "souldiers": 4587,
      "exerciſe": 4588,
      "prae": 4589,
      "##wed": 4590,
      "obſerved": 4591,
      "hun": 4592,
      "ſuppoſe": 4593,
      "comming": 4594,
      "president": 4595,
      "partly": 4596,
      "apostles": 4597,
      "preſently": 4598,
      "violence": 4599,
      "reve": 4600,
      "almight": 4601,
      "eccles": 4602,
      "robert": 4603,
      "luke": 4604,
      "throughout": 4605,
      "##let": 4606,
      "cloud": 4607,
      "##gress": 4608,
      "##iſc": 4609,
      "ſepar": 4610,
      "paſſion": 4611,
      "##enant": 4612,
      "reſol": 4613,
      "wilt": 4614,
      "##aff": 4615,
      "learn": 4616,
      "underſtanding": 4617,
      "promise": 4618,
      "month": 4619,
      "individ": 4620,
      "multitude": 4621,
      "gospel": 4622,
      "##ſen": 4623,
      "shal": 4624,
      "lye": 4625,
      "veſſe": 4626,
      "##ature": 4627,
      "conform": 4628,
      "corruption": 4629,
      "##lin": 4630,
      "martyr": 4631,
      "popes": 4632,
      "##ential": 4633,
      "monarch": 4634,
      "resolution": 4635,
      "gifts": 4636,
      "cup": 4637,
      "##urb": 4638,
      "colonel": 4639,
      "mour": 4640,
      "approach": 4641,
      "ſick": 4642,
      "bid": 4643,
      "##vv": 4644,
      "keeping": 4645,
      "barb": 4646,
      "griev": 4647,
      "compet": 4648,
      "error": 4649,
      "lower": 4650,
      "fay": 4651,
      "entit": 4652,
      "offices": 4653,
      "inquiry": 4654,
      "##position": 4655,
      "glo": 4656,
      "fun": 4657,
      "root": 4658,
      "ſwe": 4659,
      "max": 4660,
      "philoſ": 4661,
      "yield": 4662,
      "##ively": 4663,
      "oun": 4664,
      "dau": 4665,
      "compreh": 4666,
      "informed": 4667,
      "##atory": 4668,
      "themselues": 4669,
      "opened": 4670,
      "society": 4671,
      "##ose": 4672,
      "congreg": 4673,
      "deſired": 4674,
      "hoped": 4675,
      "counten": 4676,
      "finding": 4677,
      "divided": 4678,
      "##aſs": 4679,
      "extreme": 4680,
      "precious": 4681,
      "discussion": 4682,
      "armes": 4683,
      "speake": 4684,
      "quality": 4685,
      "leſt": 4686,
      "section": 4687,
      "commod": 4688,
      "preced": 4689,
      "bas": 4690,
      "deſtroy": 4691,
      "ſonne": 4692,
      "article": 4693,
      "##udes": 4694,
      "blessed": 4695,
      "philoſoph": 4696,
      "selves": 4697,
      "##line": 4698,
      "ſomething": 4699,
      "##ereth": 4700,
      "herein": 4701,
      "##ilities": 4702,
      "##under": 4703,
      "meat": 4704,
      "choice": 4705,
      "##anced": 4706,
      "determined": 4707,
      "estate": 4708,
      "##aines": 4709,
      "room": 4710,
      "tu": 4711,
      "attrib": 4712,
      "lou": 4713,
      "evill": 4714,
      "towne": 4715,
      "memory": 4716,
      "lin": 4717,
      "riſe": 4718,
      "stone": 4719,
      "##gu": 4720,
      "##ata": 4721,
      "yeeld": 4722,
      "##akes": 4723,
      "apt": 4724,
      "big": 4725,
      "pau": 4726,
      "consent": 4727,
      "##ics": 4728,
      "##ma": 4729,
      "lying": 4730,
      "merit": 4731,
      "##char": 4732,
      "provide": 4733,
      "leaue": 4734,
      "wret": 4735,
      "bott": 4736,
      "50": 4737,
      "ham": 4738,
      "embra": 4739,
      "meer": 4740,
      "##ially": 4741,
      "##aving": 4742,
      "twelve": 4743,
      "antich": 4744,
      "##pes": 4745,
      "buſineſs": 4746,
      "horse": 4747,
      "obſerv": 4748,
      "citiz": 4749,
      "lawfull": 4750,
      "ration": 4751,
      "produced": 4752,
      "precept": 4753,
      "##oned": 4754,
      "patient": 4755,
      "cloth": 4756,
      "eſc": 4757,
      "guilt": 4758,
      "pron": 4759,
      "relief": 4760,
      "##acle": 4761,
      "##mber": 4762,
      "adj": 4763,
      "ay": 4764,
      "fruits": 4765,
      "counse": 4766,
      "afterward": 4767,
      "##cribe": 4768,
      "##ax": 4769,
      "iudge": 4770,
      "recommend": 4771,
      "100": 4772,
      "fish": 4773,
      "##erves": 4774,
      "subs": 4775,
      "charged": 4776,
      "constant": 4777,
      "##ſome": 4778,
      "vse": 4779,
      "aſh": 4780,
      "stra": 4781,
      "august": 4782,
      "##ifies": 4783,
      "quantity": 4784,
      "date": 4785,
      "numbers": 4786,
      "preached": 4787,
      "##pond": 4788,
      "treasury": 4789,
      "naturally": 4790,
      "bodie": 4791,
      "ſafe": 4792,
      "murder": 4793,
      "spoken": 4794,
      "##akers": 4795,
      "rene": 4796,
      "wrote": 4797,
      "heere": 4798,
      "direction": 4799,
      "apostle": 4800,
      "virgin": 4801,
      "ſhame": 4802,
      "##ciall": 4803,
      "bringing": 4804,
      "married": 4805,
      "interpret": 4806,
      "forſ": 4807,
      "33": 4808,
      "##imus": 4809,
      "looked": 4810,
      "mus": 4811,
      "ministry": 4812,
      "eccleſia": 4813,
      "##iſme": 4814,
      "poſſible": 4815,
      "gouern": 4816,
      "quam": 4817,
      "germany": 4818,
      "##agues": 4819,
      "expenditure": 4820,
      "examples": 4821,
      "##ari": 4822,
      "richard": 4823,
      "ſpiritual": 4824,
      "##inth": 4825,
      "railway": 4826,
      "purſ": 4827,
      "list": 4828,
      "##poses": 4829,
      "infall": 4830,
      "canon": 4831,
      "understood": 4832,
      "daies": 4833,
      "ſave": 4834,
      "equally": 4835,
      "##ynt": 4836,
      "une": 4837,
      "commaund": 4838,
      "##ald": 4839,
      "epiſt": 4840,
      "anger": 4841,
      "ſubm": 4842,
      "troubled": 4843,
      "##ſte": 4844,
      "bright": 4845,
      "pretended": 4846,
      "promiſes": 4847,
      "##rid": 4848,
      "earneſt": 4849,
      "emperor": 4850,
      "manifest": 4851,
      "inherit": 4852,
      "application": 4853,
      "rend": 4854,
      "conſidered": 4855,
      "env": 4856,
      "ſpeaking": 4857,
      "boy": 4858,
      "##atus": 4859,
      "clearly": 4860,
      "##vey": 4861,
      "##iſhing": 4862,
      "##beit": 4863,
      "ſad": 4864,
      "jesus": 4865,
      "##aile": 4866,
      "##iel": 4867,
      "road": 4868,
      "lines": 4869,
      "##emption": 4870,
      "vig": 4871,
      "##ials": 4872,
      "particulars": 4873,
      "##ai": 4874,
      "##uls": 4875,
      "individual": 4876,
      "wordes": 4877,
      "nine": 4878,
      "payment": 4879,
      "##illing": 4880,
      "ſud": 4881,
      "ours": 4882,
      "##ony": 4883,
      "##uary": 4884,
      "##umption": 4885,
      "coal": 4886,
      "desp": 4887,
      "probably": 4888,
      "anſw": 4889,
      "dealt": 4890,
      "##urd": 4891,
      "design": 4892,
      "continually": 4893,
      "##atives": 4894,
      "victory": 4895,
      "clean": 4896,
      "##vert": 4897,
      "speaking": 4898,
      "##ſters": 4899,
      "confirmed": 4900,
      "##ster": 4901,
      "servant": 4902,
      "##lle": 4903,
      "##fortun": 4904,
      "ber": 4905,
      "employment": 4906,
      "##inction": 4907,
      "accepted": 4908,
      "sens": 4909,
      "promiſed": 4910,
      "occur": 4911,
      "liqu": 4912,
      "##cie": 4913,
      "imagine": 4914,
      "lorde": 4915,
      "thinking": 4916,
      "##ieth": 4917,
      "##sse": 4918,
      "leaves": 4919,
      "unj": 4920,
      "##omon": 4921,
      "prel": 4922,
      "attain": 4923,
      "hier": 4924,
      "fast": 4925,
      "##erous": 4926,
      "##standing": 4927,
      "##ſts": 4928,
      "safe": 4929,
      "plead": 4930,
      "##odd": 4931,
      "##uting": 4932,
      "##enes": 4933,
      "contra": 4934,
      "simil": 4935,
      "services": 4936,
      "##hib": 4937,
      "consist": 4938,
      "declaration": 4939,
      "##owes": 4940,
      "oct": 4941,
      "ſtud": 4942,
      "directed": 4943,
      "assemb": 4944,
      "##uring": 4945,
      "ſte": 4946,
      "purs": 4947,
      "lament": 4948,
      "treaty": 4949,
      "##phem": 4950,
      "ſtood": 4951,
      "##over": 4952,
      "iron": 4953,
      "moral": 4954,
      "proposal": 4955,
      "commands": 4956,
      "##ker": 4957,
      "##ral": 4958,
      "whereupon": 4959,
      "creation": 4960,
      "advance": 4961,
      "vine": 4962,
      "holl": 4963,
      "avoid": 4964,
      "seed": 4965,
      "fallen": 4966,
      "looking": 4967,
      "intellig": 4968,
      "highly": 4969,
      "political": 4970,
      "fifth": 4971,
      "gentiles": 4972,
      "sabbath": 4973,
      "reſiſt": 4974,
      "introduced": 4975,
      "##ati": 4976,
      "##rof": 4977,
      "chiefly": 4978,
      "protect": 4979,
      "##law": 4980,
      "happened": 4981,
      "##orne": 4982,
      "34": 4983,
      "sick": 4984,
      "underſtood": 4985,
      "##where": 4986,
      "pill": 4987,
      "frequently": 4988,
      "priu": 4989,
      "##itious": 4990,
      "##ped": 4991,
      "pains": 4992,
      "deſtruction": 4993,
      "fixed": 4994,
      "early": 4995,
      "crime": 4996,
      "supre": 4997,
      "sons": 4998,
      "##erue": 4999,
      "si": 5000,
      "35": 5001,
      "opposition": 5002,
      "##lands": 5003,
      "ſeek": 5004,
      "wherewith": 5005,
      "job": 5006,
      "steps": 5007,
      "##iant": 5008,
      "height": 5009,
      "##sp": 5010,
      "beleeue": 5011,
      "lift": 5012,
      "serious": 5013,
      "##iffer": 5014,
      "reduced": 5015,
      "unleſs": 5016,
      "authors": 5017,
      "pict": 5018,
      "statute": 5019,
      "later": 5020,
      "##isc": 5021,
      "##waies": 5022,
      "ry": 5023,
      "hall": 5024,
      "cauſed": 5025,
      "##iance": 5026,
      "belonging": 5027,
      "troubles": 5028,
      "beast": 5029,
      "paſſed": 5030,
      "bull": 5031,
      "fount": 5032,
      "directly": 5033,
      "salt": 5034,
      "instead": 5035,
      "convenient": 5036,
      "gentle": 5037,
      "prem": 5038,
      "lately": 5039,
      "plaine": 5040,
      "##dd": 5041,
      "sentence": 5042,
      "worſe": 5043,
      "##reth": 5044,
      "thro": 5045,
      "oppre": 5046,
      "avail": 5047,
      "hitherto": 5048,
      "vul": 5049,
      "itself": 5050,
      "iewes": 5051,
      "charges": 5052,
      "graces": 5053,
      "priviled": 5054,
      "yor": 5055,
      "indiffer": 5056,
      "romans": 5057,
      "discover": 5058,
      "gathered": 5059,
      "bew": 5060,
      "total": 5061,
      "reformation": 5062,
      "changed": 5063,
      "winter": 5064,
      "instance": 5065,
      "heathen": 5066,
      "control": 5067,
      "jour": 5068,
      "##ij": 5069,
      "poet": 5070,
      "##ufact": 5071,
      "vaine": 5072,
      "merely": 5073,
      "green": 5074,
      "na": 5075,
      "engaged": 5076,
      "archb": 5077,
      "manufact": 5078,
      "thirty": 5079,
      "##owing": 5080,
      "revel": 5081,
      "sund": 5082,
      "crit": 5083,
      "inu": 5084,
      "commer": 5085,
      "##pent": 5086,
      "israel": 5087,
      "discour": 5088,
      "dom": 5089,
      "##ift": 5090,
      "whilſt": 5091,
      "##inesse": 5092,
      "##ounce": 5093,
      "nour": 5094,
      "turne": 5095,
      "decree": 5096,
      "teſtament": 5097,
      "receiue": 5098,
      "raiſed": 5099,
      "##ique": 5100,
      "teſtimony": 5101,
      "##illed": 5102,
      "malice": 5103,
      "ſtir": 5104,
      "spain": 5105,
      "evening": 5106,
      "market": 5107,
      "tum": 5108,
      "##lled": 5109,
      "increased": 5110,
      "36": 5111,
      "publish": 5112,
      "ſalvation": 5113,
      "pounds": 5114,
      "close": 5115,
      "mach": 5116,
      "extern": 5117,
      "alexander": 5118,
      "ach": 5119,
      "wages": 5120,
      "anx": 5121,
      "mix": 5122,
      "##uance": 5123,
      "pil": 5124,
      "forme": 5125,
      "finan": 5126,
      "defect": 5127,
      "immediate": 5128,
      "appearance": 5129,
      "##acity": 5130,
      "##ato": 5131,
      "theyr": 5132,
      "withall": 5133,
      "happineſs": 5134,
      "star": 5135,
      "##alous": 5136,
      "ſuffered": 5137,
      "ſpirituall": 5138,
      "door": 5139,
      "tyrann": 5140,
      "tar": 5141,
      "generation": 5142,
      "proſper": 5143,
      "hiſtory": 5144,
      "desired": 5145,
      "relie": 5146,
      "reconcil": 5147,
      "discip": 5148,
      "##cent": 5149,
      "removed": 5150,
      "loss": 5151,
      "below": 5152,
      "##ris": 5153,
      "towns": 5154,
      "myſter": 5155,
      "batte": 5156,
      "vnderſt": 5157,
      "impoſſ": 5158,
      "enim": 5159,
      "prohib": 5160,
      "purposes": 5161,
      "falling": 5162,
      "knowne": 5163,
      "immort": 5164,
      "hebrew": 5165,
      "ball": 5166,
      "diſciples": 5167,
      "##anus": 5168,
      "##uerſ": 5169,
      "alwaies": 5170,
      "wisd": 5171,
      "##ered": 5172,
      "endure": 5173,
      "violent": 5174,
      "organ": 5175,
      "honest": 5176,
      "##ſted": 5177,
      "##cere": 5178,
      "almighty": 5179,
      "eminent": 5180,
      "##neſſes": 5181,
      "witness": 5182,
      "easily": 5183,
      "priest": 5184,
      "grief": 5185,
      "proceeding": 5186,
      "##rent": 5187,
      "repreſent": 5188,
      "patri": 5189,
      "dignity": 5190,
      "idea": 5191,
      "pieces": 5192,
      "capital": 5193,
      "vtter": 5194,
      "eccleſiaſt": 5195,
      "estim": 5196,
      "lit": 5197,
      "angel": 5198,
      "maner": 5199,
      "loy": 5200,
      "unre": 5201,
      "frequent": 5202,
      "ordinance": 5203,
      "satisfaction": 5204,
      "wait": 5205,
      "##inations": 5206,
      "serve": 5207,
      "cenſ": 5208,
      "dominion": 5209,
      "meas": 5210,
      "##ſoeuer": 5211,
      "192": 5212,
      "notwithstanding": 5213,
      "ſever": 5214,
      "legal": 5215,
      "facult": 5216,
      "##fl": 5217,
      "doo": 5218,
      "ment": 5219,
      "##soever": 5220,
      "##iency": 5221,
      "marqu": 5222,
      "britain": 5223,
      "rejoy": 5224,
      "##ressed": 5225,
      "history": 5226,
      "rare": 5227,
      "ordinances": 5228,
      "fet": 5229,
      "##ructions": 5230,
      "aver": 5231,
      "deſires": 5232,
      "##conom": 5233,
      "abol": 5234,
      "exactly": 5235,
      "acquainted": 5236,
      "antiqu": 5237,
      "brings": 5238,
      "independ": 5239,
      "cu": 5240,
      "san": 5241,
      "observ": 5242,
      "breach": 5243,
      "lesse": 5244,
      "reproach": 5245,
      "fy": 5246,
      "hir": 5247,
      "compared": 5248,
      "##count": 5249,
      "bri": 5250,
      "buy": 5251,
      "sept": 5252,
      "ip": 5253,
      "league": 5254,
      "issue": 5255,
      "ſomewhat": 5256,
      "stock": 5257,
      "fleet": 5258,
      "barbar": 5259,
      "constitution": 5260,
      "ordained": 5261,
      "follows": 5262,
      "ſword": 5263,
      "shee": 5264,
      "complete": 5265,
      "eate": 5266,
      "actually": 5267,
      "vesse": 5268,
      "##alog": 5269,
      "thick": 5270,
      "italy": 5271,
      "proble": 5272,
      "choſen": 5273,
      "financial": 5274,
      "bleſſing": 5275,
      "infirm": 5276,
      "stood": 5277,
      "##charge": 5278,
      "correct": 5279,
      "##uding": 5280,
      "ſubſtance": 5281,
      "contend": 5282,
      "province": 5283,
      "naked": 5284,
      "##emper": 5285,
      "##mp": 5286,
      "receiued": 5287,
      "##oubted": 5288,
      "waſh": 5289,
      "concur": 5290,
      "ſea": 5291,
      "entred": 5292,
      "ſpeech": 5293,
      "torment": 5294,
      "whome": 5295,
      "altar": 5296,
      "burnt": 5297,
      "filled": 5298,
      "leſſ": 5299,
      "strange": 5300,
      "countenance": 5301,
      "##oll": 5302,
      "authoritie": 5303,
      "mess": 5304,
      "colonies": 5305,
      "returne": 5306,
      "rates": 5307,
      "##cured": 5308,
      "ah": 5309,
      "##iſs": 5310,
      "ceremonies": 5311,
      "##arp": 5312,
      "##get": 5313,
      "miracles": 5314,
      "receiving": 5315,
      "joh": 5316,
      "earthly": 5317,
      "companies": 5318,
      "examine": 5319,
      "econom": 5320,
      "withdraw": 5321,
      "sect": 5322,
      "bank": 5323,
      "pull": 5324,
      "sacred": 5325,
      "imploy": 5326,
      "tam": 5327,
      "aun": 5328,
      "counter": 5329,
      "##licate": 5330,
      "exch": 5331,
      "expressed": 5332,
      "dying": 5333,
      "dauid": 5334,
      "resol": 5335,
      "##phe": 5336,
      "exercise": 5337,
      "wanted": 5338,
      "earle": 5339,
      "murther": 5340,
      "##inate": 5341,
      "paris": 5342,
      "farm": 5343,
      "vnderst": 5344,
      "hereby": 5345,
      "hoc": 5346,
      "stay": 5347,
      "administration": 5348,
      "killed": 5349,
      "fame": 5350,
      "##erted": 5351,
      "##otes": 5352,
      "##lected": 5353,
      "speaker": 5354,
      "##ocation": 5355,
      "vertues": 5356,
      "belo": 5357,
      "heed": 5358,
      "##mble": 5359,
      "##orious": 5360,
      "frame": 5361,
      "pan": 5362,
      "dise": 5363,
      "cord": 5364,
      "satisfied": 5365,
      "##owe": 5366,
      "hys": 5367,
      "concluded": 5368,
      "madam": 5369,
      "admon": 5370,
      "adminiſt": 5371,
      "reported": 5372,
      "carrying": 5373,
      "bills": 5374,
      "punishment": 5375,
      "standing": 5376,
      "ſorts": 5377,
      "caſes": 5378,
      "profeſſion": 5379,
      "bless": 5380,
      "thanks": 5381,
      "abh": 5382,
      "wales": 5383,
      "quid": 5384,
      "decision": 5385,
      "heavy": 5386,
      "diſtingu": 5387,
      "##gers": 5388,
      "halfe": 5389,
      "worldly": 5390,
      "eliz": 5391,
      "troops": 5392,
      "effic": 5393,
      "filth": 5394,
      "ſhip": 5395,
      "##ſtances": 5396,
      "##vera": 5397,
      "dimin": 5398,
      "##chief": 5399,
      "german": 5400,
      "causes": 5401,
      "diſeaſe": 5402,
      "single": 5403,
      "deſir": 5404,
      "ſupport": 5405,
      "broad": 5406,
      "propose": 5407,
      "flatter": 5408,
      "leaving": 5409,
      "rightly": 5410,
      "judic": 5411,
      "ruine": 5412,
      "celebr": 5413,
      "franc": 5414,
      "ſtra": 5415,
      "apparent": 5416,
      "warm": 5417,
      "philip": 5418,
      "behalf": 5419,
      "folly": 5420,
      "##know": 5421,
      "##owned": 5422,
      "##ſa": 5423,
      "indul": 5424,
      "##aſſe": 5425,
      "math": 5426,
      "remove": 5427,
      "denied": 5428,
      "ſudden": 5429,
      "vpp": 5430,
      "##ril": 5431,
      "blame": 5432,
      "legislation": 5433,
      "matth": 5434,
      "sor": 5435,
      "remembr": 5436,
      "reſolved": 5437,
      "##ication": 5438,
      "dub": 5439,
      "##ommunic": 5440,
      "maid": 5441,
      "landl": 5442,
      "rele": 5443,
      "entitled": 5444,
      "##allen": 5445,
      "stage": 5446,
      "ariſe": 5447,
      "fortun": 5448,
      "##ifieth": 5449,
      "vic": 5450,
      "caused": 5451,
      "tenant": 5452,
      "willingly": 5453,
      "tyme": 5454,
      "##aging": 5455,
      "ſeed": 5456,
      "writings": 5457,
      "propri": 5458,
      "##erued": 5459,
      "ingen": 5460,
      "piety": 5461,
      "##itute": 5462,
      "families": 5463,
      "accident": 5464,
      "consequence": 5465,
      "departed": 5466,
      "raiſe": 5467,
      "##eneſſe": 5468,
      "forty": 5469,
      "193": 5470,
      "examination": 5471,
      "privile": 5472,
      "thinks": 5473,
      "presbyter": 5474,
      "adopted": 5475,
      "##icted": 5476,
      "sorrow": 5477,
      "baptized": 5478,
      "neere": 5479,
      "fiſh": 5480,
      "tears": 5481,
      "redemption": 5482,
      "##cretion": 5483,
      "police": 5484,
      "irre": 5485,
      "obſt": 5486,
      "##throw": 5487,
      "hypocr": 5488,
      "somewhat": 5489,
      "haz": 5490,
      "dic": 5491,
      "greek": 5492,
      "america": 5493,
      "##ales": 5494,
      "thereunto": 5495,
      "sher": 5496,
      "passe": 5497,
      "##resse": 5498,
      "deed": 5499,
      "earn": 5500,
      "execut": 5501,
      "ſearch": 5502,
      "freedom": 5503,
      "burden": 5504,
      "papiſts": 5505,
      "ital": 5506,
      "##omed": 5507,
      "exception": 5508,
      "pu": 5509,
      "situation": 5510,
      "viſible": 5511,
      "stop": 5512,
      "reasonable": 5513,
      "founded": 5514,
      "cloath": 5515,
      "seemed": 5516,
      "37": 5517,
      "lieutenant": 5518,
      "everlaſting": 5519,
      "wished": 5520,
      "ſatisfaction": 5521,
      "provisions": 5522,
      "sermon": 5523,
      "landlord": 5524,
      "conference": 5525,
      "parliamentary": 5526,
      "ſpeaks": 5527,
      "gate": 5528,
      "connection": 5529,
      "##ituted": 5530,
      "revenue": 5531,
      "conj": 5532,
      "##oked": 5533,
      "front": 5534,
      "citizens": 5535,
      "dig": 5536,
      "afric": 5537,
      "holding": 5538,
      "objects": 5539,
      "quarre": 5540,
      "brief": 5541,
      "recogn": 5542,
      "utmo": 5543,
      "teachers": 5544,
      "contempl": 5545,
      "##anes": 5546,
      "ſtone": 5547,
      "absolutely": 5548,
      "##aver": 5549,
      "ward": 5550,
      "persw": 5551,
      "indian": 5552,
      "assistance": 5553,
      "answered": 5554,
      "attended": 5555,
      "reſurrection": 5556,
      "talk": 5557,
      "ſouls": 5558,
      "##ening": 5559,
      "shame": 5560,
      "profitable": 5561,
      "sic": 5562,
      "theirs": 5563,
      "cruc": 5564,
      "compell": 5565,
      "ſucceed": 5566,
      "chan": 5567,
      "##atum": 5568,
      "##idel": 5569,
      "poſſeſſion": 5570,
      "male": 5571,
      "##ulter": 5572,
      "ſubſ": 5573,
      "##onge": 5574,
      "secure": 5575,
      "bran": 5576,
      "sacrific": 5577,
      "quickly": 5578,
      "prec": 5579,
      "38": 5580,
      "admiralty": 5581,
      "chry": 5582,
      "ſpirits": 5583,
      "deput": 5584,
      "dict": 5585,
      "beſe": 5586,
      "goſpell": 5587,
      "bay": 5588,
      "invest": 5589,
      "ſtop": 5590,
      "councils": 5591,
      "accounted": 5592,
      "multip": 5593,
      "##erem": 5594,
      "paſſage": 5595,
      "ſoules": 5596,
      "##wydd": 5597,
      "ſeaſon": 5598,
      "suff": 5599,
      "quo": 5600,
      "christs": 5601,
      "established": 5602,
      "pretence": 5603,
      "poſt": 5604,
      "probable": 5605,
      "rise": 5606,
      "settle": 5607,
      "excommunic": 5608,
      "burning": 5609,
      "session": 5610,
      "##ylon": 5611,
      "memor": 5612,
      "injur": 5613,
      "spring": 5614,
      "diſh": 5615,
      "impoſſible": 5616,
      "retain": 5617,
      "bin": 5618,
      "batt": 5619,
      "goodneſs": 5620,
      "##resh": 5621,
      "lawe": 5622,
      "##employ": 5623,
      "becomes": 5624,
      "impr": 5625,
      "verie": 5626,
      "rage": 5627,
      "alas": 5628,
      "proceeded": 5629,
      "obv": 5630,
      "##ounced": 5631,
      "facts": 5632,
      "unemploy": 5633,
      "gir": 5634,
      "drinke": 5635,
      "converſ": 5636,
      "ſhee": 5637,
      "rock": 5638,
      "aſt": 5639,
      "##more": 5640,
      "beloved": 5641,
      "laſtly": 5642,
      "ended": 5643,
      "security": 5644,
      "ſacred": 5645,
      "##pected": 5646,
      "manners": 5647,
      "flour": 5648,
      "deſcend": 5649,
      "asso": 5650,
      "rebellion": 5651,
      "##rous": 5652,
      "##iast": 5653,
      "beeing": 5654,
      "pul": 5655,
      "entr": 5656,
      "writers": 5657,
      "mas": 5658,
      "ſcarce": 5659,
      "presented": 5660,
      "##order": 5661,
      "raise": 5662,
      "caſtle": 5663,
      "gun": 5664,
      "utterly": 5665,
      "obligation": 5666,
      "poſ": 5667,
      "ghost": 5668,
      "deare": 5669,
      "getting": 5670,
      "narrow": 5671,
      "fel": 5672,
      "poll": 5673,
      "tab": 5674,
      "income": 5675,
      "running": 5676,
      "##poſing": 5677,
      "adh": 5678,
      "##eter": 5679,
      "##vet": 5680,
      "feaſt": 5681,
      "ſpake": 5682,
      "acquaint": 5683,
      "fing": 5684,
      "conſiderable": 5685,
      "defe": 5686,
      "thereupon": 5687,
      "images": 5688,
      "relations": 5689,
      "procure": 5690,
      "motions": 5691,
      "wants": 5692,
      "higheſt": 5693,
      "eaſe": 5694,
      "aſſured": 5695,
      "conclusion": 5696,
      "mercies": 5697,
      "benefits": 5698,
      "treated": 5699,
      "marry": 5700,
      "##riſon": 5701,
      "presence": 5702,
      "baptiſm": 5703,
      "division": 5704,
      "ſaved": 5705,
      "191": 5706,
      "##idents": 5707,
      "ray": 5708,
      "diſcer": 5709,
      "##ommod": 5710,
      "vvith": 5711,
      "congregation": 5712,
      "requires": 5713,
      "##atch": 5714,
      "followeth": 5715,
      "powder": 5716,
      "formed": 5717,
      "increaſe": 5718,
      "##ping": 5719,
      "expreſs": 5720,
      "##enture": 5721,
      "iſſue": 5722,
      "parish": 5723,
      "##head": 5724,
      "finally": 5725,
      "##nde": 5726,
      "##ino": 5727,
      "calam": 5728,
      "limited": 5729,
      "loſe": 5730,
      "hatred": 5731,
      "encre": 5732,
      "unh": 5733,
      "##velop": 5734,
      "inconven": 5735,
      "39": 5736,
      "reputation": 5737,
      "drop": 5738,
      "confeſs": 5739,
      "consult": 5740,
      "##worthy": 5741,
      "arbit": 5742,
      "feed": 5743,
      "arrived": 5744,
      "##urs": 5745,
      "spani": 5746,
      "approved": 5747,
      "sad": 5748,
      "terrible": 5749,
      "prepare": 5750,
      "squ": 5751,
      "pee": 5752,
      "wanting": 5753,
      "fauour": 5754,
      "copy": 5755,
      "mainten": 5756,
      "##licity": 5757,
      "tas": 5758,
      "ador": 5759,
      "##ades": 5760,
      "rod": 5761,
      "wont": 5762,
      "nec": 5763,
      "challen": 5764,
      "cun": 5765,
      "##actory": 5766,
      "interpre": 5767,
      "blaſ": 5768,
      "ſacrifice": 5769,
      "sake": 5770,
      "impart": 5771,
      "acted": 5772,
      "population": 5773,
      "proteſtants": 5774,
      "##xed": 5775,
      "permitted": 5776,
      "ſuff": 5777,
      "supper": 5778,
      "##athan": 5779,
      "moreover": 5780,
      "begun": 5781,
      "moses": 5782,
      "conſequence": 5783,
      "ſold": 5784,
      "aid": 5785,
      "abound": 5786,
      "##rick": 5787,
      "maintained": 5788,
      "majority": 5789,
      "ring": 5790,
      "golden": 5791,
      "guide": 5792,
      "counſell": 5793,
      "ſeru": 5794,
      "eſſe": 5795,
      "##oes": 5796,
      "empt": 5797,
      "neighbours": 5798,
      "greg": 5799,
      "iesus": 5800,
      "wounded": 5801,
      "unfortun": 5802,
      "unb": 5803,
      "teaching": 5804,
      "##atic": 5805,
      "##enſion": 5806,
      "queene": 5807,
      "aust": 5808,
      "alleg": 5809,
      "verb": 5810,
      "regular": 5811,
      "catholick": 5812,
      "adulter": 5813,
      "sauiour": 5814,
      "bones": 5815,
      "doctrines": 5816,
      "##orous": 5817,
      "hunt": 5818,
      "measures": 5819,
      "bearing": 5820,
      "confeſſe": 5821,
      "affliction": 5822,
      "determine": 5823,
      "wond": 5824,
      "suggested": 5825,
      "##iſſe": 5826,
      "ſcript": 5827,
      "sovera": 5828,
      "circumſtances": 5829,
      "mixt": 5830,
      "familiar": 5831,
      "practiſe": 5832,
      "righteouſneſſe": 5833,
      "enable": 5834,
      "unp": 5835,
      "##ceſſion": 5836,
      "flowers": 5837,
      "idle": 5838,
      "detail": 5839,
      "pac": 5840,
      "uncle": 5841,
      "beleeve": 5842,
      "remained": 5843,
      "jeruſalem": 5844,
      "offering": 5845,
      "milk": 5846,
      "##ensions": 5847,
      "confess": 5848,
      "silver": 5849,
      "heavens": 5850,
      "##wood": 5851,
      "forbe": 5852,
      "branch": 5853,
      "##icated": 5854,
      "ſeemed": 5855,
      "afflictions": 5856,
      "branches": 5857,
      "beaſts": 5858,
      "wid": 5859,
      "##idently": 5860,
      "regarded": 5861,
      "regret": 5862,
      "agreeable": 5863,
      "succeed": 5864,
      "russ": 5865,
      "resist": 5866,
      "ens": 5867,
      "nowe": 5868,
      "inheritance": 5869,
      "garden": 5870,
      "distinct": 5871,
      "lust": 5872,
      "vve": 5873,
      "hung": 5874,
      "##uced": 5875,
      "please": 5876,
      "fate": 5877,
      "remarkable": 5878,
      "associ": 5879,
      "soldiers": 5880,
      "attack": 5881,
      "laugh": 5882,
      "##apt": 5883,
      "babylon": 5884,
      "reſtr": 5885,
      "noted": 5886,
      "lew": 5887,
      "vind": 5888,
      "prosper": 5889,
      "##aling": 5890,
      "hide": 5891,
      "humbly": 5892,
      "maintenance": 5893,
      "develop": 5894,
      "sacraments": 5895,
      "iniquity": 5896,
      "carefully": 5897,
      "governor": 5898,
      "eternity": 5899,
      "unw": 5900,
      "##isation": 5901,
      "ſurely": 5902,
      "pred": 5903,
      "##ante": 5904,
      "merits": 5905,
      "profession": 5906,
      "advoc": 5907,
      "intim": 5908,
      "esteem": 5909,
      "##amm": 5910,
      "excellency": 5911,
      "mont": 5912,
      "dun": 5913,
      "##adow": 5914,
      "imperial": 5915,
      "exod": 5916,
      "anne": 5917,
      "agricultural": 5918,
      "synod": 5919,
      "commeth": 5920,
      "offended": 5921,
      "kinds": 5922,
      "croſſe": 5923,
      "##ructed": 5924,
      "##raph": 5925,
      "advantages": 5926,
      "##irme": 5927,
      "temp": 5928,
      "twice": 5929,
      "considering": 5930,
      "rig": 5931,
      "mac": 5932,
      "##itors": 5933,
      "similar": 5934,
      "diuine": 5935,
      "##era": 5936,
      "sinnes": 5937,
      "abb": 5938,
      "jan": 5939,
      "##tled": 5940,
      "##oting": 5941,
      "worse": 5942,
      "buried": 5943,
      "equall": 5944,
      "viscount": 5945,
      "substance": 5946,
      "##uers": 5947,
      "dutch": 5948,
      "production": 5949,
      "revenge": 5950,
      "##ensation": 5951,
      "maſters": 5952,
      "borough": 5953,
      "reſolution": 5954,
      "ſhut": 5955,
      "ſufficiently": 5956,
      "philos": 5957,
      "instr": 5958,
      "alteration": 5959,
      "##ux": 5960,
      "myself": 5961,
      "miſerable": 5962,
      "enſ": 5963,
      "miſery": 5964,
      "views": 5965,
      "existing": 5966,
      "forms": 5967,
      "event": 5968,
      "actual": 5969,
      "skill": 5970,
      "understanding": 5971,
      "croſs": 5972,
      "ſpeed": 5973,
      "diſtance": 5974,
      "##aues": 5975,
      "##aped": 5976,
      "##jus": 5977,
      "qua": 5978,
      "ſeeke": 5979,
      "remembrance": 5980,
      "priests": 5981,
      "bottom": 5982,
      "gates": 5983,
      "continuance": 5984,
      "careful": 5985,
      "sunne": 5986,
      "##arks": 5987,
      "convers": 5988,
      "uns": 5989,
      "requeſt": 5990,
      "##hire": 5991,
      "permit": 5992,
      "shalt": 5993,
      "ſolemn": 5994,
      "available": 5995,
      "##arum": 5996,
      "discourse": 5997,
      "infant": 5998,
      "undoubted": 5999,
      "circumc": 6000,
      "##son": 6001,
      "luther": 6002,
      "##ox": 6003,
      "apart": 6004,
      "breaſt": 6005,
      "papers": 6006,
      "philosoph": 6007,
      "fed": 6008,
      "esc": 6009,
      "belief": 6010,
      "eſtabliſh": 6011,
      "praise": 6012,
      "periſh": 6013,
      "##ression": 6014,
      "rect": 6015,
      "tra": 6016,
      "ſpace": 6017,
      "backe": 6018,
      "jacob": 6019,
      "wars": 6020,
      "##ente": 6021,
      "##asing": 6022,
      "ſayd": 6023,
      "pleased": 6024,
      "##ipping": 6025,
      "arre": 6026,
      "wide": 6027,
      "appointment": 6028,
      "ſuppoſed": 6029,
      "bount": 6030,
      "prede": 6031,
      "wear": 6032,
      "pariſh": 6033,
      "prejudice": 6034,
      "lot": 6035,
      "howe": 6036,
      "selues": 6037,
      "believers": 6038,
      "remains": 6039,
      "publike": 6040,
      "majeſties": 6041,
      "betray": 6042,
      "aqu": 6043,
      "veh": 6044,
      "observed": 6045,
      "null": 6046,
      "transport": 6047,
      "45": 6048,
      "##field": 6049,
      "infants": 6050,
      "bath": 6051,
      "ſervants": 6052,
      "complain": 6053,
      "antichriſt": 6054,
      "aſſembly": 6055,
      "##much": 6056,
      "feared": 6057,
      "adverſ": 6058,
      "##aming": 6059,
      "##erend": 6060,
      "##ule": 6061,
      "##oe": 6062,
      "cens": 6063,
      "larger": 6064,
      "chaſt": 6065,
      "agriculture": 6066,
      "abſolute": 6067,
      "ſecure": 6068,
      "export": 6069,
      "sever": 6070,
      "prod": 6071,
      "yours": 6072,
      "##ula": 6073,
      "request": 6074,
      "42": 6075,
      "blow": 6076,
      "chairm": 6077,
      "pref": 6078,
      "vvhich": 6079,
      "observe": 6080,
      "cross": 6081,
      "##uck": 6082,
      "deut": 6083,
      "possibly": 6084,
      "responsible": 6085,
      "carn": 6086,
      "00": 6087,
      "vppon": 6088,
      "##poſitions": 6089,
      "passing": 6090,
      "errors": 6091,
      "##000": 6092,
      "##ivity": 6093,
      "loved": 6094,
      "save": 6095,
      "vanity": 6096,
      "##ilitie": 6097,
      "learne": 6098,
      "ſch": 6099,
      "inſtead": 6100,
      "idolatry": 6101,
      "dominions": 6102,
      "parad": 6103,
      "reade": 6104,
      "pleaſant": 6105,
      "##lius": 6106,
      "race": 6107,
      "possession": 6108,
      "epist": 6109,
      "marke": 6110,
      "aſſiſtance": 6111,
      "minor": 6112,
      "promised": 6113,
      "luc": 6114,
      "diligence": 6115,
      "##leg": 6116,
      "60": 6117,
      "navy": 6118,
      "regen": 6119,
      "notes": 6120,
      "abide": 6121,
      "fundament": 6122,
      "baſe": 6123,
      "##asting": 6124,
      "##ering": 6125,
      "weigh": 6126,
      "##nings": 6127,
      "fled": 6128,
      "nun": 6129,
      "answ": 6130,
      "borrow": 6131,
      "tranſl": 6132,
      "holineſs": 6133,
      "##anim": 6134,
      "hair": 6135,
      "##igation": 6136,
      "##ush": 6137,
      "loſs": 6138,
      "covered": 6139,
      "corne": 6140,
      "belly": 6141,
      "##ump": 6142,
      "teacheth": 6143,
      "ſentence": 6144,
      "complaint": 6145,
      "entered": 6146,
      "£2": 6147,
      "##gs": 6148,
      "albeit": 6149,
      "##thern": 6150,
      "ſenſible": 6151,
      "ecclesiast": 6152,
      "##pot": 6153,
      "profess": 6154,
      "##icus": 6155,
      "earnest": 6156,
      "sides": 6157,
      "curſe": 6158,
      "skin": 6159,
      "##aughters": 6160,
      "##ero": 6161,
      "whither": 6162,
      "feb": 6163,
      "chron": 6164,
      "liberties": 6165,
      "##orney": 6166,
      "##inet": 6167,
      "maieſt": 6168,
      "exceed": 6169,
      "simple": 6170,
      "presently": 6171,
      "witneſs": 6172,
      "arise": 6173,
      "drew": 6174,
      "inſtance": 6175,
      "alb": 6176,
      "dro": 6177,
      "dyed": 6178,
      "principall": 6179,
      "som": 6180,
      "solemn": 6181,
      "temporal": 6182,
      "pious": 6183,
      "moon": 6184,
      "juſtly": 6185,
      "armed": 6186,
      "##gon": 6187,
      "##olation": 6188,
      "accommod": 6189,
      "appeareth": 6190,
      "amaz": 6191,
      "conſequently": 6192,
      "ladies": 6193,
      "eſtates": 6194,
      "lamb": 6195,
      "##ember": 6196,
      "growing": 6197,
      "weap": 6198,
      "april": 6199,
      "benefic": 6200,
      "path": 6201,
      "##ims": 6202,
      "ſought": 6203,
      "##abeth": 6204,
      "##ching": 6205,
      "lordſhip": 6206,
      "convinced": 6207,
      "ſy": 6208,
      "hereof": 6209,
      "##ifications": 6210,
      "alive": 6211,
      "persec": 6212,
      "ſleep": 6213,
      "cuſtom": 6214,
      "waſt": 6215,
      "41": 6216,
      "condemn": 6217,
      "phys": 6218,
      "distingu": 6219,
      "whilst": 6220,
      "realme": 6221,
      "venture": 6222,
      "untill": 6223,
      "##ſc": 6224,
      "##hil": 6225,
      "voluntary": 6226,
      "elders": 6227,
      "bud": 6228,
      "throw": 6229,
      "##mond": 6230,
      "reports": 6231,
      "vntill": 6232,
      "capacity": 6233,
      "ſooner": 6234,
      "turning": 6235,
      "heirs": 6236,
      "witneſſes": 6237,
      "wounds": 6238,
      "notion": 6239,
      "sinners": 6240,
      "eaſie": 6241,
      "adde": 6242,
      "ſinners": 6243,
      "material": 6244,
      "diſeaſes": 6245,
      "confeſſion": 6246,
      "##ſly": 6247,
      "spent": 6248,
      "godl": 6249,
      "preſerve": 6250,
      "##ater": 6251,
      "ruin": 6252,
      "bred": 6253,
      "proposition": 6254,
      "tried": 6255,
      "gw": 6256,
      "powerful": 6257,
      "rub": 6258,
      "sugar": 6259,
      "laying": 6260,
      "qualities": 6261,
      "collect": 6262,
      "fooliſh": 6263,
      "por": 6264,
      "abundance": 6265,
      "ſau": 6266,
      "supposed": 6267,
      "thereto": 6268,
      "advanced": 6269,
      "errour": 6270,
      "void": 6271,
      "##iable": 6272,
      "ſimple": 6273,
      "vulgar": 6274,
      "kingdoms": 6275,
      "incur": 6276,
      "classes": 6277,
      "##iued": 6278,
      "##ignation": 6279,
      "plot": 6280,
      "afflicted": 6281,
      "##iours": 6282,
      "examined": 6283,
      "anie": 6284,
      "proteſtant": 6285,
      "obli": 6286,
      "ſatisfied": 6287,
      "cant": 6288,
      "liver": 6289,
      "fifty": 6290,
      "pleaſures": 6291,
      "problem": 6292,
      "##ſeph": 6293,
      "vile": 6294,
      "##ishing": 6295,
      "taxation": 6296,
      "purchase": 6297,
      "tower": 6298,
      "shewed": 6299,
      "glorie": 6300,
      "plague": 6301,
      "orn": 6302,
      "angry": 6303,
      "##ller": 6304,
      "blaſphem": 6305,
      "occaſions": 6306,
      "breaking": 6307,
      "ears": 6308,
      "humour": 6309,
      "extended": 6310,
      "regulations": 6311,
      "host": 6312,
      "contri": 6313,
      "caeſ": 6314,
      "knights": 6315,
      "holland": 6316,
      "##med": 6317,
      "accounts": 6318,
      "evils": 6319,
      "knoweth": 6320,
      "eag": 6321,
      "mrs": 6322,
      "believing": 6323,
      "wol": 6324,
      "turks": 6325,
      "subiect": 6326,
      "fab": 6327,
      "destroy": 6328,
      "therewith": 6329,
      "elo": 6330,
      "deliber": 6331,
      "inqu": 6332,
      "diſtinct": 6333,
      "interrupt": 6334,
      "uncertain": 6335,
      "ſubiect": 6336,
      "ſuſ": 6337,
      "cher": 6338,
      "cleare": 6339,
      "##body": 6340,
      "enfor": 6341,
      "reduction": 6342,
      "ol": 6343,
      "calleth": 6344,
      "##gent": 6345,
      "conceived": 6346,
      "deceit": 6347,
      "##bour": 6348,
      "rad": 6349,
      "diſple": 6350,
      "attorney": 6351,
      "inquire": 6352,
      "paine": 6353,
      "arts": 6354,
      "decided": 6355,
      "progress": 6356,
      "chairman": 6357,
      "refle": 6358,
      "weep": 6359,
      "item": 6360,
      "clock": 6361,
      "looſe": 6362,
      "##uity": 6363,
      "curious": 6364,
      "vers": 6365,
      "area": 6366,
      "##amation": 6367,
      "iuſtice": 6368,
      "##va": 6369,
      "sud": 6370,
      "exhib": 6371,
      "impre": 6372,
      "labours": 6373,
      "cruelty": 6374,
      "vac": 6375,
      "variety": 6376,
      "praying": 6377,
      "##geance": 6378,
      "ambition": 6379,
      "unhapp": 6380,
      "gy": 6381,
      "fare": 6382,
      "tradition": 6383,
      "ſtanding": 6384,
      "knowe": 6385,
      "crowne": 6386,
      "revealed": 6387,
      "reduce": 6388,
      "abhor": 6389,
      "fancy": 6390,
      "defin": 6391,
      "sax": 6392,
      "elizabeth": 6393,
      "cab": 6394,
      "trial": 6395,
      "active": 6396,
      "##ropri": 6397,
      "tribun": 6398,
      "relating": 6399,
      "inte": 6400,
      "cla": 6401,
      "overcome": 6402,
      "walls": 6403,
      "wisdom": 6404,
      "ante": 6405,
      "cardin": 6406,
      "##ſtant": 6407,
      "breake": 6408,
      "vſed": 6409,
      "ga": 6410,
      "performance": 6411,
      "abomin": 6412,
      "mun": 6413,
      "truely": 6414,
      "##aſſad": 6415,
      "accompan": 6416,
      "daughters": 6417,
      "ib": 6418,
      "indians": 6419,
      "pity": 6420,
      "poſter": 6421,
      "grew": 6422,
      "vni": 6423,
      "cow": 6424,
      "submit": 6425,
      "##eper": 6426,
      "refuſe": 6427,
      "tenants": 6428,
      "smith": 6429,
      "openly": 6430,
      "exped": 6431,
      "july": 6432,
      "liberal": 6433,
      "##itus": 6434,
      "pert": 6435,
      "offences": 6436,
      "mercie": 6437,
      "temptation": 6438,
      "pointed": 6439,
      "walke": 6440,
      "contain": 6441,
      "remaining": 6442,
      "eſtabliſhed": 6443,
      "pour": 6444,
      "roſe": 6445,
      "##ueth": 6446,
      "nove": 6447,
      "mere": 6448,
      "ſle": 6449,
      "acknowledged": 6450,
      "improvement": 6451,
      "fayth": 6452,
      "tranſgre": 6453,
      "brave": 6454,
      "looks": 6455,
      "diff": 6456,
      "nomin": 6457,
      "oxford": 6458,
      "##pher": 6459,
      "conte": 6460,
      "solomon": 6461,
      "epiſtle": 6462,
      "enquire": 6463,
      "transfer": 6464,
      "teeth": 6465,
      "colours": 6466,
      "deliuered": 6467,
      "regards": 6468,
      "##enced": 6469,
      "darkneſs": 6470,
      "dup": 6471,
      "inflict": 6472,
      "sec": 6473,
      "judged": 6474,
      "expreſſed": 6475,
      "governour": 6476,
      "##ye": 6477,
      "native": 6478,
      "##god": 6479,
      "contradict": 6480,
      "wre": 6481,
      "cas": 6482,
      "owing": 6483,
      "tith": 6484,
      "chal": 6485,
      "fears": 6486,
      "speed": 6487,
      "story": 6488,
      "weeks": 6489,
      "anxious": 6490,
      "proposals": 6491,
      "puts": 6492,
      "##zen": 6493,
      "peop": 6494,
      "##imum": 6495,
      "gotten": 6496,
      "june": 6497,
      "##eness": 6498,
      "rank": 6499,
      "provinces": 6500,
      "ade": 6501,
      "aband": 6502,
      "##sed": 6503,
      "repeated": 6504,
      "dei": 6505,
      "york": 6506,
      "forfe": 6507,
      "wretched": 6508,
      "neer": 6509,
      "dangers": 6510,
      "ec": 6511,
      "worde": 6512,
      "additional": 6513,
      "weake": 6514,
      "exchange": 6515,
      "##ofe": 6516,
      "wilder": 6517,
      "##oming": 6518,
      "##ouſe": 6519,
      "morrow": 6520,
      "##posing": 6521,
      "reverence": 6522,
      "reformed": 6523,
      "44": 6524,
      "eg": 6525,
      "search": 6526,
      "whit": 6527,
      "##natur": 6528,
      "parte": 6529,
      "covet": 6530,
      "inſtrument": 6531,
      "accur": 6532,
      "ſi": 6533,
      "calcul": 6534,
      "forbidden": 6535,
      "ſeene": 6536,
      "mi": 6537,
      "suffered": 6538,
      "ſingular": 6539,
      "proue": 6540,
      "ſervant": 6541,
      "ſoft": 6542,
      "treaſon": 6543,
      "neck": 6544,
      "falls": 6545,
      "unity": 6546,
      "won": 6547,
      "executed": 6548,
      "ſides": 6549,
      "hazard": 6550,
      "imperfect": 6551,
      "##pic": 6552,
      "##atem": 6553,
      "ſpread": 6554,
      "indifferent": 6555,
      "thin": 6556,
      "doctors": 6557,
      "##nding": 6558,
      "ris": 6559,
      "reckon": 6560,
      "##aker": 6561,
      "corp": 6562,
      "##ynge": 6563,
      "##erog": 6564,
      "##ival": 6565,
      "legisl": 6566,
      "##perate": 6567,
      "##ading": 6568,
      "##charged": 6569,
      "auſt": 6570,
      "##ican": 6571,
      "beſeech": 6572,
      "incor": 6573,
      "seek": 6574,
      "drawing": 6575,
      "conſtitution": 6576,
      "interpretation": 6577,
      "damn": 6578,
      "speeches": 6579,
      "unlaw": 6580,
      "perceive": 6581,
      "hereto": 6582,
      "500": 6583,
      "print": 6584,
      "limit": 6585,
      "##lor": 6586,
      "infallible": 6587,
      "##min": 6588,
      "effort": 6589,
      "acre": 6590,
      "seru": 6591,
      "neare": 6592,
      "##rious": 6593,
      "##usalem": 6594,
      "grown": 6595,
      "refused": 6596,
      "nearly": 6597,
      "districts": 6598,
      "baptiſme": 6599,
      "treaſ": 6600,
      "sn": 6601,
      "spec": 6602,
      "merchants": 6603,
      "portug": 6604,
      "##erie": 6605,
      "mountains": 6606,
      "events": 6607,
      "conſidering": 6608,
      "official": 6609,
      "elected": 6610,
      "liter": 6611,
      "##uated": 6612,
      "pi": 6613,
      "largely": 6614,
      "wives": 6615,
      "scott": 6616,
      "ii": 6617,
      "responsibility": 6618,
      "contented": 6619,
      "##encies": 6620,
      "evange": 6621,
      "##uge": 6622,
      "saul": 6623,
      "devils": 6624,
      "stir": 6625,
      "horſes": 6626,
      "apprehend": 6627,
      "mah": 6628,
      "aſſurance": 6629,
      "fem": 6630,
      "##thes": 6631,
      "samuel": 6632,
      "##iege": 6633,
      "perf": 6634,
      "commonwe": 6635,
      "armies": 6636,
      "##eties": 6637,
      "43": 6638,
      "##itutions": 6639,
      "safety": 6640,
      "##ayn": 6641,
      "bench": 6642,
      "esse": 6643,
      "news": 6644,
      "rat": 6645,
      "spirituall": 6646,
      "crim": 6647,
      "worlde": 6648,
      "quarters": 6649,
      "##bor": 6650,
      "ſpecial": 6651,
      "##uff": 6652,
      "fury": 6653,
      "tert": 6654,
      "iſland": 6655,
      "ridic": 6656,
      "community": 6657,
      "desirable": 6658,
      "therof": 6659,
      "##izing": 6660,
      "highest": 6661,
      "##zek": 6662,
      "ſingle": 6663,
      "carnal": 6664,
      "owners": 6665,
      "mich": 6666,
      "ille": 6667,
      "commander": 6668,
      "francis": 6669,
      "##aced": 6670,
      "eating": 6671,
      "bought": 6672,
      "fiue": 6673,
      "eſcape": 6674,
      "ſurpri": 6675,
      "crimes": 6676,
      "rap": 6677,
      "magistrates": 6678,
      "journey": 6679,
      "ceaſe": 6680,
      "extremely": 6681,
      "practical": 6682,
      "##atly": 6683,
      "cardinal": 6684,
      "deſtroyed": 6685,
      "enact": 6686,
      "baronet": 6687,
      "##nel": 6688,
      "##ometime": 6689,
      "critic": 6690,
      "unable": 6691,
      "temptations": 6692,
      "##ini": 6693,
      "fow": 6694,
      "prodig": 6695,
      "conſciences": 6696,
      "##ington": 6697,
      "undertake": 6698,
      "converſation": 6699,
      "##och": 6700,
      "counſel": 6701,
      "##ulph": 6702,
      "thrown": 6703,
      "arab": 6704,
      "pitt": 6705,
      "imb": 6706,
      "objections": 6707,
      "counties": 6708,
      "##omach": 6709,
      "explan": 6710,
      "ſpring": 6711,
      "enorm": 6712,
      "sem": 6713,
      "acceptable": 6714,
      "endeavours": 6715,
      "confirmation": 6716,
      "##ibi": 6717,
      "##ipped": 6718,
      "assurance": 6719,
      "suggestion": 6720,
      "negot": 6721,
      "vnderſtand": 6722,
      "expectation": 6723,
      "melanch": 6724,
      "fond": 6725,
      "attach": 6726,
      "bul": 6727,
      "share": 6728,
      "admirable": 6729,
      "fourthly": 6730,
      "octo": 6731,
      "cometh": 6732,
      "vide": 6733,
      "diſcovered": 6734,
      "medical": 6735,
      "##itch": 6736,
      "confident": 6737,
      "loves": 6738,
      "simply": 6739,
      "operations": 6740,
      "mortal": 6741,
      "appet": 6742,
      "##ille": 6743,
      "##lend": 6744,
      "possess": 6745,
      "sand": 6746,
      "##iate": 6747,
      "vengeance": 6748,
      "##ws": 6749,
      "expreſſe": 6750,
      "##grace": 6751,
      "liv": 6752,
      "aſcend": 6753,
      "weather": 6754,
      "revelation": 6755,
      "##ertion": 6756,
      "##abled": 6757,
      "iames": 6758,
      "tongues": 6759,
      "passage": 6760,
      "published": 6761,
      "sheriff": 6762,
      "whatsoever": 6763,
      "token": 6764,
      "decay": 6765,
      "element": 6766,
      "##aces": 6767,
      "diſpoſition": 6768,
      "divide": 6769,
      "bele": 6770,
      "olde": 6771,
      "ſtrict": 6772,
      "artific": 6773,
      "notable": 6774,
      "amendments": 6775,
      "generous": 6776,
      "fox": 6777,
      "ſun": 6778,
      "ming": 6779,
      "liquor": 6780,
      "taketh": 6781,
      "##hem": 6782,
      "extrem": 6783,
      "goeth": 6784,
      "publiſhed": 6785,
      "purg": 6786,
      "prudence": 6787,
      "juſtification": 6788,
      "external": 6789,
      "joyned": 6790,
      "opening": 6791,
      "natures": 6792,
      "190": 6793,
      "turk": 6794,
      "compensation": 6795,
      "##ena": 6796,
      "ſtep": 6797,
      "##side": 6798,
      "brid": 6799,
      "stones": 6800,
      "veſſels": 6801,
      "wyth": 6802,
      "pier": 6803,
      "##bred": 6804,
      "liuing": 6805,
      "##iling": 6806,
      "##cle": 6807,
      "##iſions": 6808,
      "reſe": 6809,
      "ſucceſs": 6810,
      "occasions": 6811,
      "fought": 6812,
      "ſtands": 6813,
      "euerie": 6814,
      "conſult": 6815,
      "##bation": 6816,
      "magiſtrates": 6817,
      "teſtimon": 6818,
      "perman": 6819,
      "##isse": 6820,
      "##mbling": 6821,
      "il": 6822,
      "confuſion": 6823,
      "##osen": 6824,
      "vall": 6825,
      "desires": 6826,
      "issued": 6827,
      "48": 6828,
      "compaſ": 6829,
      "changes": 6830,
      "##icians": 6831,
      "beth": 6832,
      "committees": 6833,
      "reaſonable": 6834,
      "##acon": 6835,
      "popiſh": 6836,
      "##olve": 6837,
      "explain": 6838,
      "thorough": 6839,
      "obe": 6840,
      "##vereign": 6841,
      "differences": 6842,
      "estates": 6843,
      "previous": 6844,
      "scots": 6845,
      "hors": 6846,
      "standard": 6847,
      "pension": 6848,
      "commandement": 6849,
      "humility": 6850,
      "mand": 6851,
      "space": 6852,
      "distrib": 6853,
      "midſt": 6854,
      "##iſd": 6855,
      "coſt": 6856,
      "##lication": 6857,
      "ſpeaketh": 6858,
      "##ropol": 6859,
      "wings": 6860,
      "loving": 6861,
      "excuſe": 6862,
      "ounce": 6863,
      "eares": 6864,
      "lips": 6865,
      "truths": 6866,
      "hyn": 6867,
      "ti": 6868,
      "promises": 6869,
      "childe": 6870,
      "staff": 6871,
      "seal": 6872,
      "acknowledg": 6873,
      "catholic": 6874,
      "passion": 6875,
      "waies": 6876,
      "primitive": 6877,
      "divinity": 6878,
      "cunning": 6879,
      "wiſdome": 6880,
      "pretty": 6881,
      "tun": 6882,
      "holds": 6883,
      "##orem": 6884,
      "dublin": 6885,
      "alike": 6886,
      "faſh": 6887,
      "prerog": 6888,
      "rejected": 6889,
      "rejoyce": 6890,
      "concluſion": 6891,
      "##ensive": 6892,
      "wax": 6893,
      "unknow": 6894,
      "##burgh": 6895,
      "##unction": 6896,
      "164": 6897,
      "flight": 6898,
      "metropol": 6899,
      "cate": 6900,
      "condemnation": 6901,
      "sorts": 6902,
      "##uate": 6903,
      "ſn": 6904,
      "spaniards": 6905,
      "wilf": 6906,
      "asking": 6907,
      "scarce": 6908,
      "##quam": 6909,
      "##50": 6910,
      "erected": 6911,
      "communication": 6912,
      "pall": 6913,
      "slight": 6914,
      "freſh": 6915,
      "imagin": 6916,
      "justified": 6917,
      "embrace": 6918,
      "welcome": 6919,
      "##icate": 6920,
      "plent": 6921,
      "##itan": 6922,
      "##encie": 6923,
      "arrangements": 6924,
      "upper": 6925,
      "mars": 6926,
      "devotion": 6927,
      "included": 6928,
      "bounds": 6929,
      "represented": 6930,
      "perſwaded": 6931,
      "burth": 6932,
      "behav": 6933,
      "##inge": 6934,
      "baſ": 6935,
      "##cope": 6936,
      "##long": 6937,
      "##iis": 6938,
      "oppoſition": 6939,
      "foorth": 6940,
      "yeeres": 6941,
      "ſeeme": 6942,
      "nic": 6943,
      "teares": 6944,
      "demanded": 6945,
      "##bl": 6946,
      "##erving": 6947,
      "##oure": 6948,
      "theod": 6949,
      "twent": 6950,
      "##inople": 6951,
      "friendſhip": 6952,
      "restr": 6953,
      "acting": 6954,
      "##aind": 6955,
      "meetings": 6956,
      "comprehend": 6957,
      "harm": 6958,
      "vr": 6959,
      "graunt": 6960,
      "burn": 6961,
      "rain": 6962,
      "honours": 6963,
      "compelled": 6964,
      "unjuſt": 6965,
      "##zz": 6966,
      "stands": 6967,
      "october": 6968,
      "satur": 6969,
      "joyn": 6970,
      "wou": 6971,
      "##abl": 6972,
      "personal": 6973,
      "weary": 6974,
      "fors": 6975,
      "judgments": 6976,
      "ſpr": 6977,
      "##ca": 6978,
      "taſte": 6979,
      "miniſtry": 6980,
      "bloody": 6981,
      "ju": 6982,
      "sho": 6983,
      "address": 6984,
      "wonderful": 6985,
      "scand": 6986,
      "##assad": 6987,
      "abſolutely": 6988,
      "prices": 6989,
      "pin": 6990,
      "ſom": 6991,
      "##itated": 6992,
      "intreat": 6993,
      "ſupply": 6994,
      "paying": 6995,
      "modern": 6996,
      "wiſed": 6997,
      "testimony": 6998,
      "##ouſneſs": 6999,
      "##poſes": 7000,
      "##jo": 7001,
      "sudden": 7002,
      "chosen": 7003,
      "antient": 7004,
      "woulde": 7005,
      "retire": 7006,
      "compare": 7007,
      "bookes": 7008,
      "drunk": 7009,
      "summ": 7010,
      "apolog": 7011,
      "accompanied": 7012,
      "##ols": 7013,
      "febru": 7014,
      "##iſcop": 7015,
      "injury": 7016,
      "birds": 7017,
      "shown": 7018,
      "connected": 7019,
      "renew": 7020,
      "ſk": 7021,
      "magiſtrate": 7022,
      "moderate": 7023,
      "beaten": 7024,
      "##adv": 7025,
      "lest": 7026,
      "##tes": 7027,
      "bef": 7028,
      "communicate": 7029,
      "corrupted": 7030,
      "ſuffering": 7031,
      "obst": 7032,
      "entrance": 7033,
      "song": 7034,
      "acquire": 7035,
      "righteousness": 7036,
      "commerce": 7037,
      "##ulate": 7038,
      "pſalm": 7039,
      "witneſſe": 7040,
      "##quences": 7041,
      "broke": 7042,
      "ioh": 7043,
      "oftent": 7044,
      "poſſibly": 7045,
      "diligent": 7046,
      "aliqu": 7047,
      "univerſal": 7048,
      "deeds": 7049,
      "leagues": 7050,
      "senate": 7051,
      "absolute": 7052,
      "suffering": 7053,
      "vow": 7054,
      "grounded": 7055,
      "latine": 7056,
      "objected": 7057,
      "areas": 7058,
      "rivers": 7059,
      "altered": 7060,
      "popular": 7061,
      "##gen": 7062,
      "integr": 7063,
      "converted": 7064,
      "sheep": 7065,
      "els": 7066,
      "forſake": 7067,
      "directions": 7068,
      "aim": 7069,
      "##ldom": 7070,
      "etiam": 7071,
      "diſcipline": 7072,
      "recomp": 7073,
      "##ming": 7074,
      "assured": 7075,
      "heretofore": 7076,
      "cruell": 7077,
      "sar": 7078,
      "spoke": 7079,
      "sought": 7080,
      "aske": 7081,
      "lose": 7082,
      "september": 7083,
      "coast": 7084,
      "castle": 7085,
      "verſ": 7086,
      "##reſh": 7087,
      "##acles": 7088,
      "basis": 7089,
      "commonwealth": 7090,
      "hoſt": 7091,
      "##ding": 7092,
      "##using": 7093,
      "chriſtianity": 7094,
      "##ously": 7095,
      "myster": 7096,
      "marquess": 7097,
      "prevented": 7098,
      "##ſſings": 7099,
      "aſide": 7100,
      "containing": 7101,
      "destruction": 7102,
      "endeavoured": 7103,
      "departure": 7104,
      "paſſions": 7105,
      "exempt": 7106,
      "ergo": 7107,
      "realm": 7108,
      "##ada": 7109,
      "##cts": 7110,
      "##ighth": 7111,
      "animal": 7112,
      "ſpent": 7113,
      "##rence": 7114,
      "elder": 7115,
      "exal": 7116,
      "faults": 7117,
      "oftentimes": 7118,
      "diver": 7119,
      "##umn": 7120,
      "brain": 7121,
      "comment": 7122,
      "ſayth": 7123,
      "neglig": 7124,
      "recent": 7125,
      "flame": 7126,
      "oyl": 7127,
      "liable": 7128,
      "ſoci": 7129,
      "ſafety": 7130,
      "49": 7131,
      "194": 7132,
      "mass": 7133,
      "##ouse": 7134,
      "accuſ": 7135,
      "prayed": 7136,
      "##ician": 7137,
      "symp": 7138,
      "##grat": 7139,
      "meaſ": 7140,
      "envy": 7141,
      "ſaluation": 7142,
      "ald": 7143,
      "litle": 7144,
      "sayd": 7145,
      "##ios": 7146,
      "rebu": 7147,
      "worſh": 7148,
      "ſerue": 7149,
      "##omb": 7150,
      "valiant": 7151,
      "fulfilled": 7152,
      "plenty": 7153,
      "sitting": 7154,
      "vouch": 7155,
      "tract": 7156,
      "execute": 7157,
      "assure": 7158,
      "sunday": 7159,
      "december": 7160,
      "sacrifices": 7161,
      "alled": 7162,
      "royall": 7163,
      "preſented": 7164,
      "grad": 7165,
      "vex": 7166,
      "##lique": 7167,
      "rose": 7168,
      "duplicate": 7169,
      "cuſtome": 7170,
      "replied": 7171,
      "peoples": 7172,
      "##ruck": 7173,
      "strict": 7174,
      "essential": 7175,
      "imagination": 7176,
      "##aires": 7177,
      "jury": 7178,
      "46": 7179,
      "described": 7180,
      "##ana": 7181,
      "africa": 7182,
      "ſetting": 7183,
      "iob": 7184,
      "territor": 7185,
      "modeſt": 7186,
      "opposed": 7187,
      "precepts": 7188,
      "##umes": 7189,
      "satisfactory": 7190,
      "##soeuer": 7191,
      "reu": 7192,
      "derived": 7193,
      "naval": 7194,
      "dreadful": 7195,
      "fatal": 7196,
      "millions": 7197,
      "experiment": 7198,
      "##car": 7199,
      "##nds": 7200,
      "obſervation": 7201,
      "oppoſe": 7202,
      "##iny": 7203,
      "abſt": 7204,
      "ym": 7205,
      "bag": 7206,
      "canons": 7207,
      "numerous": 7208,
      "heauenly": 7209,
      "##itudes": 7210,
      "appar": 7211,
      "##aeus": 7212,
      "##auſe": 7213,
      "sympath": 7214,
      "dio": 7215,
      "luſts": 7216,
      "owe": 7217,
      "uſually": 7218,
      "##reſſe": 7219,
      "fields": 7220,
      "ſund": 7221,
      "complaints": 7222,
      "workers": 7223,
      "##ſom": 7224,
      "introduce": 7225,
      "maies": 7226,
      "impriſon": 7227,
      "lawy": 7228,
      "quia": 7229,
      "pont": 7230,
      "vessels": 7231,
      "returning": 7232,
      "##iti": 7233,
      "tenth": 7234,
      "taxes": 7235,
      "conve": 7236,
      "oppoſ": 7237,
      "sod": 7238,
      "fairly": 7239,
      "norm": 7240,
      "citt": 7241,
      "iacob": 7242,
      "##itas": 7243,
      "sufficiently": 7244,
      "picture": 7245,
      "##uable": 7246,
      "##str": 7247,
      "forgive": 7248,
      "undoubtedly": 7249,
      "ſeverall": 7250,
      "quot": 7251,
      "tabern": 7252,
      "marg": 7253,
      "appropri": 7254,
      "nut": 7255,
      "caeſar": 7256,
      "vaſt": 7257,
      "related": 7258,
      "merchant": 7259,
      "bridge": 7260,
      "proced": 7261,
      "assembly": 7262,
      "spr": 7263,
      "tart": 7264,
      "nur": 7265,
      "crue": 7266,
      "fifteen": 7267,
      "ger": 7268,
      "university": 7269,
      "allowance": 7270,
      "buildings": 7271,
      "infect": 7272,
      "unworthy": 7273,
      "unfortunate": 7274,
      "lanc": 7275,
      "ſat": 7276,
      "##omuch": 7277,
      "xx": 7278,
      "##vin": 7279,
      "armie": 7280,
      "##pton": 7281,
      "deale": 7282,
      "deliverance": 7283,
      "##ao": 7284,
      "##etur": 7285,
      "jeſ": 7286,
      "estimates": 7287,
      "bleſſings": 7288,
      "##aria": 7289,
      "hi": 7290,
      "touched": 7291,
      "ounces": 7292,
      "##yes": 7293,
      "neglected": 7294,
      "disease": 7295,
      "wed": 7296,
      "belongs": 7297,
      "neede": 7298,
      "neverthe": 7299,
      "chee": 7300,
      "quoth": 7301,
      "upright": 7302,
      "driven": 7303,
      "certainty": 7304,
      "serpent": 7305,
      "condu": 7306,
      "moving": 7307,
      "consequently": 7308,
      "street": 7309,
      "january": 7310,
      "200": 7311,
      "paule": 7312,
      "47": 7313,
      "parag": 7314,
      "apoſtol": 7315,
      "pom": 7316,
      "prudent": 7317,
      "preparation": 7318,
      "ult": 7319,
      "repair": 7320,
      "##acious": 7321,
      "##itory": 7322,
      "##cus": 7323,
      "profits": 7324,
      "february": 7325,
      "ſubmit": 7326,
      "inferiour": 7327,
      "testament": 7328,
      "flock": 7329,
      "soules": 7330,
      "repeat": 7331,
      "captaine": 7332,
      "separate": 7333,
      "owner": 7334,
      "isa": 7335,
      "seat": 7336,
      "arbitr": 7337,
      "unknown": 7338,
      "fierce": 7339,
      "myſelf": 7340,
      "##ando": 7341,
      "doſt": 7342,
      "valour": 7343,
      "##atively": 7344,
      "vast": 7345,
      "##itent": 7346,
      "##iform": 7347,
      "join": 7348,
      "##omy": 7349,
      "substant": 7350,
      "temporall": 7351,
      "##ouered": 7352,
      "##rog": 7353,
      "treaſure": 7354,
      "divines": 7355,
      "walking": 7356,
      "minded": 7357,
      "hosp": 7358,
      "begins": 7359,
      "##cible": 7360,
      "exceedingly": 7361,
      "loud": 7362,
      "refuse": 7363,
      "kin": 7364,
      "grants": 7365,
      "##ita": 7366,
      "bone": 7367,
      "obedient": 7368,
      "##iſhment": 7369,
      "thunder": 7370,
      "51": 7371,
      "##isdiction": 7372,
      "##uent": 7373,
      "invent": 7374,
      "stars": 7375,
      "ted": 7376,
      "perſwade": 7377,
      "accidents": 7378,
      "popery": 7379,
      "titles": 7380,
      "epiſcop": 7381,
      "returns": 7382,
      "huſ": 7383,
      "schol": 7384,
      "eth": 7385,
      "corporation": 7386,
      "convey": 7387,
      "statutes": 7388,
      "expense": 7389,
      "inſtruments": 7390,
      "patron": 7391,
      "rational": 7392,
      "##ficiency": 7393,
      "##orus": 7394,
      "start": 7395,
      "confed": 7396,
      "##ested": 7397,
      "os": 7398,
      "##rial": 7399,
      "parall": 7400,
      "sleep": 7401,
      "mines": 7402,
      "tant": 7403,
      "worſt": 7404,
      "corres": 7405,
      "damnation": 7406,
      "challenge": 7407,
      "controverſ": 7408,
      "rulers": 7409,
      "ano": 7410,
      "reflect": 7411,
      "fighting": 7412,
      "forbear": 7413,
      "marks": 7414,
      "recolle": 7415,
      "correspond": 7416,
      "prior": 7417,
      "planted": 7418,
      "##onour": 7419,
      "advis": 7420,
      "##aire": 7421,
      "##quate": 7422,
      "##aret": 7423,
      "ſpeciall": 7424,
      "priſoner": 7425,
      "duſt": 7426,
      "regiment": 7427,
      "remaine": 7428,
      "ſuſp": 7429,
      "dish": 7430,
      "honoured": 7431,
      "libertie": 7432,
      "cult": 7433,
      "training": 7434,
      "explanation": 7435,
      "##said": 7436,
      "proclaim": 7437,
      "##aſing": 7438,
      "remarks": 7439,
      "bondage": 7440,
      "readily": 7441,
      "roots": 7442,
      "##ael": 7443,
      "fountain": 7444,
      "wash": 7445,
      "##ſis": 7446,
      "##emes": 7447,
      "plaint": 7448,
      "representatives": 7449,
      "season": 7450,
      "ſho": 7451,
      "approve": 7452,
      "deceived": 7453,
      "herod": 7454,
      "attempted": 7455,
      "winds": 7456,
      "miſchief": 7457,
      "empty": 7458,
      "commodities": 7459,
      "battle": 7460,
      "simon": 7461,
      "griefe": 7462,
      "rough": 7463,
      "drinking": 7464,
      "ſence": 7465,
      "pensions": 7466,
      "jam": 7467,
      "##etie": 7468,
      "solic": 7469,
      "##leepe": 7470,
      "##cerity": 7471,
      "##uite": 7472,
      "##lip": 7473,
      "cured": 7474,
      "##urer": 7475,
      "encourage": 7476,
      "188": 7477,
      "unne": 7478,
      "wheat": 7479,
      "reverend": 7480,
      "entertained": 7481,
      "tyranny": 7482,
      "unemployment": 7483,
      "tent": 7484,
      "prosec": 7485,
      "failed": 7486,
      "cot": 7487,
      "vices": 7488,
      "bore": 7489,
      "settlement": 7490,
      "abuſe": 7491,
      "summer": 7492,
      "afterno": 7493,
      "##ola": 7494,
      "loath": 7495,
      "nobility": 7496,
      "din": 7497,
      "voyce": 7498,
      "alexand": 7499,
      "custom": 7500,
      "commended": 7501,
      "priviledges": 7502,
      "verily": 7503,
      "joint": 7504,
      "mild": 7505,
      "comforts": 7506,
      "##rup": 7507,
      "##ingham": 7508,
      "anci": 7509,
      "##illings": 7510,
      "bleſs": 7511,
      "giveth": 7512,
      "reuer": 7513,
      "november": 7514,
      "friendly": 7515,
      "##lement": 7516,
      "wanton": 7517,
      "brown": 7518,
      "governments": 7519,
      "inspect": 7520,
      "ability": 7521,
      "ſharp": 7522,
      "parliaments": 7523,
      "flower": 7524,
      "induſt": 7525,
      "cart": 7526,
      "recently": 7527,
      "##engers": 7528,
      "arrangement": 7529,
      "ini": 7530,
      "social": 7531,
      "tom": 7532,
      "outside": 7533,
      "daniel": 7534,
      "licence": 7535,
      "drunken": 7536,
      "urged": 7537,
      "luk": 7538,
      "ell": 7539,
      "aſſure": 7540,
      "horr": 7541,
      "deprived": 7542,
      "##enger": 7543,
      "alien": 7544,
      "##bes": 7545,
      "##iſite": 7546,
      "telling": 7547,
      "##iday": 7548,
      "goodneſſe": 7549,
      "ſmo": 7550,
      "##ov": 7551,
      "involved": 7552,
      "diſtinction": 7553,
      "admiration": 7554,
      "youn": 7555,
      "fraud": 7556,
      "methods": 7557,
      "zealous": 7558,
      "##godly": 7559,
      "useful": 7560,
      "ſore": 7561,
      "athe": 7562,
      "##ett": 7563,
      "followers": 7564,
      "paines": 7565,
      "drive": 7566,
      "##ench": 7567,
      "##bridge": 7568,
      "##cked": 7569,
      "##idelity": 7570,
      "woe": 7571,
      "pover": 7572,
      "relate": 7573,
      "charter": 7574,
      "defer": 7575,
      "##xion": 7576,
      "##oly": 7577,
      "buck": 7578,
      "ſcand": 7579,
      "faſhion": 7580,
      "unhappy": 7581,
      "mountain": 7582,
      "diſpenſ": 7583,
      "lux": 7584,
      "prisoners": 7585,
      "shut": 7586,
      "holie": 7587,
      "whatſoeuer": 7588,
      "wiſedome": 7589,
      "pear": 7590,
      "induce": 7591,
      "fresh": 7592,
      "argue": 7593,
      "palace": 7594,
      "##itary": 7595,
      "necessarily": 7596,
      "medicine": 7597,
      "votes": 7598,
      "fold": 7599,
      "forgiv": 7600,
      "dwelling": 7601,
      "sermons": 7602,
      "##ients": 7603,
      "ſhine": 7604,
      "warres": 7605,
      "infinitely": 7606,
      "inſtitution": 7607,
      "##inian": 7608,
      "recommended": 7609,
      "churche": 7610,
      "meek": 7611,
      "surpr": 7612,
      "ſuſt": 7613,
      "##inous": 7614,
      "ſeruice": 7615,
      "ſtead": 7616,
      "soveraign": 7617,
      "jealous": 7618,
      "defended": 7619,
      "##za": 7620,
      "pecc": 7621,
      "deepe": 7622,
      "viſit": 7623,
      "base": 7624,
      "##ancing": 7625,
      "principally": 7626,
      "doeth": 7627,
      "##non": 7628,
      "circle": 7629,
      "protestant": 7630,
      "efficient": 7631,
      "insurance": 7632,
      "archbiſh": 7633,
      "##enses": 7634,
      "seene": 7635,
      "leading": 7636,
      "fetch": 7637,
      "##ſſors": 7638,
      "houre": 7639,
      "briefly": 7640,
      "##wr": 7641,
      "demo": 7642,
      "ſoone": 7643,
      "##wick": 7644,
      "corinth": 7645,
      "effectual": 7646,
      "type": 7647,
      "mothers": 7648,
      "excess": 7649,
      "conviction": 7650,
      "##aſion": 7651,
      "select": 7652,
      "independent": 7653,
      "oblige": 7654,
      "##onia": 7655,
      "minutes": 7656,
      "decrees": 7657,
      "seeke": 7658,
      "liſt": 7659,
      "vsed": 7660,
      "##appo": 7661,
      "iii": 7662,
      "ſtones": 7663,
      "abſurd": 7664,
      "##enſive": 7665,
      "privy": 7666,
      "##isme": 7667,
      "yeere": 7668,
      "ile": 7669,
      "publique": 7670,
      "unſ": 7671,
      "band": 7672,
      "deſcription": 7673,
      "remind": 7674,
      "permanent": 7675,
      "cel": 7676,
      "dim": 7677,
      "sle": 7678,
      "euerl": 7679,
      "flood": 7680,
      "yellow": 7681,
      "paragraph": 7682,
      "##ulus": 7683,
      "quakers": 7684,
      "study": 7685,
      "american": 7686,
      "##rian": 7687,
      "acquaintance": 7688,
      "faces": 7689,
      "crucified": 7690,
      "trinity": 7691,
      "concerns": 7692,
      "forgotten": 7693,
      "storm": 7694,
      "inve": 7695,
      "##ico": 7696,
      "machin": 7697,
      "bru": 7698,
      "intentions": 7699,
      "begotten": 7700,
      "antio": 7701,
      "expedient": 7702,
      "vertuous": 7703,
      "contrarie": 7704,
      "##ili": 7705,
      "medicines": 7706,
      "inclination": 7707,
      "torments": 7708,
      "##iph": 7709,
      "annual": 7710,
      "##ceſſe": 7711,
      "treatment": 7712,
      "definite": 7713,
      "steph": 7714,
      "eaten": 7715,
      "clouds": 7716,
      "caes": 7717,
      "descend": 7718,
      "inſtruct": 7719,
      "##rae": 7720,
      "##iscop": 7721,
      "juſtified": 7722,
      "eſteemed": 7723,
      "plea": 7724,
      "manie": 7725,
      "##lain": 7726,
      "##urers": 7727,
      "pleaſing": 7728,
      "extream": 7729,
      "horrible": 7730,
      "##orders": 7731,
      "jun": 7732,
      "purity": 7733,
      "leader": 7734,
      "elements": 7735,
      "humours": 7736,
      "##ception": 7737,
      "create": 7738,
      "moneth": 7739,
      "enquir": 7740,
      "propheſ": 7741,
      "utmoſt": 7742,
      "##ictions": 7743,
      "ard": 7744,
      "sale": 7745,
      "distinction": 7746,
      "illuſt": 7747,
      "lively": 7748,
      "refuſed": 7749,
      "intelligence": 7750,
      "flat": 7751,
      "##icles": 7752,
      "continual": 7753,
      "sole": 7754,
      "brothers": 7755,
      "##fulneſs": 7756,
      "aegypt": 7757,
      "fide": 7758,
      "bowels": 7759,
      "subse": 7760,
      "feast": 7761,
      "welf": 7762,
      "ſuperſt": 7763,
      "management": 7764,
      "##acie": 7765,
      "prophe": 7766,
      "ſoever": 7767,
      "vid": 7768,
      "malign": 7769,
      "sovereign": 7770,
      "creator": 7771,
      "##fold": 7772,
      "ſignifies": 7773,
      "oce": 7774,
      "ney": 7775,
      "ſacrific": 7776,
      "##omen": 7777,
      "tumult": 7778,
      "hap": 7779,
      "nos": 7780,
      "fals": 7781,
      "ſinner": 7782,
      "claims": 7783,
      "originall": 7784,
      "kingdomes": 7785,
      "russia": 7786,
      "diſturb": 7787,
      "##ſhire": 7788,
      "##atiue": 7789,
      "wra": 7790,
      "##rum": 7791,
      "encouragement": 7792,
      "cited": 7793,
      "barbarous": 7794,
      "ſunt": 7795,
      "instruction": 7796,
      "controvers": 7797,
      "log": 7798,
      "expound": 7799,
      "compass": 7800,
      "bodily": 7801,
      "proceeds": 7802,
      "puniſhed": 7803,
      "foote": 7804,
      "harmon": 7805,
      "oyle": 7806,
      "purge": 7807,
      "omni": 7808,
      "ſigne": 7809,
      "iustice": 7810,
      "ſignifie": 7811,
      "ſir": 7812,
      "deceive": 7813,
      "immortal": 7814,
      "priſoners": 7815,
      "councel": 7816,
      "##bi": 7817,
      "ped": 7818,
      "cana": 7819,
      "faint": 7820,
      "propag": 7821,
      "comfortable": 7822,
      "thys": 7823,
      "mode": 7824,
      "perpetual": 7825,
      "ridiculous": 7826,
      "candid": 7827,
      "poverty": 7828,
      "college": 7829,
      "nigh": 7830,
      "grate": 7831,
      "ordinarily": 7832,
      "obvious": 7833,
      "ſubd": 7834,
      "52": 7835,
      "woods": 7836,
      "##reſſed": 7837,
      "emperours": 7838,
      "cares": 7839,
      "sev": 7840,
      "ambro": 7841,
      "##iſdiction": 7842,
      "process": 7843,
      "welfare": 7844,
      "impud": 7845,
      "final": 7846,
      "inferior": 7847,
      "phra": 7848,
      "accom": 7849,
      "affaires": 7850,
      "bible": 7851,
      "withal": 7852,
      "exiſt": 7853,
      "ſhoulde": 7854,
      "strongly": 7855,
      "ariſt": 7856,
      "distance": 7857,
      "riuer": 7858,
      "sufferings": 7859,
      "favourable": 7860,
      "antiquity": 7861,
      "runne": 7862,
      "nearer": 7863,
      "trif": 7864,
      "recorded": 7865,
      "commiſſioners": 7866,
      "masters": 7867,
      "advocate": 7868,
      "ſen": 7869,
      "gan": 7870,
      "##iens": 7871,
      "imposed": 7872,
      "imply": 7873,
      "diſcharge": 7874,
      "frank": 7875,
      "capit": 7876,
      "ſhews": 7877,
      "remaind": 7878,
      "mann": 7879,
      "##yth": 7880,
      "effectually": 7881,
      "##des": 7882,
      "senſe": 7883,
      "lyke": 7884,
      "ſlight": 7885,
      "abst": 7886,
      "##bands": 7887,
      "diſpute": 7888,
      "machinery": 7889,
      "magnific": 7890,
      "compaſſion": 7891,
      "##antur": 7892,
      "island": 7893,
      "ordination": 7894,
      "engage": 7895,
      "£3": 7896,
      "lawfully": 7897,
      "unclean": 7898,
      "dull": 7899,
      "aſſault": 7900,
      "animals": 7901,
      "reſtored": 7902,
      "observations": 7903,
      "unjust": 7904,
      "laud": 7905,
      "aſhamed": 7906,
      "##ect": 7907,
      "##cell": 7908,
      "bringeth": 7909,
      "ſlain": 7910,
      "convince": 7911,
      "les": 7912,
      "fain": 7913,
      "performe": 7914,
      "amen": 7915,
      "promote": 7916,
      "ul": 7917,
      "##mouth": 7918,
      "lyes": 7919,
      "##een": 7920,
      "##wch": 7921,
      "enlar": 7922,
      "paſſages": 7923,
      "witnesses": 7924,
      "denomin": 7925,
      "gaine": 7926,
      "prevailed": 7927,
      "ease": 7928,
      "potent": 7929,
      "ports": 7930,
      "beasts": 7931,
      "eyther": 7932,
      "excluded": 7933,
      "voyage": 7934,
      "sorry": 7935,
      "##oman": 7936,
      "ſould": 7937,
      "eccleſiaſtical": 7938,
      "totally": 7939,
      "sell": 7940,
      "poſterity": 7941,
      "##tell": 7942,
      "##adem": 7943,
      "##idity": 7944,
      "visible": 7945,
      "ciu": 7946,
      "ſtat": 7947,
      "setting": 7948,
      "practically": 7949,
      "hidden": 7950,
      "undertaking": 7951,
      "gained": 7952,
      "autem": 7953,
      "ſtar": 7954,
      "transl": 7955,
      "tear": 7956,
      "proſec": 7957,
      "ſtorm": 7958,
      "thirſt": 7959,
      "##eral": 7960,
      "53": 7961,
      "##cles": 7962,
      "vſ": 7963,
      "mony": 7964,
      "##uſing": 7965,
      "unbel": 7966,
      "##inking": 7967,
      "valuable": 7968,
      "poſſeſſed": 7969,
      "idols": 7970,
      "##yll": 7971,
      "poy": 7972,
      "diligently": 7973,
      "overt": 7974,
      "reached": 7975,
      "ſubjects": 7976,
      "obtaining": 7977,
      "patriarch": 7978,
      "antioch": 7979,
      "disposed": 7980,
      "runs": 7981,
      "joſeph": 7982,
      "deus": 7983,
      "coaſt": 7984,
      "carriage": 7985,
      "##do": 7986,
      "treach": 7987,
      "nov": 7988,
      "cic": 7989,
      "##lde": 7990,
      "##col": 7991,
      "companions": 7992,
      "perſecution": 7993,
      "delights": 7994,
      "hiſtor": 7995,
      "iv": 7996,
      "indignation": 7997,
      "##ſer": 7998,
      "##ui": 7999,
      "load": 8000,
      "description": 8001,
      "##cia": 8002,
      "##inence": 8003,
      "riſing": 8004,
      "##enesse": 8005,
      "agayn": 8006,
      "mixed": 8007,
      "average": 8008,
      "properties": 8009,
      "affirmed": 8010,
      "nice": 8011,
      "##ceſſors": 8012,
      "enioy": 8013,
      "indulg": 8014,
      "diſm": 8015,
      "blessing": 8016,
      "prophane": 8017,
      "tele": 8018,
      "faction": 8019,
      "saved": 8020,
      "preachers": 8021,
      "murm": 8022,
      "limits": 8023,
      "countrie": 8024,
      "determination": 8025,
      "mol": 8026,
      "petitions": 8027,
      "ſubt": 8028,
      "publiſh": 8029,
      "horses": 8030,
      "deputy": 8031,
      "ſilence": 8032,
      "grievous": 8033,
      "constituen": 8034,
      "existence": 8035,
      "ſheweth": 8036,
      "##chester": 8037,
      "archbish": 8038,
      "nam": 8039,
      "##reci": 8040,
      "oppose": 8041,
      "reuen": 8042,
      "smo": 8043,
      "damned": 8044,
      "##hi": 8045,
      "ax": 8046,
      "illust": 8047,
      "feele": 8048,
      "preferred": 8049,
      "dispute": 8050,
      "explained": 8051,
      "189": 8052,
      "criminal": 8053,
      "lastly": 8054,
      "definition": 8055,
      "cree": 8056,
      "overthrow": 8057,
      "barg": 8058,
      "haec": 8059,
      "ezek": 8060,
      "ambaſſad": 8061,
      "expedition": 8062,
      "neceſſarily": 8063,
      "##vs": 8064,
      "motives": 8065,
      "ſincere": 8066,
      "ſtro": 8067,
      "gri": 8068,
      "store": 8069,
      "afternoon": 8070,
      "plants": 8071,
      "debts": 8072,
      "contradiction": 8073,
      "ſaving": 8074,
      "bern": 8075,
      "ast": 8076,
      "framed": 8077,
      "partes": 8078,
      "##wich": 8079,
      "ſwell": 8080,
      "##ulated": 8081,
      "counted": 8082,
      "appearing": 8083,
      "55": 8084,
      "eleven": 8085,
      "auguſtine": 8086,
      "butter": 8087,
      "diſtinguiſh": 8088,
      "affirme": 8089,
      "ſor": 8090,
      "ſatisfie": 8091,
      "##lwydd": 8092,
      "enemie": 8093,
      "converſion": 8094,
      "complained": 8095,
      "##gal": 8096,
      "coron": 8097,
      "crying": 8098,
      "farmers": 8099,
      "proclamation": 8100,
      "rebels": 8101,
      "saving": 8102,
      "prey": 8103,
      "inſtances": 8104,
      "martyrs": 8105,
      "discipline": 8106,
      "supreme": 8107,
      "ſhow": 8108,
      "estimate": 8109,
      "appare": 8110,
      "rents": 8111,
      "singular": 8112,
      "omitted": 8113,
      "conceit": 8114,
      "rude": 8115,
      "ash": 8116,
      "womb": 8117,
      "sinner": 8118,
      "canter": 8119,
      "handes": 8120,
      "##ura": 8121,
      "70": 8122,
      "pla": 8123,
      "diam": 8124,
      "sooner": 8125,
      "earneſtly": 8126,
      "##ban": 8127,
      "ſufferings": 8128,
      "institution": 8129,
      "uſual": 8130,
      "disturb": 8131,
      "##ora": 8132,
      "hunger": 8133,
      "adding": 8134,
      "precedent": 8135,
      "qualified": 8136,
      "confined": 8137,
      "##don": 8138,
      "ſtudy": 8139,
      "hero": 8140,
      "ſerious": 8141,
      "ſupre": 8142,
      "cleane": 8143,
      "##otle": 8144,
      "##antage": 8145,
      "accomplish": 8146,
      "phr": 8147,
      "italian": 8148,
      "corner": 8149,
      "pale": 8150,
      "beautiful": 8151,
      "project": 8152,
      "unanim": 8153,
      "station": 8154,
      "liues": 8155,
      "##racted": 8156,
      "industrial": 8157,
      "cattle": 8158,
      "gospell": 8159,
      "##ni": 8160,
      "scale": 8161,
      "##uming": 8162,
      "priuate": 8163,
      "lent": 8164,
      "166": 8165,
      "canaan": 8166,
      "establishment": 8167,
      "##cher": 8168,
      "effected": 8169,
      "##fr": 8170,
      "decide": 8171,
      "unwilling": 8172,
      "remedies": 8173,
      "##rich": 8174,
      "miss": 8175,
      "tyrant": 8176,
      "match": 8177,
      "retired": 8178,
      "eſq": 8179,
      "clar": 8180,
      "gue": 8181,
      "papists": 8182,
      "expression": 8183,
      "mortall": 8184,
      "ſons": 8185,
      "rendered": 8186,
      "certific": 8187,
      "hereticks": 8188,
      "continuall": 8189,
      "miracle": 8190,
      "development": 8191,
      "competent": 8192,
      "knowled": 8193,
      "cool": 8194,
      "colony": 8195,
      "reioy": 8196,
      "##itations": 8197,
      "weapons": 8198,
      "spaine": 8199,
      "defendant": 8200,
      "northern": 8201,
      "##lers": 8202,
      "counsell": 8203,
      "eare": 8204,
      "ſell": 8205,
      "toler": 8206,
      "societies": 8207,
      "omit": 8208,
      "##la": 8209,
      "bellarm": 8210,
      "strangers": 8211,
      "ſec": 8212,
      "carth": 8213,
      "inclined": 8214,
      "##curing": 8215,
      "anſwere": 8216,
      "governed": 8217,
      "##pon": 8218,
      "carefull": 8219,
      "##illy": 8220,
      "##oring": 8221,
      "enjoyed": 8222,
      "commanding": 8223,
      "flore": 8224,
      "spread": 8225,
      "mistake": 8226,
      "dum": 8227,
      "sanction": 8228,
      "54": 8229,
      "practices": 8230,
      "##ima": 8231,
      "adjour": 8232,
      "accompliſh": 8233,
      "##utable": 8234,
      "yard": 8235,
      "instructions": 8236,
      "neyther": 8237,
      "oaths": 8238,
      "##bo": 8239,
      "##iced": 8240,
      "crow": 8241,
      "infam": 8242,
      "lyfe": 8243,
      "temporary": 8244,
      "discussed": 8245,
      "fright": 8246,
      "perſu": 8247,
      "clerk": 8248,
      "fearing": 8249,
      "judgements": 8250,
      "approbation": 8251,
      "whereunto": 8252,
      "gregory": 8253,
      "discretion": 8254,
      "resolved": 8255,
      "##lye": 8256,
      "doc": 8257,
      "wonders": 8258,
      "aar": 8259,
      "uniform": 8260,
      "##ayned": 8261,
      "ita": 8262,
      "expreſſion": 8263,
      "warning": 8264,
      "bride": 8265,
      "##umber": 8266,
      "bent": 8267,
      "vap": 8268,
      "flying": 8269,
      "dart": 8270,
      "needed": 8271,
      "superior": 8272,
      "renewed": 8273,
      "chuſe": 8274,
      "diſob": 8275,
      "eff": 8276,
      "fash": 8277,
      "courte": 8278,
      "##iſters": 8279,
      "infirmities": 8280,
      "lion": 8281,
      "##quest": 8282,
      "counsel": 8283,
      "deſcribed": 8284,
      "ſpoke": 8285,
      "equity": 8286,
      "##amus": 8287,
      "ſucc": 8288,
      "pence": 8289,
      "enormous": 8290,
      "loſſe": 8291,
      "arist": 8292,
      "happens": 8293,
      "instances": 8294,
      "quoted": 8295,
      "sunt": 8296,
      "yong": 8297,
      "##rage": 8298,
      "engine": 8299,
      "##ania": 8300,
      "procured": 8301,
      "300": 8302,
      "tables": 8303,
      "##landers": 8304,
      "crosse": 8305,
      "rot": 8306,
      "##cers": 8307,
      "exalted": 8308,
      "treatiſe": 8309,
      "supported": 8310,
      "conſecr": 8311,
      "ſecurity": 8312,
      "lewis": 8313,
      "episcop": 8314,
      "kir": 8315,
      "boaſt": 8316,
      "##eld": 8317,
      "sixth": 8318,
      "propoſition": 8319,
      "accompt": 8320,
      "ton": 8321,
      "spake": 8322,
      "particip": 8323,
      "##mus": 8324,
      "beware": 8325,
      "wing": 8326,
      "apud": 8327,
      "ſimil": 8328,
      "arrow": 8329,
      "representation": 8330,
      "china": 8331,
      "zeale": 8332,
      "discharge": 8333,
      "battel": 8334,
      "reſpects": 8335,
      "records": 8336,
      "banks": 8337,
      "##seph": 8338,
      "proofe": 8339,
      "paſſing": 8340,
      "##irite": 8341,
      "depends": 8342,
      "mercifull": 8343,
      "cenſure": 8344,
      "mutual": 8345,
      "behaviour": 8346,
      "characters": 8347,
      "moreouer": 8348,
      "reconciled": 8349,
      "##yne": 8350,
      "faculties": 8351,
      "proves": 8352,
      "imputed": 8353,
      "##mell": 8354,
      "compuls": 8355,
      "##kins": 8356,
      "seruice": 8357,
      "##iat": 8358,
      "privileges": 8359,
      "enterpri": 8360,
      "evidently": 8361,
      "##riages": 8362,
      "conducted": 8363,
      "meate": 8364,
      "compleat": 8365,
      "monarchy": 8366,
      "collected": 8367,
      "vvas": 8368,
      "forre": 8369,
      "grav": 8370,
      "nich": 8371,
      "heartily": 8372,
      "magistrate": 8373,
      "catholike": 8374,
      "pam": 8375,
      "sour": 8376,
      "brand": 8377,
      "uſur": 8378,
      "expreſſions": 8379,
      "imagined": 8380,
      "ſhalbe": 8381,
      "ſundry": 8382,
      "canſt": 8383,
      "##alls": 8384,
      "arglwydd": 8385,
      "relieve": 8386,
      "##crates": 8387,
      "conuer": 8388,
      "including": 8389,
      "wrth": 8390,
      "aire": 8391,
      "ocean": 8392,
      "apoll": 8393,
      "hes": 8394,
      "##dy": 8395,
      "central": 8396,
      "jul": 8397,
      "apper": 8398,
      "demonſt": 8399,
      "sex": 8400,
      "humanity": 8401,
      "preten": 8402,
      "egg": 8403,
      "accommodation": 8404,
      "barren": 8405,
      "inſtruction": 8406,
      "region": 8407,
      "187": 8408,
      "##erent": 8409,
      "huſband": 8410,
      "tribute": 8411,
      "refreſh": 8412,
      "eſſence": 8413,
      "##selves": 8414,
      "ſole": 8415,
      "praed": 8416,
      "communicated": 8417,
      "doubts": 8418,
      "ies": 8419,
      "ſeemeth": 8420,
      "##ianus": 8421,
      "joynt": 8422,
      "doubted": 8423,
      "compariſon": 8424,
      "##uled": 8425,
      "greece": 8426,
      "drawne": 8427,
      "cypri": 8428,
      "denying": 8429,
      "conqueſt": 8430,
      "miſtake": 8431,
      "occurred": 8432,
      "demands": 8433,
      "excuse": 8434,
      "absurd": 8435,
      "interested": 8436,
      "instrument": 8437,
      "nu": 8438,
      "diſſe": 8439,
      "mons": 8440,
      "miserable": 8441,
      "##greſs": 8442,
      "167": 8443,
      "##iol": 8444,
      "##rh": 8445,
      "##ince": 8446,
      "submitted": 8447,
      "##ancies": 8448,
      "##alogue": 8449,
      "propoſed": 8450,
      "revol": 8451,
      "attempts": 8452,
      "foolish": 8453,
      "appetite": 8454,
      "ieſ": 8455,
      "formal": 8456,
      "dream": 8457,
      "##ta": 8458,
      "writer": 8459,
      "notorious": 8460,
      "ſayes": 8461,
      "heathens": 8462,
      "pel": 8463,
      "worst": 8464,
      "faithfully": 8465,
      "wickedneſs": 8466,
      "tranſport": 8467,
      "temples": 8468,
      "latitude": 8469,
      "baptism": 8470,
      "noiſe": 8471,
      "caution": 8472,
      "advert": 8473,
      "tabernacle": 8474,
      "##allow": 8475,
      "dogs": 8476,
      "eighth": 8477,
      "165": 8478,
      "##ailed": 8479,
      "assent": 8480,
      "tran": 8481,
      "net": 8482,
      "refuge": 8483,
      "melancholy": 8484,
      "bot": 8485,
      "impat": 8486,
      "row": 8487,
      "168": 8488,
      "##itum": 8489,
      "##ugn": 8490,
      "gene": 8491,
      "meditation": 8492,
      "ſhewing": 8493,
      "##pire": 8494,
      "speaks": 8495,
      "comply": 8496,
      "quart": 8497,
      "burg": 8498,
      "heres": 8499,
      "##uſh": 8500,
      "poyſon": 8501,
      "catch": 8502,
      "practise": 8503,
      "##pay": 8504,
      "ken": 8505,
      "seeme": 8506,
      "chair": 8507,
      "growth": 8508,
      "happily": 8509,
      "confesse": 8510,
      "flames": 8511,
      "trades": 8512,
      "colonial": 8513,
      "##gie": 8514,
      "perſe": 8515,
      "shortly": 8516,
      "hic": 8517,
      "##ikes": 8518,
      "dies": 8519,
      "devill": 8520,
      "prophecy": 8521,
      "liken": 8522,
      "garment": 8523,
      "fortunes": 8524,
      "##upiter": 8525,
      "greeke": 8526,
      "trueth": 8527,
      "bic": 8528,
      "augment": 8529,
      "mund": 8530,
      "##cep": 8531,
      "scottish": 8532,
      "admire": 8533,
      "appl": 8534,
      "dor": 8535,
      "lap": 8536,
      "##umpt": 8537,
      "commandment": 8538,
      "rely": 8539,
      "register": 8540,
      "originally": 8541,
      "usual": 8542,
      "enlight": 8543,
      "##agger": 8544,
      "inch": 8545,
      "pleasant": 8546,
      "thorow": 8547,
      "##dict": 8548,
      "glaſs": 8549,
      "ion": 8550,
      "uſeful": 8551,
      "restrict": 8552,
      "wyll": 8553,
      "imprison": 8554,
      "diet": 8555,
      "##iations": 8556,
      "pharao": 8557,
      "train": 8558,
      "vvho": 8559,
      "lights": 8560,
      "histor": 8561,
      "nim": 8562,
      "reprob": 8563,
      "preacher": 8564,
      "beſtow": 8565,
      "##iences": 8566,
      "dram": 8567,
      "mit": 8568,
      "mindes": 8569,
      "declaring": 8570,
      "poets": 8571,
      "current": 8572,
      "##bed": 8573,
      "yearly": 8574,
      "gor": 8575,
      "jurisdiction": 8576,
      "indies": 8577,
      "##etor": 8578,
      "funds": 8579,
      "vnderstand": 8580,
      "shape": 8581,
      "odious": 8582,
      "##iot": 8583,
      "remainder": 8584,
      "spend": 8585,
      "quit": 8586,
      "ambit": 8587,
      "##teſt": 8588,
      "dism": 8589,
      "discer": 8590,
      "homin": 8591,
      "maker": 8592,
      "check": 8593,
      "##ceſt": 8594,
      "##inks": 8595,
      "requir": 8596,
      "protestants": 8597,
      "breed": 8598,
      "strike": 8599,
      "56": 8600,
      "##ſies": 8601,
      "liued": 8602,
      "agus": 8603,
      "giuing": 8604,
      "traditions": 8605,
      "deſpiſe": 8606,
      "knowledg": 8607,
      "finds": 8608,
      "##iffe": 8609,
      "ſuche": 8610,
      "younger": 8611,
      "disciples": 8612,
      "integrity": 8613,
      "lake": 8614,
      "priviledge": 8615,
      "clauses": 8616,
      "deeply": 8617,
      "##rist": 8618,
      "ot": 8619,
      "partakers": 8620,
      "ſuddenly": 8621,
      "reſtore": 8622,
      "tay": 8623,
      "repreſented": 8624,
      "mend": 8625,
      "##iana": 8626,
      "flie": 8627,
      "contention": 8628,
      "cogn": 8629,
      "bol": 8630,
      "raſh": 8631,
      "served": 8632,
      "##lier": 8633,
      "archbiſhop": 8634,
      "female": 8635,
      "inſtant": 8636,
      "##play": 8637,
      "deadly": 8638,
      "##phere": 8639,
      "ſpare": 8640,
      "rum": 8641,
      "thouſands": 8642,
      "absence": 8643,
      "nihil": 8644,
      "mourning": 8645,
      "destroyed": 8646,
      "insist": 8647,
      "rites": 8648,
      "cub": 8649,
      "##eſter": 8650,
      "##ordinate": 8651,
      "hwy": 8652,
      "ſigh": 8653,
      "attendance": 8654,
      "worlds": 8655,
      "famine": 8656,
      "sonnes": 8657,
      "urge": 8658,
      "receipt": 8659,
      "vital": 8660,
      "carnall": 8661,
      "townes": 8662,
      "illum": 8663,
      "aſton": 8664,
      "harbour": 8665,
      "ſtore": 8666,
      "fitted": 8667,
      "increasing": 8668,
      "meete": 8669,
      "filthy": 8670,
      "anth": 8671,
      "details": 8672,
      "acres": 8673,
      "tray": 8674,
      "apprehended": 8675,
      "conſtr": 8676,
      "virtues": 8677,
      "##untur": 8678,
      "muche": 8679,
      "itſelf": 8680,
      "ſev": 8681,
      "loose": 8682,
      "##asion": 8683,
      "mediator": 8684,
      "myſtery": 8685,
      "ample": 8686,
      "enacted": 8687,
      "representative": 8688,
      "bears": 8689,
      "##lings": 8690,
      "noſt": 8691,
      "decreed": 8692,
      "minute": 8693,
      "continuing": 8694,
      "celebrated": 8695,
      "##stone": 8696,
      "observation": 8697,
      "diſpoſed": 8698,
      "miſeries": 8699,
      "village": 8700,
      "faculty": 8701,
      "confession": 8702,
      "wonderfull": 8703,
      "cav": 8704,
      "hated": 8705,
      "##bus": 8706,
      "tribunal": 8707,
      "hills": 8708,
      "soone": 8709,
      "obligations": 8710,
      "pern": 8711,
      "deſerve": 8712,
      "commandments": 8713,
      "##pired": 8714,
      "extrav": 8715,
      "disposition": 8716,
      "interfer": 8717,
      "canterbury": 8718,
      "##ucing": 8719,
      "hearken": 8720,
      "repub": 8721,
      "reli": 8722,
      "trum": 8723,
      "justification": 8724,
      "wherof": 8725,
      "##ram": 8726,
      "trembling": 8727,
      "ambassad": 8728,
      "voc": 8729,
      "subsid": 8730,
      "pompe": 8731,
      "##idem": 8732,
      "thruſt": 8733,
      "wills": 8734,
      "greeks": 8735,
      "ouerthrow": 8736,
      "armour": 8737,
      "deſigns": 8738,
      "##pped": 8739,
      "sayth": 8740,
      "##ete": 8741,
      "prerogative": 8742,
      "forthwith": 8743,
      "emer": 8744,
      "easie": 8745,
      "thousands": 8746,
      "##ipt": 8747,
      "vom": 8748,
      "schemes": 8749,
      "iſraelites": 8750,
      "stead": 8751,
      "procedure": 8752,
      "honorable": 8753,
      "meerly": 8754,
      "redeemer": 8755,
      "task": 8756,
      "curſed": 8757,
      "whoſoever": 8758,
      "conject": 8759,
      "retreat": 8760,
      "waiting": 8761,
      "##erly": 8762,
      "game": 8763,
      "wits": 8764,
      "winde": 8765,
      "rav": 8766,
      "departments": 8767,
      "ſqu": 8768,
      "cutting": 8769,
      "trying": 8770,
      "ddy": 8771,
      "tempted": 8772,
      "brut": 8773,
      "writeth": 8774,
      "caſ": 8775,
      "gouernment": 8776,
      "knees": 8777,
      "militia": 8778,
      "cotton": 8779,
      "orth": 8780,
      "veſſel": 8781,
      "commercial": 8782,
      "husbands": 8783,
      "battell": 8784,
      "##mas": 8785,
      "##icable": 8786,
      "vnderſtanding": 8787,
      "nap": 8788,
      "burthen": 8789,
      "clay": 8790,
      "flee": 8791,
      "unex": 8792,
      "mile": 8793,
      "adminiſtration": 8794,
      "universal": 8795,
      "##inc": 8796,
      "athen": 8797,
      "cried": 8798,
      "queſtions": 8799,
      "pick": 8800,
      "continent": 8801,
      "corruptions": 8802,
      "enabled": 8803,
      "attained": 8804,
      "superst": 8805,
      "occupied": 8806,
      "caus": 8807,
      "ſeeking": 8808,
      "blas": 8809,
      "epistle": 8810,
      "collection": 8811,
      "##zar": 8812,
      "aside": 8813,
      "##cri": 8814,
      "gross": 8815,
      "adoption": 8816,
      "##aſſes": 8817,
      "garments": 8818,
      "bonds": 8819,
      "guar": 8820,
      "##ounter": 8821,
      "catech": 8822,
      "preſerved": 8823,
      "yo": 8824,
      "aſſign": 8825,
      "pronounced": 8826,
      "pledge": 8827,
      "leſſer": 8828,
      "diuell": 8829,
      "receiv": 8830,
      "seventh": 8831,
      "dwe": 8832,
      "ez": 8833,
      "plat": 8834,
      "concess": 8835,
      "damage": 8836,
      "internal": 8837,
      "inconſ": 8838,
      "soft": 8839,
      "pitch": 8840,
      "voted": 8841,
      "goodly": 8842,
      "ram": 8843,
      "happiness": 8844,
      "bird": 8845,
      "widow": 8846,
      "##onius": 8847,
      "lect": 8848,
      "##ums": 8849,
      "preface": 8850,
      "imitate": 8851,
      "prelates": 8852,
      "tedious": 8853,
      "ſeparate": 8854,
      "##ids": 8855,
      "oppoſite": 8856,
      "finger": 8857,
      "sence": 8858,
      "ſinful": 8859,
      "perple": 8860,
      "injust": 8861,
      "anch": 8862,
      "diſtrib": 8863,
      "industries": 8864,
      "distress": 8865,
      "worketh": 8866,
      "deem": 8867,
      "nd": 8868,
      "poster": 8869,
      "conflict": 8870,
      "jewes": 8871,
      "maintaine": 8872,
      "oil": 8873,
      "##actions": 8874,
      "dive": 8875,
      "settled": 8876,
      "##ſy": 8877,
      "##night": 8878,
      "venet": 8879,
      "##ancie": 8880,
      "tort": 8881,
      "##aued": 8882,
      "nobles": 8883,
      "expreſly": 8884,
      "antic": 8885,
      "gib": 8886,
      "omnes": 8887,
      "recompence": 8888,
      "quarrel": 8889,
      "enu": 8890,
      "##cerely": 8891,
      "ejus": 8892,
      "foul": 8893,
      "ideas": 8894,
      "beneath": 8895,
      "##rig": 8896,
      "serue": 8897,
      "hole": 8898,
      "errours": 8899,
      "dir": 8900,
      "exhortation": 8901,
      "unlawful": 8902,
      "existed": 8903,
      "diſſent": 8904,
      "turns": 8905,
      "painted": 8906,
      "anſwers": 8907,
      "##alties": 8908,
      "##verted": 8909,
      "veſt": 8910,
      "##iners": 8911,
      "tribes": 8912,
      "aſſembled": 8913,
      "alarm": 8914,
      "aet": 8915,
      "improved": 8916,
      "archbishop": 8917,
      "raigne": 8918,
      "proſperity": 8919,
      "preserve": 8920,
      "beſtowed": 8921,
      "redeemed": 8922,
      "expenses": 8923,
      "libr": 8924,
      "doors": 8925,
      "recovery": 8926,
      "vvhat": 8927,
      "marked": 8928,
      "plato": 8929,
      "holineſſe": 8930,
      "justly": 8931,
      "commandements": 8932,
      "ſhare": 8933,
      "ſober": 8934,
      "economic": 8935,
      "honey": 8936,
      "##ara": 8937,
      "eb": 8938,
      "multiply": 8939,
      "partial": 8940,
      "##qual": 8941,
      "auncient": 8942,
      "interv": 8943,
      "##attered": 8944,
      "moiſt": 8945,
      "ſonnes": 8946,
      "applyed": 8947,
      "purely": 8948,
      "mourn": 8949,
      "straight": 8950,
      "extravag": 8951,
      "abundantly": 8952,
      "threatned": 8953,
      "resurrection": 8954,
      "##avit": 8955,
      "##ston": 8956,
      "miſs": 8957,
      "attributed": 8958,
      "##pers": 8959,
      "possessed": 8960,
      "##izes": 8961,
      "poſitive": 8962,
      "recovered": 8963,
      "agent": 8964,
      "feelings": 8965,
      "iudges": 8966,
      "genius": 8967,
      "##zed": 8968,
      "remote": 8969,
      "square": 8970,
      "exem": 8971,
      "felicity": 8972,
      "writes": 8973,
      "notions": 8974,
      "wes": 8975,
      "##raft": 8976,
      "durſt": 8977,
      "##cion": 8978,
      "boldly": 8979,
      "rendred": 8980,
      "ecclesiastical": 8981,
      "pronounce": 8982,
      "terror": 8983,
      "interm": 8984,
      "preſervation": 8985,
      "hwn": 8986,
      "lover": 8987,
      "aduerſ": 8988,
      "afforded": 8989,
      "ſpend": 8990,
      "profeſs": 8991,
      "erect": 8992,
      "faile": 8993,
      "giueth": 8994,
      "extingu": 8995,
      "ſociety": 8996,
      "##ques": 8997,
      "arth": 8998,
      "thei": 8999,
      "maye": 9000,
      "80": 9001,
      "box": 9002,
      "##odox": 9003,
      "weakneſs": 9004,
      "purchaſe": 9005,
      "aaron": 9006,
      "williams": 9007,
      "vtterly": 9008,
      "ſeparated": 9009,
      "##auing": 9010,
      "cad": 9011,
      "57": 9012,
      "penalty": 9013,
      "##chn": 9014,
      "witt": 9015,
      "fourteen": 9016,
      "##uerall": 9017,
      "exercised": 9018,
      "prize": 9019,
      "ſalt": 9020,
      "attending": 9021,
      "misery": 9022,
      "geue": 9023,
      "nobis": 9024,
      "##master": 9025,
      "advers": 9026,
      "rout": 9027,
      "glorified": 9028,
      "vehement": 9029,
      "tribe": 9030,
      "ſhed": 9031,
      "beſide": 9032,
      "sust": 9033,
      "pomp": 9034,
      "boys": 9035,
      "metaph": 9036,
      "##ower": 9037,
      "corps": 9038,
      "mock": 9039,
      "kindneſs": 9040,
      "fift": 9041,
      "##crets": 9042,
      "##onable": 9043,
      "aforesaid": 9044,
      "escape": 9045,
      "twas": 9046,
      "precise": 9047,
      "##ignt": 9048,
      "euch": 9049,
      "ſcripture": 9050,
      "alledged": 9051,
      "clem": 9052,
      "enterpr": 9053,
      "venus": 9054,
      "results": 9055,
      "diſcovery": 9056,
      "ſitting": 9057,
      "rejo": 9058,
      "##sing": 9059,
      "##lets": 9060,
      "mae": 9061,
      "ſhadow": 9062,
      "##chie": 9063,
      "preſume": 9064,
      "digeſt": 9065,
      "juriſdiction": 9066,
      "nevertheleſs": 9067,
      "introduction": 9068,
      "champ": 9069,
      "tryal": 9070,
      "##atical": 9071,
      "contribute": 9072,
      "##ſions": 9073,
      "shot": 9074,
      "yf": 9075,
      "hem": 9076,
      "dayly": 9077,
      "##arpe": 9078,
      "ſtory": 9079,
      "accus": 9080,
      "horrid": 9081,
      "##ele": 9082,
      "killing": 9083,
      "ninth": 9084,
      "experien": 9085,
      "apostol": 9086,
      "verſes": 9087,
      "civill": 9088,
      "privilege": 9089,
      "deede": 9090,
      "imped": 9091,
      "stomach": 9092,
      "peaceable": 9093,
      "stan": 9094,
      "bounty": 9095,
      "##itatem": 9096,
      "deteſt": 9097,
      "tan": 9098,
      "aggra": 9099,
      "lun": 9100,
      "requireth": 9101,
      "importun": 9102,
      "tremble": 9103,
      "tail": 9104,
      "craft": 9105,
      "##erick": 9106,
      "hollow": 9107,
      "fashion": 9108,
      "deſirous": 9109,
      "uncon": 9110,
      "##quiet": 9111,
      "sums": 9112,
      "tithes": 9113,
      "keeper": 9114,
      "##render": 9115,
      "##auen": 9116,
      "contains": 9117,
      "couet": 9118,
      "accompany": 9119,
      "##riſh": 9120,
      "yoke": 9121,
      "offers": 9122,
      "becoming": 9123,
      "leaues": 9124,
      "##ongeſt": 9125,
      "penny": 9126,
      "supplies": 9127,
      "##rated": 9128,
      "58": 9129,
      "##emon": 9130,
      "governours": 9131,
      "anticip": 9132,
      "mond": 9133,
      "hau": 9134,
      "impression": 9135,
      "malicious": 9136,
      "altern": 9137,
      "providing": 9138,
      "improp": 9139,
      "shepher": 9140,
      "##ggeſt": 9141,
      "ourselves": 9142,
      "ſettle": 9143,
      "patr": 9144,
      "confusion": 9145,
      "adequate": 9146,
      "scrib": 9147,
      "sched": 9148,
      "ane": 9149,
      "admiral": 9150,
      "perceived": 9151,
      "iur": 9152,
      "calvin": 9153,
      "motive": 9154,
      "mixture": 9155,
      "ſees": 9156,
      "knowes": 9157,
      "eleg": 9158,
      "edin": 9159,
      "cin": 9160,
      "##iage": 9161,
      "forn": 9162,
      "concil": 9163,
      "andrew": 9164,
      "fever": 9165,
      "caesar": 9166,
      "graue": 9167,
      "ſerved": 9168,
      "materials": 9169,
      "inquiries": 9170,
      "entertainment": 9171,
      "##umm": 9172,
      "conſiſts": 9173,
      "ruled": 9174,
      "##pping": 9175,
      "woord": 9176,
      "dispos": 9177,
      "diſcont": 9178,
      "utmost": 9179,
      "##uſes": 9180,
      "conceal": 9181,
      "newly": 9182,
      "leads": 9183,
      "cabinet": 9184,
      "counterfe": 9185,
      "##righte": 9186,
      "omnia": 9187,
      "gratitude": 9188,
      "tut": 9189,
      "easy": 9190,
      "teſtimonies": 9191,
      "revolution": 9192,
      "tempe": 9193,
      "influen": 9194,
      "moneths": 9195,
      "##ba": 9196,
      "##ado": 9197,
      "guarante": 9198,
      "##ructive": 9199,
      "condemne": 9200,
      "adds": 9201,
      "cheap": 9202,
      "poſſeſs": 9203,
      "unnecess": 9204,
      "keeps": 9205,
      "scotch": 9206,
      "##ruple": 9207,
      "abandon": 9208,
      "confeder": 9209,
      "##otions": 9210,
      "ſtret": 9211,
      "elsewhere": 9212,
      "duly": 9213,
      "rocks": 9214,
      "mahomet": 9215,
      "deſigned": 9216,
      "favours": 9217,
      "sending": 9218,
      "blacke": 9219,
      "reserve": 9220,
      "fen": 9221,
      "ſayde": 9222,
      "hal": 9223,
      "preſents": 9224,
      "sion": 9225,
      "munic": 9226,
      "eaſy": 9227,
      "##rative": 9228,
      "##thood": 9229,
      "##natural": 9230,
      "individuals": 9231,
      "coat": 9232,
      "colledge": 9233,
      "hereſie": 9234,
      "encouraged": 9235,
      "creed": 9236,
      "##gram": 9237,
      "incred": 9238,
      "plate": 9239,
      "fundamental": 9240,
      "ſeventh": 9241,
      "induced": 9242,
      "chooſe": 9243,
      "ſic": 9244,
      "prosperity": 9245,
      "traf": 9246,
      "chast": 9247,
      "fingers": 9248,
      "ſanctified": 9249,
      "inches": 9250,
      "merciful": 9251,
      "aſſent": 9252,
      "spect": 9253,
      "efe": 9254,
      "##idences": 9255,
      "suitable": 9256,
      "moderation": 9257,
      "association": 9258,
      "handled": 9259,
      "modest": 9260,
      "marched": 9261,
      "exempl": 9262,
      "conſtantly": 9263,
      "poly": 9264,
      "separation": 9265,
      "talke": 9266,
      "tertull": 9267,
      "tamen": 9268,
      "##ee": 9269,
      "cries": 9270,
      "innum": 9271,
      "##iud": 9272,
      "gaz": 9273,
      "injustice": 9274,
      "matthe": 9275,
      "belonged": 9276,
      "angle": 9277,
      "sensible": 9278,
      "entreat": 9279,
      "##yce": 9280,
      "bened": 9281,
      "advent": 9282,
      "##amen": 9283,
      "provoke": 9284,
      "sister": 9285,
      "tranſlated": 9286,
[...]
