[PAD]
[UNK]
[CLS]
[SEP]
[MASK]
!
"
#
$
%
&
'
(
)
*
+
,
-
.
/
0
1
2
3
4
5
6
7
8
9
:
;
<
=
>
?
@
[
\
]
^
_
`
a
b
c
d
e
f
g
h
i
j
k
l
m
n
o
p
q
r
s
t
u
v
w
x
y
z
{
|
}
~
¡
¢
£
¤
¥
¦
§
¨
©
ª
¬
®
¯
°
±
²
´
µ
¶
·
¸
¹
º
»
¼
½
¾
¿
×
ß
æ
ð
÷
ø
þ
đ
ħ
ı
ł
ŉ
œ
ŧ
ſ
ƒ
ƣ
ƴ
ƿ
ȝ
ȣ
ə
ʃ
ʋ
ʒ
ʹ
˘
˙
˚
˜
͵
α
β
γ
δ
ε
ζ
η
θ
ι
κ
λ
μ
ν
ξ
ο
π
ρ
ς
σ
τ
υ
φ
χ
ψ
ω
ϑ
ϛ
ϝ
ϡ
ϲ
а
б
в
г
д
е
ж
з
и
к
л
м
н
о
п
р
с
т
у
ф
х
ц
ч
ш
щ
ы
ь
ю
і
ә
ԓ
׃
א
ב
ג
ד
ה
ו
ז
ח
ט
י
ך
כ
ל
ם
מ
ן
נ
ס
ע
ף
פ
ץ
צ
ק
ר
ש
ת
؛
٭
ٯ
܋
܍
ܩ
ߝ
ߞ
ߪ
॥
ક
ဟ
ဣ
ဤ
ၓ
ᄐ
ᅦ
ᅧ
ᅩ
ᅪ
ᆭ
ᆮ
ᆲ
ᆳ
ᆺ
ᇀ
ᇁ
ሄ
ሓ
ሔ
ቓ
ᐠ
ᔣ
ᴗ
ỻ
ỽ
ỿ
῀
‐
‑
‒
–
—
―
‖
‗
‘
’
‚
“
”
„
†
‡
•
․
‥
…
‱
′
″
‴
‹
›
⁁
⁂
⁃
⁆
⁋
⁎
⁏
⁐
⁓
⁔
⁖
⁙
⁛
₣
€
₽
℃
℄
℈
℔
ℛ
℞
℟
℠
℣
℥
ℵ
⅌
⅑
⅓
⅔
⅕
⅖
⅗
⅘
⅙
⅚
⅛
⅜
⅝
⅞
ↁ
ↂ
ↄ
ↇ
ↈ
←
↑
→
↓
↻
∊
−
∓
∗
∘
√
∝
∞
∠
∣
∥
∧
∨
∩
∪
∫
∴
∵
∶
∷
∺
∼
∽
⊕
⊗
⊙
⊢
⊣
⊦
⊽
⋆
⋮
⌊
␣
①
②
③
④
⑤
⑥
⑦
⑧
⑨
⓪
┓
└
╌
║
■
□
▪
▭
△
▴
▵
▹
▿
◃
◆
◊
○
●
◦
◬
◯
★
☆
☉
☊
☋
☌
☍
☐
☓
☜
☝
☞
☟
☠
☦
☧
☼
☽
☾
☿
♀
♁
♂
♃
♄
♈
♉
♊
♋
♌
♍
♎
♏
♐
♑
♒
♓
♠
♡
♣
♥
♩
♫
♭
♮
♯
⚀
⚁
⚂
⚃
⚄
⚅
⚜
⚹
⚺
✓
✚
✝
✦
✴
✶
✿
❀
❍
❛
❧
⤓
⤔
⤦
⦣
⦾
⸓
⸪
⸫
⸬
〈
〉
〓
馣
ꝑ
ꝓ
ꝗ
ꝙ
ꝧ
ꝫ
ꝭ
ꝯ
ꝰ
ﬂ
ﬥ
𐆖
𝄀
𝄁
𝄆
𝄐
𝄑
𝄔
𝄕
𝄞
𝄡
𝄢
𝄴
𝅝
𝆶
𝆷
𝆸
𝆹
𝇁
𝇂
𝇃
𝇄
𝇅
𝇆
𝇇
𝇈
𝇊
𝇋
𝇌
𝇍
𝇎
🜁
🜂
🜃
🜄
🜊
🜋
🜍
🜔
🜕
🜖
🜘
🜭
🜹
🜺
🜿
🝁
🝆
🝊
🝕
🝗
🝘
🝞
🝟
🝣
🝪
🝯
𠅄
𣀔
##e
##n
##i
##b
##t
##r
##m
##c
##o
##p
##a
##l
##ſ
##k
##s
##f
##y
##g
##d
##h
##v
##u
##w
##q
##8
##3
##4
##z
##j
##£
##1
##5
##x
##7
##0
##2
##9
##╌
##ꝰ
##ỿ
##6
##½
##ỽ
##ι
##σ
##τ
##ω
##œ
##×
##ð
##ƿ
##æ
##¼
##ε
##β
##α
##˙
##°
##ο
##χ
##μ
##ς
##⅞
##ȝ
##ρ
##η
##ν
##∶
##υ
##θ
##℃
##κ
##λ
##║
##γ
##ꝭ
##´
##¾
##⅗
##☞
##−
##♌
##♍
##π
##φ
##ζ
##đ
##♄
##þ
##÷
##ß
##ϲ
##ꝑ
##₽
##ξ
##δ
##ו
##ד
##ם
##ꝓ
##∷
##⅛
##ꝗ
##ª
##⅔
##⅓
##℄
##ψ
##מ
##ל
##ח
##א
##⅝
##☉
##ỻ
##⅜
##ƴ
##♏
##√
##♯
##𝄀
##ᅩ
##ᇁ
##ᄐ
##ᅦ
##ᇀ
##ᅪ
##ᅧ
##ᆭ
##ሄ
##¦
##ש
##º
##ꝙ
##☊
##∣
##♋
##□
##✝
##ꝫ
##┓
##©
##♀
##♃
##ᆮ
##♎
##ר
##י
##ת
##נ
##⅘
##⅙
##ၓ
##▪
##✶
##¯
##℈
##צ
##ק
##¸
##⅕
##כ
##℣
##ሔ
##ı
##♓
##♈
##♉
##♊
##ן
##☜
##⅚
##♭
##ŉ
##ס
##ה
##ʹ
##☋
##ø
##⅖
##с
##ꝧ
##└
##⤓
##ߝ
##∠
##℥
##ᆲ
##¹
##▭
##♐
##і
##◊
##͵
##е
##ԓ
##⤔
##☽
##ט
##♮
##♑
##ƒ
##▿
##▵
##ע
##◆
##ↈ
##ဣ
##¨
##ב
##↑
##ħ
##פ
##♂
##☿
##ↄ
##⅑
##ߞ
##℞
##𝆷
##ቓ
##𝆹
##ә
##ሓ
##¢
##♒
##𝄡
##²
##ꝯ
##ך
##ə
##☐
##г
##◯
##❛
##˘
##¤
##∞
##❀
##ᆳ
##ג
##±
##✚
##☦
##®
##𝆸
##ף
##→
##𝄢
##▴
##〓
##⚜
##ŧ
##⋆
##ᆺ
##а
##𝄞
##ᐠ
##⋮
##ﬂ
##∼
##в
##∗
##♁
##ф
##𝇋
##∫
##˜
##↻
##ᔣ
##ϝ
##☧
##ʋ
##ဤ
##⚹
##℠
##ℵ
##♥
th
the
##er
##nd
##at
##in
##re
of
##on
##en
and
##ou
to
##or
##ed
##es
##th
in
##ll
##is
##ing
##an
##ar
be
wh
that
##ic
##om
##it
##ion
##ſt
##le
no
##ent
he
##as
wi
##ce
##ut
is
re
it
for
ha
##ir
##ſe
##ly
##ur
##al
##ve
##ld
as
##ch
##ay
not
##im
##od
##gh
##ct
pr
##id
his
an
with
##et
##ow
##ich
on
de
##all
con
by
##se
##ere
##am
which
ch
or
this
##ther
##ter
##ie
they
##ver
but
##ain
##us
was
we
##ad
##ke
##ore
##ght
##our
##ould
##ation
fr
all
com
##ri
##pe
##em
are
their
them
##ue
##nt
##ers
##ge
##iſ
there
ex
him
##ord
at
pro
##st
do
##ul
##il
##and
have
##ath
##fe
ne
go
##um
##ne
man
##ab
ſh
from
li
god
##ure
al
##ant
me
sh
who
##ate
##ol
you
##uch
##ight
##art
##au
se
st
will
had
##ome
##po
pre
##ies
ma
if
##ard
tr
ſe
up
##pt
our
##ig
were
one
##ra
ſo
##ous
##reat
le
##are
##ence
##ity
other
my
##est
##fore
##op
##ment
##ot
##ame
so
##if
en
ab
any
##aſ
##iv
##ill
int
##ac
ag
wor
su
per
what
comm
may
##ort
thou
would
ad
##ine
af
then
ar
##qu
can
po
##ire
##pp
ſt
when
lo
##ci
pl
qu
##ud
##ſſ
am
more
great
##one
##ist
##ings
##cc
##ind
fa
co
##ive
##ong
ver
##ions
mo
ta
part
im
##ance
##un
##able
upon
##ade
br
##ice
her
where
##out
bo
tim
la
##per
##ess
out
lord
##uſt
##ound
##nder
tho
##ount
been
fe
un
ye
##te
##ber
pe
##ith
##ry
your
##ſs
into
again
##fer
cont
men
##aid
##now
ob
##ary
ho
##iſt
us
good
ſu
##ven
##ble
##ro
being
##ust
now
made
##ish
##ag
##ction
##lf
##les
##riſt
##ph
yet
time
##nto
know
##iſh
gr
fir
##ree
##ull
##ace
bec
chriſt
##li
##lo
king
##eth
##ian
before
very
after
##itt
te
hath
did
##ſſe
##urch
##wn
how
ever
acc
ſhall
##we
make
ca
hon
much
##ick
##ves
##ach
##age
##ast
##ally
##ons
##tain
than
##ces
church
many
tw
rep
##red
##ak
day
like
word
mr
sp
ind
fo
ſuch
##ious
diſ
##uer
##ward
call
##ign
comp
under
##uth
right
law
let
##ition
has
only
should
hou
##ough
##erv
##fic
ap
##ia
might
##je
nor
count
becau
thy
##ok
##ss
##ite
##ations
dis
##ither
##int
theſe
##co
some
ord
op
ſome
##el
things
##ather
mat
##ip
therefore
without
##av
##ren
##cl
bet
##ned
##fect
could
act
here
##land
pow
rem
##ars
##ople
##ult
well
two
such
##ning
imp
ſhould
sc
##ck
end
people
##ink
##ap
##oy
##led
##ide
take
gover
##ſo
nat
gen
these
##ated
own
##ict
em
thoſe
##irit
wr
way
mar
cons
govern
haue
##aſt
##ru
rel
##ang
come
##cre
ſhe
##ſh
conſ
mem
ſay
world
##ents
ſin
##ans
app
##ider
##other
##iſe
prin
hand
##ile
ear
cl
##thing
work
both
##igh
##ied
##ken
say
par
##ving
##way
##pect
min
##ject
##act
##ory
##ty
deſ
reg
bel
thing
every
##end
power
inf
chr
##ub
whe
life
##orm
##ene
gl
sub
##ild
those
put
exp
unto
##ors
bl
place
cor
##own
bod
res
gra
char
##ved
cour
##lves
government
##pos
shall
ſa
pres
ro
##ful
firſt
christ
##lem
ſaid
faith
eng
##ise
though
gener
muſt
about
thr
##ens
think
heart
off
whether
giv
matter
doth
##of
house
alſo
##llow
bre
over
rece
sin
ple
moſt
ſp
##oun
againſt
form
true
long
she
##ep
conf
##ible
cer
cau
give
ſame
##ament
##ced
spe
jud
war
ſee
pur
cr
##cer
preſ
##ily
its
##ſed
another
far
appe
##ib
beg
##full
auth
##ates
cond
said
ev
##nes
##so
dif
gent
thus
new
##ts
##00
read
##lfe
car
mer
##cy
ke
whom
##ase
##ought
##ures
perſ
##ix
##ple
des
##erm
##ave
##iend
inter
##ues
thee
see
called
never
name
##ants
spirit
vp
vnto
done
non
exce
lat
friend
##lic
whole
##ls
prov
death
reſ
di
first
found
hee
arm
##neſs
ac
##ius
nothing
##ake
others
##ular
vs
himſe
ſpe
becauſe
certain
too
##king
##ient
##ement
ef
fl
##iz
##ities
bill
##ass
##me
author
must
ph
##rib
aff
##ittle
adm
thought
pray
taken
find
little
order
##wer
belie
bee
sir
##cond
##ute
##ner
among
##ians
##ours
holy
body
##ript
country
coun
land
child
follow
love
pub
high
dr
accord
##uſ
most
nature
##ial
##und
words
##ution
mind
sa
##by
through
wat
three
##ention
##oub
sou
jo
##itie
fur
div
mean
##ft
doe
because
even
ref
mon
##aſon
adv
att
num
ret
against
same
pers
also
##ſes
having
##kes
apo
hum
tem
##ood
gods
##ters
wee
according
##ued
##res
given
quest
tur
ou
gentlem
prom
ext
rec
kind
partic
relig
##aine
father
##ual
command
common
either
##de
point
##ared
consider
dep
##ack
##cip
##be
inc
occ
dut
art
ra
ought
came
truth
je
##gether
##vers
ask
present
##tend
full
tre
##ted
##xt
##edi
##ten
contin
ſub
away
##ical
##not
##wards
contr
grace
gu
##ae
why
##ief
##ho
cle
better
##io
earth
##cess
head
state
##ments
onely
##ged
vn
serv
light
paſ
years
member
hea
eſt
##cret
##yn
##its
inde
add
down
doct
##gn
##ines
themſe
question
bur
aſſ
need
thir
lear
concer
ed
general
effect
juſt
est
##uen
##ceſſ
cannot
##mo
brought
red
happ
neither
##ever
col
ey
old
ſet
fall
himſelf
reaſon
plac
##bers
##ress
##quire
kingd
year
##wne
betwe
ſuf
reas
pa
##ange
heaven
##ude
ass
ele
peace
er
bu
que
bar
##ited
differ
proper
vpon
gre
##aſe
##ently
##ific
##ceed
ru
##hn
parli
##ances
script
care
regard
opin
dra
bring
##cted
##ks
particular
gentleman
judg
hope
children
##iue
latin
himse
rather
england
manner
commit
decl
##atis
noble
want
rom
##anding
honour
exam
##ouſ
ent
##odu
##ived
together
##irm
##ides
den
##iss
number
##ier
##up
religion
look
clo
sch
son
##tern
parliament
arg
alph
ly
wom
pat
##gth
offic
within
##que
wo
##erve
while
##eſt
second
##als
times
subject
fore
reſt
four
##neſſe
##ſpe
doub
##itted
euer
dist
pet
ground
hold
##abet
##oue
##read
enem
ſaith
alphabet
inſt
##irc
till
retur
diſt
water
sac
ſtr
def
tell
##ane
lords
##ting
und
last
inst
pol
16
free
ill
##arge
conſider
just
##ness
between
blo
ten
lab
themſelves
hor
vv
proph
##fort
mor
##os
##ſion
pract
str
el
pay
##cept
enter
set
further
deli
##ages
thereof
##ified
##ledge
emp
reason
##ained
cauſe
prof
open
##ister
##row
forth
wit
circ
creat
##pose
dev
committe
du
anſ
19
former
##oc
case
able
##cil
laſt
account
##ſter
ſou
bene
cur
suf
indeed
dire
inv
##alt
hard
ſpirit
##poſe
##ating
liber
##ove
necess
##ug
none
lay
imm
owne
##mall
believe
det
supp
hel
ty
get
fam
members
##ec
##ſſed
ba
mone
natur
doctr
hear
10
##atisf
poss
##aint
priv
##loy
pass
val
##idence
##ote
ble
opinion
##oud
fact
court
ſc
keep
##uing
##ety
secret
proceed
000
##ger
apoſt
del
ant
ſelf
##ised
hands
##imes
glory
blood
##lish
obſ
kings
ordin
##omin
##ined
ſhew
uſe
begin
next
18
##ficient
parts
writ
##ets
third
##poſ
##ail
equ
book
##ility
rich
sy
means
committee
##ident
##inted
##ames
left
themse
fre
##ares
pleaſ
##pend
prev
##ences
##iew
##anger
require
##liſh
prince
leg
once
##ided
##erst
dec
##icked
##any
##ried
neceſſ
iſ
preſent
##ling
authority
##ime
main
##og
##ech
##air
cap
meet
deſire
##ately
io
##ale
houſe
large
##itions
##unt
##ury
greater
mot
##empt
##ring
each
maj
doubt
id
12
##uit
ser
##to
dy
##ges
wicked
##cour
import
places
fle
alway
pun
worth
nation
fire
kingdom
miſ
perfect
perſon
##alth
const
bor
princip
dur
rest
##enſ
##oke
propos
hy
15
does
duty
##ops
prop
##ains
##with
offer
##ſus
##ience
##omet
##af
allow
anſwer
##ices
##ured
teach
appo
himself
ans
##uc
##iam
money
deb
sal
ſeem
above
went
##fend
yea
fear
night
##ative
##ouch
report
##ark
view
commun
##hip
joy
##mon
asked
sent
ce
righte
mil
fal
ve
object
##uted
##rupt
iud
##ſhip
##ually
ſent
amend
ut
wal
pra
refer
preach
##lues
pop
grant
ir
##veral
heard
ter
vir
##par
concl
stat
depart
knowledge
whoſe
##iſed
ſpeak
cal
live
fin
miniſt
public
appear
produ
few
##mb
##ument
ire
dead
doctrine
scripture
office
##iour
scot
fort
diffic
##cially
secretary
fav
##ield
##form
es
received
##lt
prote
wherein
minister
city
ins
force
difficult
##den
circum
often
11
john
danger
##wiſe
har
incre
learned
contrary
mention
med
alth
mod
##ission
##ery
coll
##ably
##ency
##cover
beſt
perſons
gave
ireland
##ont
etern
towards
conce
##ifie
opp
labour
beh
##rength
deal
##cience
ep
making
ann
except
eyes
inform
excell
sup
aſ
themselves
##gre
kne
conſt
council
treat
fit
vi
glor
leave
##owne
##joy
ie
use
##ham
capt
term
respect
14
exper
run
caſt
##crib
expect
concerning
phil
##well
ende
##cial
chief
remem
##gy
##asure
although
13
comfort
pen
speak
##ric
brit
condition
vert
makes
lond
wa
trade
seem
answer
home
going
town
##arch
bapt
biſh
person
port
##lly
ſuffer
deliver
disc
desire
poor
##hold
accept
17
##augh
age
told
cro
army
##ead
##ites
clear
sav
##anſ
divine
paul
##ying
real
##lig
rome
lu
##ng
hund
sw
##itude
cho
charge
alread
chriſtian
##ton
affect
##outh
works
##br
rule
vnder
da
##ret
##gg
chap
enough
sen
##ented
che
board
exer
##ouer
##ended
##ſſion
neg
dece
exec
om
friends
bound
##ineſs
london
##ries
evil
met
##por
##esse
##erved
ſtill
inh
perform
help
underst
##verſ
##ieſt
interest
mag
back
mis
##ins
trans
lad
near
##ium
##ometimes
hundred
direct
##lee
eu
##cur
##athers
already
##che
forg
mercy
tri
ange
sure
took
reſpect
##omm
mal
cause
##ision
expre
hearts
service
##imon
##uall
appro
deſt
touch
coven
ri
##man
conv
err
ſecond
obs
receive
known
sl
underſt
ign
##fection
employ
enemies
sea
##yd
##aints
##iers
favour
av
kn
teſt
##ands
rev
##ification
##omp
##ches
##fully
due
##ouble
inſ
caſe
still
since
soul
best
benef
##inke
ſer
pope
##ys
ſign
vo
##lict
late
himſelfe
##ination
##reh
##uss
persons
ge
become
sum
##ior
days
during
course
fig
grow
##cul
draw
##tained
always
ſince
##une
qui
whereof
dem
agree
ouer
##ixt
self
unt
alone
leaſt
carry
brother
ſerv
ven
##weet
corrupt
##eem
return
laws
goſpe
##anc
low
##amp
##nesse
loc
mid
pos
##wh
emper
tranſ
plain
var
##leſs
lie
covenant
bish
necessary
sign
whose
cath
##aps
##ah
fair
##aue
quite
##ened
churches
##ished
20
##itten
ſl
almo
ſelfe
impo
exc
incl
##ality
matters
condem
taking
loue
company
however
compl
##oph
wife
gold
shew
##cient
agre
occaſ
aw
civ
cent
fac
##ases
face
tax
immedi
neuer
##rench
party
againe
fathers
lead
advant
##uly
##edience
yn
##rael
##iſhed
beſ
feel
##iqu
##uſe
hol
prayer
##yr
bear
##ctions
##iled
tit
gall
build
commission
amendment
clau
laid
##gr
mother
kept
duke
cut
##arent
aug
##ration
##amed
euery
ban
young
##uation
##tle
acts
##lie
##rew
eſ
judge
oblig
##bit
oppos
ship
sur
mouth
##ruction
chance
hen
ſup
repres
princes
ſpo
pap
dam
small
##right
held
scho
haſt
##ased
action
knew
vol
##the
officers
liberty
viol
sim
different
confe
prep
##vation
rul
got
letter
repent
##olution
attend
oper
argument
##ives
half
inn
##ibus
##quer
##ements
majest
wind
abſ
perh
whereby
satisf
##rif
##aw
sk
##ths
##ell
##der
##ession
jeſus
written
pſ
##anct
feare
##iness
fleſh
tis
heau
cred
natural
##ners
##olute
##ilt
##uous
ignor
saith
lim
perhaps
sun
doing
imag
diu
orig
mount
hop
woman
prove
##ouſly
##enſe
following
ſure
ack
endeav
##cious
turn
weak
##aries
roy
beginning
##ison
ecc
##aut
giue
appointed
comes
suffer
motion
extra
willing
##ert
speech
cathol
acknow
mark
##wise
french
certainly
determ
france
earl
fif
##enty
##aim
cre
##yed
ſeveral
##aught
##cend
occas
domin
##itution
merc
bat
viz
maje
mur
abs
majeſt
crown
eaſ
##cure
##men
mort
jew
##poſed
ready
defend
viſ
example
##igne
behold
reform
five
sacr
tal
obedience
##less
private
side
euen
arch
belong
admir
women
bread
apost
quar
##uel
et
##bid
saints
vict
purpose
belee
ſort
sol
##pl
change
die
##ob
ſw
mans
downe
kill
##ones
ſtand
uni
wonder
less
##ond
##uments
ſmall
sat
mult
##orth
##ards
intr
iohn
##iſts
##ciple
##aun
len
bir
alter
##aged
##itable
##aſh
ſac
foot
##inal
carried
stand
pain
##yl
county
ſon
white
profe
mine
##oth
spo
acqu
prob
ſupp
##iction
pſal
hence
enjoy
##ats
amount
confirm
purpoſe
gi
##ford
north
nations
tor
bodies
##lied
##ps
prieſt
greate
scotland
dav
admin
gif
delight
##ii
remember
elſe
wiſe
colle
##ife
school
##inite
judgment
paſſ
express
ther
clause
thinke
##lick
conſe
beaut
afterwards
##aining
whereas
inj
##angu
mom
##lect
cler
local
eye
##oured
notice
##cr
occaſion
imper
six
roman
pretend
thereby
charact
##ſon
dayes
##vel
##iar
possible
cry
grie
##iſon
thouſ
goſpel
artic
flow
##ff
excellent
##ern
mee
##icall
amb
notwith
##uct
##poſition
nay
##ms
##ſſes
coming
comple
extre
difference
mad
queſt
neceſſary
##iſes
prophet
##epe
therein
repro
deg
ſoon
cat
ſide
ſufficient
##iu
bra
began
kingdome
polic
majesty
##quir
##acy
##gar
##uded
emb
hell
##oſ
eſpe
##icks
measure
ſtrong
william
vertue
thoughts
fut
meanes
civil
bes
afflict
mir
##aster
march
mentioned
##az
strong
principle
poſſe
enemy
conſcience
##ggest
least
experience
##aughter
##ator
line
suggest
biſhop
air
ſinne
indust
bus
required
diſp
wound
##action
apoſtle
gar
pot
gree
cast
##iles
wine
peter
forward
bad
prou
righteous
redu
discuss
ſtrength
heb
##iter
publick
##ists
dark
page
worthy
fruit
##itting
##yng
duties
position
deny
length
advantage
germ
moment
worſhip
glad
gho
paſt
cases
trib
scriptures
content
pard
educ
bleſſed
##ley
super
ſuc
mart
tong
david
break
vis
##ede
##airs
hus
##ract
ste
ſatisf
##quently
paid
worke
fourth
ur
##ortun
truly
ful
succ
exerc
test
outward
represent
gro
health
##orn
exh
attempt
ancient
ze
giving
##ock
21
ang
sort
gone
##eding
##posed
falſe
depend
##band
fight
##iſſion
##ipp
maſter
##ape
beene
amongſt
perm
22
##ann
living
virt
actions
##rant
trouble
ſal
saint
eſpecially
fou
ſelves
##ey
##used
infl
conse
##cript
##eme
##utes
neigh
secondly
whence
fill
impro
goe
25
puniſh
heauen
really
short
goods
dest
##olved
hur
chriſtians
##ſd
occasion
yee
beſides
future
neighb
opportun
practice
idol
##eſ
happy
fellow
deſign
wrong
pure
ſtate
himselfe
iſrael
righteouſ
iuſt
syst
pie
##go
24
selfe
##rie
apply
eight
system
##ized
trad
powers
##ney
##ils
##upon
##owed
wish
##erable
##llor
##ortion
wher
##ging
pal
introdu
christian
##aled
committed
oath
wood
play
lady
breth
meth
ſometimes
queen
##aſure
sil
continue
qual
##ume
pardon
ordinary
elect
glorious
anim
british
eas
engliſh
##rey
##aring
gather
value
##arily
ſing
bed
##bert
fault
saviour
ſhort
letters
##iall
wil
troub
affirm
policy
apoſtles
prepared
field
hind
longer
thouſand
##utions
23
ben
afore
##ereſt
character
fell
langu
##itation
hous
brethren
otherwiſe
dil
30
##inct
##ize
##con
leſs
whate
##iod
greateſt
ſenſe
##use
benefit
ing
##old
accomp
cold
nob
education
##iety
##anch
evidence
infer
##arie
uſ
##iment
##reſ
thence
juſtice
vvh
##cribed
##orum
maintain
##icke
ſur
gives
tot
whatever
sufficient
obtain
thom
##rifice
until
ſoul
sing
der
deu
past
##essed
arri
morning
intended
degree
##ingu
prim
drink
english
divers
fully
communic
parent
##aments
perce
henry
##ung
ſeeing
bloud
##wel
used
royal
bishop
##orrow
bey
##ows
ſweet
fool
##els
dri
##pell
principles
sit
wy
move
rh
##ulation
subjects
promiſe
inhab
generally
consideration
likewiſe
cop
names
angels
##ſtanding
##ordin
reven
##mes
##ſoever
taught
support
beyond
betw
tempt
farre
van
defence
##mer
south
##bell
finde
generall
attention
quod
diſcour
gentlemen
try
round
##ibly
ſubject
##aded
dwell
##ablish
wherefore
queſtion
iudg
poſſ
eternal
##ched
##antly
ſix
cham
counce
quick
disp
text
creatures
chancellor
circumst
wall
##iting
foreign
rate
##aken
ſuper
win
ran
innoc
##ſſing
exact
pound
remed
commanded
prevent
heare
exist
pleaſure
heret
lives
compan
empire
fine
##ander
ale
##alem
continued
chang
##opt
table
tempor
##rict
deſtro
##jection
infinite
post
title
certaine
##erely
eat
born
wealth
twenty
##leſſe
##iect
offend
immediately
major
thine
expl
proteſt
understand
granted
temple
ſaying
##cing
##ired
miniſters
##iding
aſſe
reply
hauing
uſed
##gypt
affairs
meaning
sense
ſaw
else
period
##quence
godly
repe
proportion
information
declared
vain
##rop
##ises
arms
##ancy
whil
namely
sacrament
##quent
entire
##imony
religious
proposed
##dle
feet
needs
dre
##leſ
commons
conver
magn
polit
poore
##esus
##iefe
buſ
countries
pret
don
##ron
##ns
family
cum
appreh
prayers
colon
oh
ioy
intereſt
purch
declare
##omes
##like
cuſt
##riage
strength
##ifeſt
establish
thomas
##itor
sam
dear
interp
##ague
ſins
##what
knight
diſcover
##ots
##self
allowed
manifeſt
##ship
ere
##rate
##ica
##ſec
tend
wiſd
milit
ſeen
opportunity
##ising
##iſm
united
##pet
important
##ining
mens
fund
##iff
note
famil
sonne
##utation
terr
weight
##atur
wel
##euer
creature
majeſty
diſſ
claim
##ina
offered
ſend
price
repentance
##aunt
##ital
result
hiſt
betwixt
affection
tender
vt
flo
wrath
virg
several
##eds
appears
national
placed
conne
truſt
pries
conditions
##aſes
26
cover
ſim
##tie
bow
ll
##aves
method
reading
##ores
provin
record
##ples
##iving
ſpeake
lands
terms
cost
##ineſſe
counſe
blind
daughter
states
confer
months
ſoule
reward
##ias
minde
points
husband
cy
reach
cou
ari
captain
prefer
##ilty
quant
calling
something
##ott
##ibility
##abb
courſe
extend
class
alto
adopt
nav
render
loſt
considered
lordship
conduct
particularly
iss
adam
##asse
orders
dd
dilig
bal
omn
treas
##ien
requ
prot
faſt
##uf
circumstances
jews
reign
ſight
jer
##ayne
remo
##isters
delivered
##ydd
mirac
business
remain
##pel
heav
fix
provided
28
##ſp
lic
threat
aut
beaſt
aware
fil
cra
credit
espe
appeared
##urance
##aund
recei
walk
sold
dign
voice
altogether
##wy
gal
plant
appoint
black
undert
##ler
difficulty
subst
working
concerned
utter
##alty
touching
india
fat
thous
abra
wild
meant
sanct
##pri
irish
pride
assist
##itur
##aſſ
miſt
##oted
##nation
bold
hone
latter
oft
gos
statement
wiſh
excl
applic
mel
temper
sm
tongue
souls
ſit
communion
horſe
soon
27
cere
abro
sould
eld
chapter
grand
##ism
exche
##ruct
soci
diſe
##bs
##bur
died
##acke
ſum
inhabit
##itive
##uses
pleas
card
priſon
##ored
abraham
##aud
saying
exchequer
property
believed
salvation
##ervation
eli
grat
appeare
##iation
human
bro
vote
##iae
##ify
eſtate
fortune
##edd
##lies
passed
equal
ſav
##ray
pag
##yſ
##gra
west
##ze
houses
added
furn
##ike
inward
almoſt
##rection
forces
pleaſe
##kind
drawn
endeavour
send
countrey
##oken
unc
##iſter
hist
bond
##he
judgement
union
vſe
election
##aſed
proved
demand
seeing
##uſed
guilty
perfectly
mill
trust
deep
department
dangerous
prophets
zeal
##uſion
##inent
inquir
greatest
bell
food
##vere
justice
##cies
referred
##jud
themſelues
honor
##oued
diſcip
freed
incon
##come
mater
alt
encour
ide
especially
humane
increase
ſhal
recomm
turned
rebell
bit
##usion
authorities
whiche
##atter
wise
parents
resp
liue
relation
hurt
sometimes
##cks
biſhops
paper
language
##olog
tree
river
ceremon
##ym
##itate
##port
guard
hart
almost
au
vent
conven
##ounded
keepe
##iture
notwithſtanding
##ties
extraordin
##uits
chamber
devil
printed
alex
books
##lation
##unto
agric
wholly
dan
##ope
agreed
became
##na
quiet
minds
faithful
##ash
step
eph
broken
##ſaid
humble
forbid
##teen
knowing
rules
cam
daily
legis
sins
gouer
fer
fly
paſs
returned
debate
write
various
afford
heads
hast
perſw
##isd
amer
ren
ghoſt
takes
punish
fles
foundation
rob
properly
##aſons
emperour
eccleſ
od
sed
giuen
industry
hot
diſc
agricult
ſays
mut
hearing
aſſemb
image
colour
miniſter
chriſts
eur
##day
ones
hypo
amongst
##teth
vill
produce
volunt
protest
ſtri
hither
suc
degre
heath
ded
ſil
lev
##imate
span
dry
tro
breath
meeting
stre
conclude
ſerve
figure
##worth
maketh
led
yeares
lam
##agement
avo
subm
ships
aſſiſt
##arm
spirits
acknowled
eaſily
##cription
egypt
watch
alle
hat
31
iust
exceeding
otherwise
profit
commonly
merch
verse
##liſhed
beare
intention
##ension
proof
ſpoken
moſes
ago
admitted
##erate
arguments
##ſie
cit
##rates
##ciſe
execution
behind
booke
built
degrees
petition
##imin
hang
commend
habit
##wes
bab
tyr
arr
##iah
reader
lib
deſp
press
##ption
##oſe
lordships
##olutely
declar
contem
obey
intend
##ories
formerly
week
reco
charles
##iouſly
success
ignorant
dare
reference
##ifying
sword
higher
leſſe
29
idolat
plan
parties
show
affections
##iſion
##yle
ways
opinions
##oms
underſtand
confidence
##neth
meane
##val
ministers
adu
##after
district
flesh
thor
learning
sau
##ires
addition
vnd
hour
##icious
##reſs
rid
sus
respons
##iet
stated
paſſe
repreſ
prison
preſence
imposs
cust
serm
scheme
birth
##inity
followed
reb
gain
eſteem
##erit
ps
##ſtance
prime
##arce
ſinnes
luſt
##ically
##aly
##angers
happen
therfore
convin
##ſelf
faire
recon
charity
corpor
improve
knows
yr
##raid
##lemn
ſound
##ses
##ked
geor
besides
thirdly
hinder
intell
inhabitants
medic
effects
vit
##iſing
##nal
##uell
honourable
houſes
##gan
alwayes
abroad
importance
##bury
writing
prevail
bon
cure
##leep
felt
lawes
edward
likely
##queſt
##aſting
ſervice
borne
hopes
heat
cruel
recover
spiritual
magiſt
acknowledge
marriage
admit
gallant
beat
entirely
perpet
principal
contro
##ifull
manif
dar
looke
compar
sweet
hill
##curity
withd
twel
eſtab
nar
foure
named
riches
##igned
created
##ural
yes
special
conſent
wrought
stri
gard
##iſſ
rent
hours
famous
operation
medi
extraordinary
plainly
weſt
providence
##ams
europe
preaching
heir
##ulous
40
##ody
alm
miles
sacrifice
##aunce
master
ages
sinne
hom
hu
obtained
james
contrib
workes
##iously
moved
##aking
pecul
univers
##wa
patience
articles
ſhalt
obliged
servants
praiſe
gift
along
mighty
perſec
occup
##ſſions
building
##app
offence
waters
naturall
##eration
syn
fail
##pr
original
seven
kinde
minist
mankind
##rific
deliuer
rail
##urrection
greatly
eaſt
ſol
iudgement
false
cand
##for
impossible
opposite
prepar
##ceſs
stud
neighbour
separ
saw
##greg
thousand
ſeems
pleaſed
##ables
expend
ſecret
abund
iniqu
unless
ox
wayes
fee
goes
obſerve
citie
intent
##no
colone
baron
diſcourſe
enl
conscience
voy
##lesse
cru
peculiar
##inus
diss
seen
firm
warrant
objection
cert
##ault
raised
aboue
grave
hardly
yeare
says
##umb
meaſure
hab
bishops
##cke
clergy
gracious
##ria
ſtrange
double
ae
beauty
hym
reasons
lieut
honeſt
rever
jur
youth
##otten
neglect
unf
grounds
##uice
proſ
condemned
whatſoever
portion
entertain
bare
ſenſ
seems
tooke
surely
##iful
ſm
##unic
cloſe
##uce
virtue
toward
mist
##geſt
judges
protection
dealing
righteouſneſs
demon
depri
figures
##ua
conſtant
desir
constit
forced
cha
ow
worship
councell
administ
decre
fulf
lost
extent
##iments
soule
appeal
ieſus
perfection
satan
fau
courage
expected
ni
hate
##isions
provision
##rible
contract
officer
lod
exhort
remark
wiſdom
prud
##acob
contrad
thinges
fier
forget
helpe
george
corre
ignorance
##idge
humb
prieſts
##ators
lived
iſa
ſake
commiſſion
questions
regul
fol
cauſes
neceſſity
ſed
##pir
influ
destro
pit
ath
hereafter
euill
quarter
faithfull
agreement
##uſalem
prejud
corn
piece
debt
##ſing
psal
commissioners
contained
##ense
ſelues
conſiſt
evident
reaſons
origin
##ability
anno
##sec
throne
farther
enc
##ode
conceive
necessity
verſe
sight
##ank
considerable
rights
seas
heavenly
ends
delay
east
chiefe
arrang
gaue
proceedings
innocent
doctor
##edge
cities
ſanct
ſeven
lawful
puniſhment
dread
withdra
interests
drun
aforeſaid
afraid
hid
christians
ine
ſtay
contempt
tells
procl
phar
##emp
ess
##ſtr
##umph
redeem
camp
##ply
auguſt
phyſ
anſwered
likewise
eſſ
##ds
£1
affected
##aked
mary
courts
ordered
dog
warre
trave
thank
employed
middle
bind
fro
asse
supply
performed
##eres
remedy
conquer
32
military
indiv
##atio
muſ
vice
reck
proud
##edient
##otion
##umed
pros
eternall
##sh
##aph
comb
particul
magist
everl
putting
ſorrow
conc
calls
reject
betweene
lies
quae
aud
dye
applied
ier
advice
anything
vnt
difficulties
capable
##ny
presby
conſideration
iſſ
trees
##ole
bitter
feeling
cele
##ainted
##ioy
##certain
schools
accordingly
sound
sabb
ſhewed
meſſ
vel
univerſ
concern
##eneſs
thither
##eries
lar
pleasure
ſtre
suppose
top
inſtr
swe
ei
behal
influence
triumph
##hood
##neſt
##orie
##ciences
##fety
ibid
freely
##lling
diuers
##lls
souldiers
exerciſe
prae
##wed
obſerved
hun
ſuppoſe
comming
president
partly
apostles
preſently
violence
reve
almight
eccles
robert
luke
throughout
##let
cloud
##gress
##iſc
ſepar
paſſion
##enant
reſol
wilt
##aff
learn
underſtanding
promise
month
individ
multitude
gospel
##ſen
shal
lye
veſſe
##ature
conform
corruption
##lin
martyr
popes
##ential
monarch
resolution
gifts
cup
##urb
colonel
mour
approach
ſick
bid
##vv
keeping
barb
griev
compet
error
lower
fay
entit
offices
inquiry
##position
glo
fun
root
ſwe
max
philoſ
yield
##ively
oun
dau
compreh
informed
##atory
themselues
opened
society
##ose
congreg
deſired
hoped
counten
finding
divided
##aſs
extreme
precious
discussion
armes
speake
quality
leſt
section
commod
preced
bas
deſtroy
ſonne
article
##udes
blessed
philoſoph
selves
##line
ſomething
##ereth
herein
##ilities
##under
meat
choice
##anced
determined
estate
##aines
room
tu
attrib
lou
evill
towne
memory
lin
riſe
stone
##gu
##ata
yeeld
##akes
apt
big
pau
consent
##ics
##ma
lying
merit
##char
provide
leaue
wret
bott
50
ham
embra
meer
##ially
##aving
twelve
antich
##pes
buſineſs
horse
obſerv
citiz
lawfull
ration
produced
precept
##oned
patient
cloth
eſc
guilt
pron
relief
##acle
##mber
adj
ay
fruits
counse
afterward
##cribe
##ax
iudge
recommend
100
fish
##erves
subs
charged
constant
##ſome
vse
aſh
stra
august
##ifies
quantity
date
numbers
preached
##pond
treasury
naturally
bodie
ſafe
murder
spoken
##akers
rene
wrote
heere
direction
apostle
virgin
ſhame
##ciall
bringing
married
interpret
forſ
33
##imus
looked
mus
ministry
eccleſia
##iſme
poſſible
gouern
quam
germany
##agues
expenditure
examples
##ari
richard
ſpiritual
##inth
railway
purſ
list
##poses
infall
canon
understood
daies
ſave
equally
##ynt
une
commaund
##ald
epiſt
anger
ſubm
troubled
##ſte
bright
pretended
promiſes
##rid
earneſt
emperor
manifest
inherit
application
rend
conſidered
env
ſpeaking
boy
##atus
clearly
##vey
##iſhing
##beit
ſad
jesus
##aile
##iel
road
lines
##emption
vig
##ials
particulars
##ai
##uls
individual
wordes
nine
payment
##illing
ſud
ours
##ony
##uary
##umption
coal
desp
probably
anſw
dealt
##urd
design
continually
##atives
victory
clean
##vert
speaking
##ſters
confirmed
##ster
servant
##lle
##fortun
ber
employment
##inction
accepted
sens
promiſed
occur
liqu
##cie
imagine
lorde
thinking
##ieth
##sse
leaves
unj
##omon
prel
attain
hier
fast
##erous
##standing
##ſts
safe
plead
##odd
##uting
##enes
contra
simil
services
##hib
consist
declaration
##owes
oct
ſtud
directed
assemb
##uring
ſte
purs
lament
treaty
##phem
ſtood
##over
iron
moral
proposal
commands
##ker
##ral
whereupon
creation
advance
vine
holl
avoid
seed
fallen
looking
intellig
highly
political
fifth
gentiles
sabbath
reſiſt
introduced
##ati
##rof
chiefly
protect
##law
happened
##orne
34
sick
underſtood
##where
pill
frequently
priu
##itious
##ped
pains
deſtruction
fixed
early
crime
supre
sons
##erue
si
35
opposition
##lands
ſeek
wherewith
job
steps
##iant
height
##sp
beleeue
lift
serious
##iffer
reduced
unleſs
authors
pict
statute
later
##isc
##waies
ry
hall
cauſed
##iance
belonging
troubles
beast
paſſed
bull
fount
directly
salt
instead
convenient
gentle
prem
lately
plaine
##dd
sentence
worſe
##reth
thro
oppre
avail
hitherto
vul
itself
iewes
charges
graces
priviled
yor
indiffer
romans
discover
gathered
bew
total
reformation
changed
winter
instance
heathen
control
jour
##ij
poet
##ufact
vaine
merely
green
na
engaged
archb
manufact
thirty
##owing
revel
sund
crit
inu
commer
##pent
israel
discour
dom
##ift
whilſt
##inesse
##ounce
nour
turne
decree
teſtament
receiue
raiſed
##ique
teſtimony
##illed
malice
ſtir
spain
evening
market
tum
##lled
increased
36
publish
ſalvation
pounds
close
mach
extern
alexander
ach
wages
anx
mix
##uance
pil
forme
finan
defect
immediate
appearance
##acity
##ato
theyr
withall
happineſs
star
##alous
ſuffered
ſpirituall
door
tyrann
tar
generation
proſper
hiſtory
desired
relie
reconcil
discip
##cent
removed
loss
below
##ris
towns
myſter
batte
vnderſt
impoſſ
enim
prohib
purposes
falling
knowne
immort
hebrew
ball
diſciples
##anus
##uerſ
alwaies
wisd
##ered
endure
violent
organ
honest
##ſted
##cere
almighty
eminent
##neſſes
witness
easily
priest
grief
proceeding
##rent
repreſent
patri
dignity
idea
pieces
capital
vtter
eccleſiaſt
estim
lit
angel
maner
loy
unre
frequent
ordinance
satisfaction
wait
##inations
serve
cenſ
dominion
meas
##ſoeuer
192
notwithstanding
ſever
legal
facult
##fl
doo
ment
##soever
##iency
marqu
britain
rejoy
##ressed
history
rare
ordinances
fet
##ructions
aver
deſires
##conom
abol
exactly
acquainted
antiqu
brings
independ
cu
san
observ
breach
lesse
reproach
fy
hir
compared
##count
bri
buy
sept
ip
league
issue
ſomewhat
stock
fleet
barbar
constitution
ordained
follows
ſword
shee
complete
eate
actually
vesse
##alog
thick
italy
proble
choſen
financial
bleſſing
infirm
stood
##charge
correct
##uding
ſubſtance
contend
province
naked
##emper
##mp
receiued
##oubted
waſh
concur
ſea
entred
ſpeech
torment
whome
altar
burnt
filled
leſſ
strange
countenance
##oll
authoritie
mess
colonies
returne
rates
##cured
ah
##iſs
ceremonies
##arp
##get
miracles
receiving
joh
earthly
companies
examine
econom
withdraw
sect
bank
pull
sacred
imploy
tam
aun
counter
##licate
exch
expressed
dying
dauid
resol
##phe
exercise
wanted
earle
murther
##inate
paris
farm
vnderst
hereby
hoc
stay
administration
killed
fame
##erted
##otes
##lected
speaker
##ocation
vertues
belo
heed
##mble
##orious
frame
pan
dise
cord
satisfied
##owe
hys
concluded
madam
admon
adminiſt
reported
carrying
bills
punishment
standing
ſorts
caſes
profeſſion
bless
thanks
abh
wales
quid
decision
heavy
diſtingu
##gers
halfe
worldly
eliz
troops
effic
filth
ſhip
##ſtances
##vera
dimin
##chief
german
causes
diſeaſe
single
deſir
ſupport
broad
propose
flatter
leaving
rightly
judic
ruine
celebr
franc
ſtra
apparent
warm
philip
behalf
folly
##know
##owned
##ſa
indul
##aſſe
math
remove
denied
ſudden
vpp
##ril
blame
legislation
matth
sor
remembr
reſolved
##ication
dub
##ommunic
maid
landl
rele
entitled
##allen
stage
ariſe
fortun
##ifieth
vic
caused
tenant
willingly
tyme
##aging
ſeed
writings
propri
##erued
ingen
piety
##itute
families
accident
consequence
departed
raiſe
##eneſſe
forty
193
examination
privile
thinks
presbyter
adopted
##icted
sorrow
baptized
neere
fiſh
tears
redemption
##cretion
police
irre
obſt
##throw
hypocr
somewhat
haz
dic
greek
america
##ales
thereunto
sher
passe
##resse
deed
earn
execut
ſearch
freedom
burden
papiſts
ital
##omed
exception
pu
situation
viſible
stop
reasonable
founded
cloath
seemed
37
lieutenant
everlaſting
wished
ſatisfaction
provisions
sermon
landlord
conference
parliamentary
ſpeaks
gate
connection
##ituted
revenue
conj
##oked
front
citizens
dig
afric
holding
objects
quarre
brief
recogn
utmo
teachers
contempl
##anes
ſtone
absolutely
##aver
ward
persw
indian
assistance
answered
attended
reſurrection
talk
ſouls
##ening
shame
profitable
sic
theirs
cruc
compell
ſucceed
chan
##atum
##idel
poſſeſſion
male
##ulter
ſubſ
##onge
secure
bran
sacrific
quickly
prec
38
admiralty
chry
ſpirits
deput
dict
beſe
goſpell
bay
invest
ſtop
councils
accounted
multip
##erem
paſſage
ſoules
##wydd
ſeaſon
suff
quo
christs
established
pretence
poſt
probable
rise
settle
excommunic
burning
session
##ylon
memor
injur
spring
diſh
impoſſible
retain
bin
batt
goodneſs
##resh
lawe
##employ
becomes
impr
verie
rage
alas
proceeded
obv
##ounced
facts
unemploy
gir
drinke
converſ
ſhee
rock
aſt
##more
beloved
laſtly
ended
security
ſacred
##pected
manners
flour
deſcend
asso
rebellion
##rous
##iast
beeing
pul
entr
writers
mas
ſcarce
presented
##order
raise
caſtle
gun
utterly
obligation
poſ
ghost
deare
getting
narrow
fel
poll
tab
income
running
##poſing
adh
##eter
##vet
feaſt
ſpake
acquaint
fing
conſiderable
defe
thereupon
images
relations
procure
motions
wants
higheſt
eaſe
aſſured
conclusion
mercies
benefits
treated
marry
##riſon
presence
baptiſm
division
ſaved
191
##idents
ray
diſcer
##ommod
vvith
congregation
requires
##atch
followeth
powder
formed
increaſe
##ping
expreſs
##enture
iſſue
parish
##head
finally
##nde
##ino
calam
limited
loſe
hatred
encre
unh
##velop
inconven
39
reputation
drop
confeſs
consult
##worthy
arbit
feed
arrived
##urs
spani
approved
sad
terrible
prepare
squ
pee
wanting
fauour
copy
mainten
##licity
tas
ador
##ades
rod
wont
nec
challen
cun
##actory
interpre
blaſ
ſacrifice
sake
impart
acted
population
proteſtants
##xed
permitted
ſuff
supper
##athan
moreover
begun
moses
conſequence
ſold
aid
abound
##rick
maintained
majority
ring
golden
guide
counſell
ſeru
eſſe
##oes
empt
neighbours
greg
iesus
wounded
unfortun
unb
teaching
##atic
##enſion
queene
aust
alleg
verb
regular
catholick
adulter
sauiour
bones
doctrines
##orous
hunt
measures
bearing
confeſſe
affliction
determine
wond
suggested
##iſſe
ſcript
sovera
circumſtances
mixt
familiar
practiſe
righteouſneſſe
enable
unp
##ceſſion
flowers
idle
detail
pac
uncle
beleeve
remained
jeruſalem
offering
milk
##ensions
confess
silver
heavens
##wood
forbe
branch
##icated
ſeemed
afflictions
branches
beaſts
wid
##idently
regarded
regret
agreeable
succeed
russ
resist
ens
nowe
inheritance
garden
distinct
lust
vve
hung
##uced
please
fate
remarkable
associ
soldiers
attack
laugh
##apt
babylon
reſtr
noted
lew
vind
prosper
##aling
hide
humbly
maintenance
develop
sacraments
iniquity
carefully
governor
eternity
unw
##isation
ſurely
pred
##ante
merits
profession
advoc
intim
esteem
##amm
excellency
mont
dun
##adow
imperial
exod
anne
agricultural
synod
commeth
offended
kinds
croſſe
##ructed
##raph
advantages
##irme
temp
twice
considering
rig
mac
##itors
similar
diuine
##era
sinnes
abb
jan
##tled
##oting
worse
buried
equall
viscount
substance
##uers
dutch
production
revenge
##ensation
maſters
borough
reſolution
ſhut
ſufficiently
philos
instr
alteration
##ux
myself
miſerable
enſ
miſery
views
existing
forms
event
actual
skill
understanding
croſs
ſpeed
diſtance
##aues
##aped
##jus
qua
ſeeke
remembrance
priests
bottom
gates
continuance
careful
sunne
##arks
convers
uns
requeſt
##hire
permit
shalt
ſolemn
available
##arum
discourse
infant
undoubted
circumc
##son
luther
##ox
apart
breaſt
papers
philosoph
fed
esc
belief
eſtabliſh
praise
periſh
##ression
rect
tra
ſpace
backe
jacob
wars
##ente
##asing
ſayd
pleased
##ipping
arre
wide
appointment
ſuppoſed
bount
prede
wear
pariſh
prejudice
lot
howe
selues
believers
remains
publike
majeſties
betray
aqu
veh
observed
null
transport
45
##field
infants
bath
ſervants
complain
antichriſt
aſſembly
##much
feared
adverſ
##aming
##erend
##ule
##oe
cens
larger
chaſt
agriculture
abſolute
ſecure
export
sever
prod
yours
##ula
request
42
blow
chairm
pref
vvhich
observe
cross
##uck
deut
possibly
responsible
carn
00
vppon
##poſitions
passing
errors
##000
##ivity
loved
save
vanity
##ilitie
learne
ſch
inſtead
idolatry
dominions
parad
reade
pleaſant
##lius
race
possession
epist
marke
aſſiſtance
minor
promised
luc
diligence
##leg
60
navy
regen
notes
abide
fundament
baſe
##asting
##ering
weigh
##nings
fled
nun
answ
borrow
tranſl
holineſs
##anim
hair
##igation
##ush
loſs
covered
corne
belly
##ump
teacheth
ſentence
complaint
entered
£2
##gs
albeit
##thern
ſenſible
ecclesiast
##pot
profess
##icus
earnest
sides
curſe
skin
##aughters
##ero
whither
feb
chron
liberties
##orney
##inet
maieſt
exceed
simple
presently
witneſs
arise
drew
inſtance
alb
dro
dyed
principall
som
solemn
temporal
pious
moon
juſtly
armed
##gon
##olation
accommod
appeareth
amaz
conſequently
ladies
eſtates
lamb
##ember
growing
weap
april
benefic
path
##ims
ſought
##abeth
##ching
lordſhip
convinced
ſy
hereof
##ifications
alive
persec
ſleep
cuſtom
waſt
41
condemn
phys
distingu
whilst
realme
venture
untill
##ſc
##hil
voluntary
elders
bud
throw
##mond
reports
vntill
capacity
ſooner
turning
heirs
witneſſes
wounds
notion
sinners
eaſie
adde
ſinners
material
diſeaſes
confeſſion
##ſly
spent
godl
preſerve
##ater
ruin
bred
proposition
tried
gw
powerful
rub
sugar
laying
qualities
collect
fooliſh
por
abundance
ſau
supposed
thereto
advanced
errour
void
##iable
ſimple
vulgar
kingdoms
incur
classes
##iued
##ignation
plot
afflicted
##iours
examined
anie
proteſtant
obli
ſatisfied
cant
liver
fifty
pleaſures
problem
##ſeph
vile
##ishing
taxation
purchase
tower
shewed
glorie
plague
orn
angry
##ller
blaſphem
occaſions
breaking
ears
humour
extended
regulations
host
contri
caeſ
knights
holland
##med
accounts
evils
knoweth
eag
mrs
believing
wol
turks
subiect
fab
destroy
therewith
elo
deliber
inqu
diſtinct
interrupt
uncertain
ſubiect
ſuſ
cher
cleare
##body
enfor
reduction
ol
calleth
##gent
conceived
deceit
##bour
rad
diſple
attorney
inquire
paine
arts
decided
progress
chairman
refle
weep
item
clock
looſe
##uity
curious
vers
area
##amation
iuſtice
##va
sud
exhib
impre
labours
cruelty
vac
variety
praying
##geance
ambition
unhapp
gy
fare
tradition
ſtanding
knowe
crowne
revealed
reduce
abhor
fancy
defin
sax
elizabeth
cab
trial
active
##ropri
tribun
relating
inte
cla
overcome
walls
wisdom
ante
cardin
##ſtant
breake
vſed
ga
performance
abomin
mun
truely
##aſſad
accompan
daughters
ib
indians
pity
poſter
grew
vni
cow
submit
##eper
refuſe
tenants
smith
openly
exped
july
liberal
##itus
pert
offences
mercie
temptation
pointed
walke
contain
remaining
eſtabliſhed
pour
roſe
##ueth
nove
mere
ſle
acknowledged
improvement
fayth
tranſgre
brave
looks
diff
nomin
oxford
##pher
conte
solomon
epiſtle
enquire
transfer
teeth
colours
deliuered
regards
##enced
darkneſs
dup
inflict
sec
judged
expreſſed
governour
##ye
native
##god
contradict
wre
cas
owing
tith
chal
fears
speed
story
weeks
anxious
proposals
puts
##zen
peop
##imum
gotten
june
##eness
rank
provinces
ade
aband
##sed
repeated
dei
york
forfe
wretched
neer
dangers
ec
worde
additional
weake
exchange
##ofe
wilder
##oming
##ouſe
morrow
##posing
reverence
reformed
44
eg
search
whit
##natur
parte
covet
inſtrument
accur
ſi
calcul
forbidden
ſeene
mi
suffered
ſingular
proue
ſervant
ſoft
treaſon
neck
falls
unity
won
executed
ſides
hazard
imperfect
##pic
##atem
ſpread
indifferent
thin
doctors
##nding
ris
reckon
##aker
corp
##ynge
##erog
##ival
legisl
##perate
##ading
##charged
auſt
##ican
beſeech
incor
seek
drawing
conſtitution
interpretation
damn
speeches
unlaw
perceive
hereto
500
print
limit
##lor
infallible
##min
effort
acre
seru
neare
##rious
##usalem
grown
refused
nearly
districts
baptiſme
treaſ
sn
spec
merchants
portug
##erie
mountains
events
conſidering
official
elected
liter
##uated
pi
largely
wives
scott
ii
responsibility
contented
##encies
evange
##uge
saul
devils
stir
horſes
apprehend
mah
aſſurance
fem
##thes
samuel
##iege
perf
commonwe
armies
##eties
43
##itutions
safety
##ayn
bench
esse
news
rat
spirituall
crim
worlde
quarters
##bor
ſpecial
##uff
fury
tert
iſland
ridic
community
desirable
therof
##izing
highest
##zek
ſingle
carnal
owners
mich
ille
commander
francis
##aced
eating
bought
fiue
eſcape
ſurpri
crimes
rap
magistrates
journey
ceaſe
extremely
practical
##atly
cardinal
deſtroyed
enact
baronet
##nel
##ometime
critic
unable
temptations
##ini
fow
prodig
conſciences
##ington
undertake
converſation
##och
counſel
##ulph
thrown
arab
pitt
imb
objections
counties
##omach
explan
ſpring
enorm
sem
acceptable
endeavours
confirmation
##ibi
##ipped
assurance
suggestion
negot
vnderſtand
expectation
melanch
fond
attach
bul
share
admirable
fourthly
octo
cometh
vide
diſcovered
medical
##itch
confident
loves
simply
operations
mortal
appet
##ille
##lend
possess
sand
##iate
vengeance
##ws
expreſſe
##grace
liv
aſcend
weather
revelation
##ertion
##abled
iames
tongues
passage
published
sheriff
whatsoever
token
decay
element
##aces
diſpoſition
divide
bele
olde
ſtrict
artific
notable
amendments
generous
fox
ſun
ming
liquor
taketh
##hem
extrem
goeth
publiſhed
purg
prudence
juſtification
external
joyned
opening
natures
190
turk
compensation
##ena
ſtep
##side
brid
stones
veſſels
wyth
pier
##bred
liuing
##iling
##cle
##iſions
reſe
ſucceſs
occasions
fought
ſtands
euerie
conſult
##bation
magiſtrates
teſtimon
perman
##isse
##mbling
il
confuſion
##osen
vall
desires
issued
48
compaſ
changes
##icians
beth
committees
reaſonable
##acon
popiſh
##olve
explain
thorough
obe
##vereign
differences
estates
previous
scots
hors
standard
pension
commandement
humility
mand
space
distrib
midſt
##iſd
coſt
##lication
ſpeaketh
##ropol
wings
loving
excuſe
ounce
eares
lips
truths
hyn
ti
promises
childe
staff
seal
acknowledg
catholic
passion
waies
primitive
divinity
cunning
wiſdome
pretty
tun
holds
##orem
dublin
alike
faſh
prerog
rejected
rejoyce
concluſion
##ensive
wax
unknow
##burgh
##unction
164
flight
metropol
cate
condemnation
sorts
##uate
ſn
spaniards
wilf
asking
scarce
##quam
##50
erected
communication
pall
slight
freſh
imagin
justified
embrace
welcome
##icate
plent
##itan
##encie
arrangements
upper
mars
devotion
included
bounds
represented
perſwaded
burth
behav
##inge
baſ
##cope
##long
##iis
oppoſition
foorth
yeeres
ſeeme
nic
teares
demanded
##bl
##erving
##oure
theod
twent
##inople
friendſhip
restr
acting
##aind
meetings
comprehend
harm
vr
graunt
burn
rain
honours
compelled
unjuſt
##zz
stands
october
satur
joyn
wou
##abl
personal
weary
fors
judgments
ſpr
##ca
taſte
miniſtry
bloody
ju
sho
address
wonderful
scand
##assad
abſolutely
prices
pin
ſom
##itated
intreat
ſupply
paying
modern
wiſed
testimony
##ouſneſs
##poſes
##jo
sudden
chosen
antient
woulde
retire
compare
bookes
drunk
summ
apolog
accompanied
##ols
febru
##iſcop
injury
birds
shown
connected
renew
ſk
magiſtrate
moderate
beaten
##adv
lest
##tes
bef
communicate
corrupted
ſuffering
obst
entrance
song
acquire
righteousness
commerce
##ulate
pſalm
witneſſe
##quences
broke
ioh
oftent
poſſibly
diligent
aliqu
univerſal
deeds
leagues
senate
absolute
suffering
vow
grounded
latine
objected
areas
rivers
altered
popular
##gen
integr
converted
sheep
els
forſake
directions
aim
##ldom
etiam
diſcipline
recomp
##ming
assured
heretofore
cruell
sar
spoke
sought
aske
lose
september
coast
castle
verſ
##reſh
##acles
basis
commonwealth
hoſt
##ding
##using
chriſtianity
##ously
myster
marquess
prevented
##ſſings
aſide
containing
destruction
endeavoured
departure
paſſions
exempt
ergo
realm
##ada
##cts
##ighth
animal
ſpent
##rence
elder
exal
faults
oftentimes
diver
##umn
brain
comment
ſayth
neglig
recent
flame
oyl
liable
ſoci
ſafety
49
194
mass
##ouse
accuſ
prayed
##ician
symp
##grat
meaſ
envy
ſaluation
ald
litle
sayd
##ios
rebu
worſh
ſerue
##omb
valiant
fulfilled
plenty
sitting
vouch
tract
execute
assure
sunday
december
sacrifices
alled
royall
preſented
grad
vex
##lique
rose
duplicate
cuſtome
replied
peoples
##ruck
strict
essential
imagination
##aires
jury
46
described
##ana
africa
ſetting
iob
territor
modeſt
opposed
precepts
##umes
satisfactory
##soeuer
reu
derived
naval
dreadful
fatal
millions
experiment
##car
##nds
obſervation
oppoſe
##iny
abſt
ym
bag
canons
numerous
heauenly
##itudes
appar
##aeus
##auſe
sympath
dio
luſts
owe
uſually
##reſſe
fields
ſund
complaints
workers
##ſom
introduce
maies
impriſon
lawy
quia
pont
vessels
returning
##iti
tenth
taxes
conve
oppoſ
sod
fairly
norm
citt
iacob
##itas
sufficiently
picture
##uable
##str
forgive
undoubtedly
ſeverall
quot
tabern
marg
appropri
nut
caeſar
vaſt
related
merchant
bridge
proced
assembly
spr
tart
nur
crue
fifteen
ger
university
allowance
buildings
infect
unworthy
unfortunate
lanc
ſat
##omuch
xx
##vin
armie
##pton
deale
deliverance
##ao
##etur
jeſ
estimates
bleſſings
##aria
hi
touched
ounces
##yes
neglected
disease
wed
belongs
neede
neverthe
chee
quoth
upright
driven
certainty
serpent
condu
moving
consequently
street
january
200
paule
47
parag
apoſtol
pom
prudent
preparation
ult
repair
##acious
##itory
##cus
profits
february
ſubmit
inferiour
testament
flock
soules
repeat
captaine
separate
owner
isa
seat
arbitr
unknown
fierce
myſelf
##ando
doſt
valour
##atively
vast
##itent
##iform
join
##omy
substant
temporall
##ouered
##rog
treaſure
divines
walking
minded
hosp
begins
##cible
exceedingly
loud
refuse
kin
grants
##ita
bone
obedient
##iſhment
thunder
51
##isdiction
##uent
invent
stars
ted
perſwade
accidents
popery
titles
epiſcop
returns
huſ
schol
eth
corporation
convey
statutes
expense
inſtruments
patron
rational
##ficiency
##orus
start
confed
##ested
os
##rial
parall
sleep
mines
tant
worſt
corres
damnation
challenge
controverſ
rulers
ano
reflect
fighting
forbear
marks
recolle
correspond
prior
planted
##onour
advis
##aire
##quate
##aret
ſpeciall
priſoner
duſt
regiment
remaine
ſuſp
dish
honoured
libertie
cult
training
explanation
##said
proclaim
##aſing
remarks
bondage
readily
roots
##ael
fountain
wash
##ſis
##emes
plaint
representatives
season
ſho
approve
deceived
herod
attempted
winds
miſchief
empty
commodities
battle
simon
griefe
rough
drinking
ſence
pensions
jam
##etie
solic
##leepe
##cerity
##uite
##lip
cured
##urer
encourage
188
unne
wheat
reverend
entertained
tyranny
unemployment
tent
prosec
failed
cot
vices
bore
settlement
abuſe
summer
afterno
##ola
loath
nobility
din
voyce
alexand
custom
commended
priviledges
verily
joint
mild
comforts
##rup
##ingham
anci
##illings
bleſs
giveth
reuer
november
friendly
##lement
wanton
brown
governments
inspect
ability
ſharp
parliaments
flower
induſt
cart
recently
##engers
arrangement
ini
social
tom
outside
daniel
licence
drunken
urged
luk
ell
aſſure
horr
deprived
##enger
alien
##bes
##iſite
telling
##iday
goodneſſe
ſmo
##ov
involved
diſtinction
admiration
youn
fraud
methods
zealous
##godly
useful
ſore
athe
##ett
followers
paines
drive
##ench
##bridge
##cked
##idelity
woe
pover
relate
charter
defer
##xion
##oly
buck
ſcand
faſhion
unhappy
mountain
diſpenſ
lux
prisoners
shut
holie
whatſoeuer
wiſedome
pear
induce
fresh
argue
palace
##itary
necessarily
medicine
votes
fold
forgiv
dwelling
sermons
##ients
ſhine
warres
infinitely
inſtitution
##inian
recommended
churche
meek
surpr
ſuſt
##inous
ſeruice
ſtead
soveraign
jealous
defended
##za
pecc
deepe
viſit
base
##ancing
principally
doeth
##non
circle
protestant
efficient
insurance
archbiſh
##enses
seene
leading
fetch
##ſſors
houre
briefly
##wr
demo
ſoone
##wick
corinth
effectual
type
mothers
excess
conviction
##aſion
select
independent
oblige
##onia
minutes
decrees
seeke
liſt
vsed
##appo
iii
ſtones
abſurd
##enſive
privy
##isme
yeere
ile
publique
unſ
band
deſcription
remind
permanent
cel
dim
sle
euerl
flood
yellow
paragraph
##ulus
quakers
study
american
##rian
acquaintance
faces
crucified
trinity
concerns
forgotten
storm
inve
##ico
machin
bru
intentions
begotten
antio
expedient
vertuous
contrarie
##ili
medicines
inclination
torments
##iph
annual
##ceſſe
treatment
definite
steph
eaten
clouds
caes
descend
inſtruct
##rae
##iscop
juſtified
eſteemed
plea
manie
##lain
##urers
pleaſing
extream
horrible
##orders
jun
purity
leader
elements
humours
##ception
create
moneth
enquir
propheſ
utmoſt
##ictions
ard
sale
distinction
illuſt
lively
refuſed
intelligence
flat
##icles
continual
sole
brothers
##fulneſs
aegypt
fide
bowels
subse
feast
welf
ſuperſt
management
##acie
prophe
ſoever
vid
malign
sovereign
creator
##fold
ſignifies
oce
ney
ſacrific
##omen
tumult
hap
nos
fals
ſinner
claims
originall
kingdomes
russia
diſturb
##ſhire
##atiue
wra
##rum
encouragement
cited
barbarous
ſunt
instruction
controvers
log
expound
compass
bodily
proceeds
puniſhed
foote
harmon
oyle
purge
omni
ſigne
iustice
ſignifie
ſir
deceive
immortal
priſoners
councel
##bi
ped
cana
faint
propag
comfortable
thys
mode
perpetual
ridiculous
candid
poverty
college
nigh
grate
ordinarily
obvious
ſubd
52
woods
##reſſed
emperours
cares
sev
ambro
##iſdiction
process
welfare
impud
final
inferior
phra
accom
affaires
bible
withal
exiſt
ſhoulde
strongly
ariſt
distance
riuer
sufferings
favourable
antiquity
runne
nearer
trif
recorded
commiſſioners
masters
advocate
ſen
gan
##iens
imposed
imply
diſcharge
frank
capit
ſhews
remaind
mann
##yth
effectually
##des
senſe
lyke
ſlight
abst
##bands
diſpute
machinery
magnific
compaſſion
##antur
island
ordination
engage
£3
lawfully
unclean
dull
aſſault
animals
reſtored
observations
unjust
laud
aſhamed
##ect
##cell
bringeth
ſlain
convince
les
fain
performe
amen
promote
ul
##mouth
lyes
##een
##wch
enlar
paſſages
witnesses
denomin
gaine
prevailed
ease
potent
ports
beasts
eyther
excluded
voyage
sorry
##oman
ſould
eccleſiaſtical
totally
sell
poſterity
##tell
##adem
##idity
visible
ciu
ſtat
setting
practically
hidden
undertaking
gained
autem
ſtar
transl
tear
proſec
ſtorm
thirſt
##eral
53
##cles
vſ
mony
##uſing
unbel
##inking
valuable
poſſeſſed
idols
##yll
poy
diligently
overt
reached
ſubjects
obtaining
patriarch
antioch
disposed
runs
joſeph
deus
coaſt
carriage
##do
treach
nov
cic
##lde
##col
companions
perſecution
delights
hiſtor
iv
indignation
##ſer
##ui
load
description
##cia
##inence
riſing
##enesse
agayn
mixed
average
properties
affirmed
nice
##ceſſors
enioy
indulg
diſm
blessing
prophane
tele
faction
saved
preachers
murm
limits
countrie
determination
mol
petitions
ſubt
publiſh
horses
deputy
ſilence
grievous
constituen
existence
ſheweth
##chester
archbish
nam
##reci
oppose
reuen
smo
damned
##hi
ax
illust
feele
preferred
dispute
explained
189
criminal
lastly
definition
cree
overthrow
barg
haec
ezek
ambaſſad
expedition
neceſſarily
##vs
motives
ſincere
ſtro
gri
store
afternoon
plants
debts
contradiction
ſaving
bern
ast
framed
partes
##wich
ſwell
##ulated
counted
appearing
55
eleven
auguſtine
butter
diſtinguiſh
affirme
ſor
ſatisfie
##lwydd
enemie
converſion
complained
##gal
coron
crying
farmers
proclamation
rebels
saving
prey
inſtances
martyrs
discipline
supreme
ſhow
estimate
appare
rents
singular
omitted
conceit
rude
ash
womb
sinner
canter
handes
##ura
70
pla
diam
sooner
earneſtly
##ban
ſufferings
institution
uſual
disturb
##ora
hunger
adding
precedent
qualified
confined
##don
ſtudy
hero
ſerious
ſupre
cleane
##otle
##antage
accomplish
phr
italian
corner
pale
beautiful
project
unanim
station
liues
##racted
industrial
cattle
gospell
##ni
scale
##uming
priuate
lent
166
canaan
establishment
##cher
effected
##fr
decide
unwilling
remedies
##rich
miss
tyrant
match
retired
eſq
clar
gue
papists
expression
mortall
ſons
rendered
certific
hereticks
continuall
miracle
development
competent
knowled
cool
colony
reioy
##itations
weapons
spaine
defendant
northern
##lers
counsell
eare
ſell
toler
societies
omit
##la
bellarm
strangers
ſec
carth
inclined
##curing
anſwere
governed
##pon
carefull
##illy
##oring
enjoyed
commanding
flore
spread
mistake
dum
sanction
54
practices
##ima
adjour
accompliſh
##utable
yard
instructions
neyther
oaths
##bo
##iced
crow
infam
lyfe
temporary
discussed
fright
perſu
clerk
fearing
judgements
approbation
whereunto
gregory
discretion
resolved
##lye
doc
wonders
aar
uniform
##ayned
ita
expreſſion
warning
bride
##umber
bent
vap
flying
dart
needed
superior
renewed
chuſe
diſob
eff
fash
courte
##iſters
infirmities
lion
##quest
counsel
deſcribed
ſpoke
equity
##amus
ſucc
pence
enormous
loſſe
arist
happens
instances
quoted
sunt
yong
##rage
engine
##ania
procured
300
tables
##landers
crosse
rot
##cers
exalted
treatiſe
supported
conſecr
ſecurity
lewis
episcop
kir
boaſt
##eld
sixth
propoſition
accompt
ton
spake
particip
##mus
beware
wing
apud
ſimil
arrow
representation
china
zeale
discharge
battel
reſpects
records
banks
##seph
proofe
paſſing
##irite
depends
mercifull
cenſure
mutual
behaviour
characters
moreouer
reconciled
##yne
faculties
proves
imputed
##mell
compuls
##kins
seruice
##iat
privileges
enterpri
evidently
##riages
conducted
meate
compleat
monarchy
collected
vvas
forre
grav
nich
heartily
magistrate
catholike
pam
sour
brand
uſur
expreſſions
imagined
ſhalbe
ſundry
canſt
##alls
arglwydd
relieve
##crates
conuer
including
wrth
aire
ocean
apoll
hes
##dy
central
jul
apper
demonſt
sex
humanity
preten
egg
accommodation
barren
inſtruction
region
187
##erent
huſband
tribute
refreſh
eſſence
##selves
ſole
praed
communicated
doubts
ies
ſeemeth
##ianus
joynt
doubted
compariſon
##uled
greece
drawne
cypri
denying
conqueſt
miſtake
occurred
demands
excuse
absurd
interested
instrument
nu
diſſe
mons
miserable
##greſs
167
##iol
##rh
##ince
submitted
##ancies
##alogue
propoſed
revol
attempts
foolish
appetite
ieſ
formal
dream
##ta
writer
notorious
ſayes
heathens
pel
worst
faithfully
wickedneſs
tranſport
temples
latitude
baptism
noiſe
caution
advert
tabernacle
##allow
dogs
eighth
165
##ailed
assent
tran
net
refuge
melancholy
bot
impat
row
168
##itum
##ugn
gene
meditation
ſhewing
##pire
speaks
comply
quart
burg
heres
##uſh
poyſon
catch
practise
##pay
ken
seeme
chair
growth
happily
confesse
flames
trades
colonial
##gie
perſe
shortly
hic
##ikes
dies
devill
prophecy
liken
garment
fortunes
##upiter
greeke
trueth
bic
augment
mund
##cep
scottish
admire
appl
dor
lap
##umpt
commandment
rely
register
originally
usual
enlight
##agger
inch
pleasant
thorow
##dict
glaſs
ion
uſeful
restrict
wyll
imprison
diet
##iations
pharao
train
vvho
lights
histor
nim
reprob
preacher
beſtow
##iences
dram
mit
mindes
declaring
poets
current
##bed
yearly
gor
jurisdiction
indies
##etor
funds
vnderstand
shape
odious
##iot
remainder
spend
quit
ambit
##teſt
dism
discer
homin
maker
check
##ceſt
##inks
requir
protestants
breed
strike
56
##ſies
liued
agus
giuing
traditions
deſpiſe
knowledg
finds
##iffe
ſuche
younger
disciples
integrity
lake
priviledge
clauses
deeply
##rist
ot
partakers
ſuddenly
reſtore
tay
repreſented
mend
##iana
flie
contention
cogn
bol
raſh
served
##lier
archbiſhop
female
inſtant
##play
deadly
##phere
ſpare
rum
thouſands
absence
nihil
mourning
destroyed
insist
rites
cub
##eſter
##ordinate
hwy
ſigh
attendance
worlds
famine
sonnes
urge
receipt
vital
carnall
townes
illum
aſton
harbour
ſtore
fitted
increasing
meete
filthy
anth
details
acres
tray
apprehended
conſtr
virtues
##untur
muche
itſelf
ſev
loose
##asion
mediator
myſtery
ample
enacted
representative
bears
##lings
noſt
decreed
minute
continuing
celebrated
##stone
observation
diſpoſed
miſeries
village
faculty
confession
wonderfull
cav
hated
##bus
tribunal
hills
soone
obligations
pern
deſerve
commandments
##pired
extrav
disposition
interfer
canterbury
##ucing
hearken
repub
reli
trum
justification
wherof
##ram
trembling
ambassad
voc
subsid
pompe
##idem
thruſt
wills
greeks
ouerthrow
armour
deſigns
##pped
sayth
##ete
prerogative
forthwith
emer
easie
thousands
##ipt
vom
schemes
iſraelites
stead
procedure
honorable
meerly
redeemer
task
curſed
whoſoever
conject
retreat
waiting
##erly
game
wits
winde
rav
departments
ſqu
cutting
trying
ddy
tempted
brut
writeth
caſ
gouernment
knees
militia
cotton
orth
veſſel
commercial
husbands
battell
##mas
##icable
vnderſtanding
nap
burthen
clay
flee
unex
mile
adminiſtration
universal
##inc
athen
cried
queſtions
pick
continent
corruptions
enabled
attained
superst
occupied
caus
ſeeking
blas
epistle
collection
##zar
aside
##cri
gross
adoption
##aſſes
garments
bonds
guar
##ounter
catech
preſerved
yo
aſſign
pronounced
pledge
leſſer
diuell
receiv
seventh
dwe
ez
plat
concess
damage
internal
inconſ
soft
pitch
voted
goodly
ram
happiness
bird
widow
##onius
lect
##ums
preface
imitate
prelates
tedious
ſeparate
##ids
oppoſite
finger
sence
ſinful
perple
injust
anch
diſtrib
industries
distress
worketh
deem
nd
poster
conflict
jewes
maintaine
oil
##actions
dive
settled
##ſy
##night
venet
##ancie
tort
##aued
nobles
expreſly
antic
gib
omnes
recompence
quarrel
enu
##cerely
ejus
foul
ideas
beneath
##rig
serue
hole
errours
dir
exhortation
unlawful
existed
diſſent
turns
painted
anſwers
##alties
##verted
veſt
##iners
tribes
aſſembled
alarm
aet
improved
archbishop
raigne
proſperity
preserve
beſtowed
redeemed
expenses
libr
doors
recovery
vvhat
marked
plato
holineſſe
justly
commandements
ſhare
ſober
economic
honey
##ara
eb
multiply
partial
##qual
auncient
interv
##attered
moiſt
ſonnes
applyed
purely
mourn
straight
extravag
abundantly
threatned
resurrection
##avit
##ston
miſs
attributed
##pers
possessed
##izes
poſitive
recovered
agent
feelings
iudges
genius
##zed
remote
square
exem
felicity
writes
notions
wes
##raft
durſt
##cion
boldly
rendred
ecclesiastical
pronounce
terror
interm
preſervation
hwn
lover
aduerſ
afforded
ſpend
profeſs
erect
faile
giueth
extingu
ſociety
##ques
arth
thei
maye
80
box
##odox
weakneſs
purchaſe
aaron
williams
vtterly
ſeparated
##auing
cad
57
penalty
##chn
witt
fourteen
##uerall
exercised
prize
ſalt
attending
misery
geue
nobis
##master
advers
rout
glorified
vehement
tribe
ſhed
beſide
sust
pomp
boys
metaph
##ower
corps
mock
kindneſs
fift
##crets
##onable
aforesaid
escape
twas
precise
##ignt
euch
ſcripture
alledged
clem
enterpr
venus
results
diſcovery
ſitting
rejo
##sing
##lets
mae
ſhadow
##chie
preſume
digeſt
juriſdiction
nevertheleſs
introduction
champ
tryal
##atical
contribute
##ſions
shot
yf
hem
dayly
##arpe
ſtory
accus
horrid
##ele
killing
ninth
experien
apostol
verſes
civill
privilege
deede
imped
stomach
peaceable
stan
bounty
##itatem
deteſt
tan
aggra
lun
requireth
importun
tremble
tail
craft
##erick
hollow
fashion
deſirous
uncon
##quiet
sums
tithes
keeper
##render
##auen
contains
couet
accompany
##riſh
yoke
offers
becoming
leaues
##ongeſt
penny
supplies
##rated
58
##emon
governours
anticip
mond
hau
impression
malicious
altern
providing
improp
shepher
##ggeſt
ourselves
ſettle
patr
confusion
adequate
scrib
sched
ane
admiral
perceived
iur
calvin
motive
mixture
ſees
knowes
eleg
edin
cin
##iage
forn
concil
andrew
fever
caesar
graue
ſerved
materials
inquiries
entertainment
##umm
conſiſts
ruled
##pping
woord
dispos
diſcont
utmost
##uſes
conceal
newly
leads
cabinet
counterfe
##righte
omnia
gratitude
tut
easy
teſtimonies
revolution
tempe
influen
moneths
##ba
##ado
guarante
##ructive
condemne
adds
cheap
poſſeſs
unnecess
keeps
scotch
##ruple
abandon
confeder
##otions
ſtret
elsewhere
duly
rocks
mahomet
deſigned
favours
sending
blacke
reserve
fen
ſayde
hal
preſents
sion
munic
eaſy
##rative
##thood
##natural
individuals
coat
colledge
hereſie
encouraged
creed
##gram
incred
plate
fundamental
ſeventh
induced
chooſe
ſic
prosperity
traf
chast
fingers
ſanctified
inches
merciful
aſſent
spect
efe
##idences
suitable
moderation
association
handled
modest
marched
exempl
conſtantly
poly
separation
talke
tertull
tamen
##ee
cries
innum
##iud
gaz
injustice
matthe
belonged
angle
sensible
entreat
##yce
bened
advent
##amen
provoke
sister
tranſlated
##yre
scar
parallel
deity
##bius
##otted
product
allegiance
greatneſs
silence
statements
1st
000l
prisoner
##ully
##cile
michael
pilgr
possibility
diſtant
function
adverſaries
##gate
dutie
merry
##ouſneſſe
darken
duw
batter
probability
tale
ieruſalem
##olent
##itatis
ips
ore
noah
ſolid
tob
raw
companion
##ioſ
trusted
kent
##agog
fiery
anyone
##ha
recru
##ulent
copies
impert
inconvenience
siege
##antes
affair
viv
exclude
goodness
chear
labourers
conformity
##yard
daun
reckoned
##geon
##bro
##bon
confeſſed
confound
##ause
greed
peece
budget
propounded
abſence
moone
remembred
sore
##nce
mayor
cheer
##pul
##outs
##imo
requiſite
excepted
##vell
contracted
annexed
depth
testimon
negative
wherfore
arme
fu
assault
usually
cyprian
abuse
propriety
cease
preſident
acceptance
heate
key
comparison
invited
##enſions
feete
dinner
arter
bour
ſilver
reconciliation
##going
euchar
##uine
##itio
agents
plaintiff
bend
beheld
stro
holden
nought
idem
pas
perish
deco
cambridge
ſets
salomon
boards
exerciſed
habitation
chol
##rs
##win
persu
£5
##icle
lamp
techn
deo
phariſe
cultiv
diſorder
expresse
##iors
##unct
needes
##los
hereupon
ſtraight
legs
review
adore
##ules
include
enm
##alouſ
perſonal
thyn
antichrist
##ilis
peſt
##racy
vvill
devoted
firme
fees
##oſt
sine
chriſte
mercury
respects
contribution
grey
mouths
cott
considerations
##ubb
##olas
rural
profeſſe
denyed
ſeldom
leo
maieſtie
annum
##ieged
vanqu
practiſed
housing
unleſſe
ambitious
buſineſſe
regist
conſpir
everlasting
##inqu
foule
suit
lyeth
howbeit
£4
##ſieur
imitation
purpoſes
##iest
subt
##rim
##kin
##lia
philoſophers
prospect
lend
##avery
timber
pock
augustine
cape
calm
maced
reſolve
captivity
ſaide
cardinall
relates
ſacr
disple
##bery
balance
##rag
invention
edinburgh
##uites
thri
ſucceſſ
barn
landed
calamities
curse
hugh
construction
orthodox
##nell
diſpoſe
inflicted
candle
imported
maine
##fty
doubtful
knock
pleasures
angell
impl
weeping
unfit
helps
phraſe
imports
everything
pole
##forth
marſh
rising
appreci
##ded
maintaining
seriously
##vi
ſine
pluck
haw
receives
quis
aſſo
expence
beholding
regeneration
treason
finance
block
deuill
distinguished
canada
##cians
sathan
whiles
guardians
regarding
ſtrike
##moſt
souldier
##lla
ſhot
pharaoh
moy
wool
66
ſometime
discont
charitable
delic
undertaken
##arius
wishes
##uries
meaſures
##met
phrase
covetous
##orter
reigne
functions
eies
viſion
proviſion
spaniſh
hoſp
pamph
diſcretion
moder
##fortune
##erd
##chan
termed
science
##agements
##rison
##pit
##parable
perd
odd
circumciſion
profeſſed
omnibus
choſe
##iſible
##ietie
aged
proued
speaketh
ſwear
intellect
leaders
foes
trumpet
custome
saluation
##wyd
##ſton
center
wherin
##ici
fools
##aſant
incons
ſtranger
landlords
##ems
##inated
wand
ſiſter
commaunded
##afe
injuries
##oration
maſſe
boat
innumerable
convention
inſiſt
soldier
plut
accuſt
aſhes
arrive
concord
tranqu
alderm
competition
ſevere
vale
succeeded
##olence
sto
cock
##orce
##ros
conquered
186
worsh
emph
myſteries
guns
ſuggeſt
##bing
##xter
vigil
suche
ſtrangers
aur
abilities
sail
59
rag
endeavouring
ſucceeded
expell
partake
perpetuall
hypocrites
yw
ierusalem
dwelt
prophec
desirous
##edges
##piration
cyr
declares
romane
compoſed
travel
lack
pauls
##rofitable
tendency
hanged
realise
##burg
ranks
diſgrace
clothes
lincol
##ffe
incar
epheſ
encounter
breast
remiſſion
deform
ayre
internation
clerks
erre
oppoſed
quad
retained
arbitrary
ceremony
##fere
labor
humil
doctrin
newe
calculated
iriſh
judah
fidelity
franch
dyd
ſituation
decline
##ſi
##gard
ſilent
##iner
hande
fan
##verſe
domini
suprem
newsp
##ifully
specially
raising
opt
popish
applying
tog
##eling
discussing
miſtaken
impartial
##war
imployed
ster
meere
traffic
nether
guards
enjoyment
##eſs
majesties
coach
friday
ſignes
leade
conjunction
monſieur
fuit
##oul
obt
conuen
slaves
lovely
juſtices
aſſemblies
ungodly
streets
turke
survey
signe
ſtock
conserv
discovered
##aired
walked
##fol
naz
attribute
diſhonour
friendship
##ſelves
ſuperior
reuerence
valley
soph
neuerthe
ruling
deſperate
##angle
ſtronger
midst
diviſion
edict
subd
inex
inſtructed
obſcure
paſtor
gets
63
visit
ioyned
international
paſtors
convert
opportunities
shipping
65
sene
crowns
##ology
shoulde
184
mischief
yester
elector
threw
tow
requis
##ville
gran
shore
facilities
##ida
beer
agayne
##her
ſinned
roote
beget
laboured
bernard
thereon
obl
eſp
##ket
ſeeth
blasphem
efforts
organisation
termes
restored
adultery
##emen
hearers
regulation
irreg
sharp
whenever
righteousnesse
breadth
steel
##andum
exalt
wander
species
chamberlain
##gow
preſs
deſpair
experienced
lean
##inster
judicial
hundreds
traue
elſewhere
##reſſes
##itian
unde
##anda
ancients
400
prover
renounce
sundry
matr
##uin
miraculous
monday
guided
##urie
lan
ſtrengthen
snow
dissent
numb
fellowſhip
slaine
feeding
loth
naught
crowned
haſte
ride
incident
yesterday
##ieſ
inſomuch
loyal
apparently
profound
natives
litur
constantly
presbyters
fred
lovers
ſeat
stephen
faſting
##entia
ſow
vero
cul
ark
diſcern
manifold
loyalty
worm
correſ
##gue
##uration
abbot
glass
jealouſ
##llers
ſeeming
mightie
intimate
penn
loan
##ignty
nem
lodging
ſong
##lim
proposes
##eto
ornament
flag
##oid
irregular
repugn
sym
resolutions
appertain
imbra
obeyed
conferred
eloquence
encreaſe
correſpond
ascend
signs
barre
supposing
furniſh
emin
diſpleaſure
##uts
##acons
lock
reſemb
joined
62
humbled
64
diſtinguiſhed
##plicity
##ads
iour
acquired
million
contracts
inev
seeking
timoth
throughly
barons
merchand
lov
repl
tranſlation
reflection
unnecessary
interfere
hanging
##apable
##gency
trayt
answere
jeho
charitie
##ſday
##initie
clam
poynt
##ſoſt
spanish
legit
huge
kyng
forgot
hered
farmer
##icum
roads
inwardly
excommunication
arthur
aſſert
level
commissioner
ſtrongly
grateful
awake
workmen
imputation
##raction
authour
teacher
greene
venice
misfortune
century
cryed
finiſhed
stranger
tex
##cal
shop
##uſions
furniſhed
correction
##aſonable
ſignified
wised
eſſential
darkneſſe
punished
instruments
recour
drops
incorpor
swed
##aſter
innocence
accuſe
captains
adviſe
vest
dedicated
sheweth
burd
ingenious
cruelt
scope
pattern
susp
princeſs
talking
##rain
riſ
##ſſor
enforce
holiness
unemployed
vvhen
moued
blinde
efficacy
ſetled
companie
trent
municip
furious
louing
obiect
accuſed
##aper
##uli
discharged
shadow
##orted
defects
territories
elections
##borough
administer
sulph
rewards
sanctification
reue
humors
##usted
##erson
devour
##itud
##allowed
economy
skil
##gl
ſlow
reputed
163
hunting
##tel
##irect
uſes
groſs
##apes
kindly
executive
##urg
han
insert
binding
contents
knot
immediatly
speciall
debates
##aping
sympathy
nou
swear
lawyers
owned
publickly
indeede
lifted
generations
cri
##cius
forc
rebellious
scor
ſuſpect
90
rotten
degen
virgins
ſlaine
dia
solicitor
quem
proofs
allowing
harmony
##cun
treſp
praiſes
evangel
##ips
##cian
nau
##quet
multitudes
bos
mihi
vin
paradiſe
##rugg
##vent
artill
indirect
asham
##minſter
##ea
lung
diſper
obſervations
choose
quibus
hay
intire
customs
regis
recommendations
foundations
ſending
victor
mu
contemplation
##thel
precip
mak
officials
eo
##criptions
whore
corpus
relative
thankful
increaſed
carries
walter
congrat
pardoned
vvhere
##iated
dated
monks
flor
entring
##inians
iland
##ldome
inſtructions
worked
gas
183
judging
ſenſes
inſtituted
diſtreſs
grows
##ito
##rat
theat
deprive
weighty
perswaded
remaineth
manag
puniſhments
alterations
gn
##itis
ſhips
demonſtr
constantinople
75
unch
demaund
##acion
newes
volume
veins
abode
juſtifie
chiefeſt
brake
diseases
prompt
ſtreet
granting
extension
drag
wedd
jewiſh
##can
##agious
poteſt
##iſi
gladly
rud
bac
##fo
delighted
matthew
houres
ea
commaundement
schiſm
coward
enth
pernicious
addressed
aright
reall
61
##ais
##four
##uations
negotiations
waste
nights
recall
pace
improvements
indulgence
burned
happineſſe
conſolation
maſs
dol
arising
iul
demonst
thankes
##ees
incomp
crom
whatsoeuer
unlike
conveyed
dean
##dain
##cel
circumſtance
preſcribed
deſiring
gray
passions
censure
kirk
bellarmine
##mat
resem
twe
arrog
injurious
beareth
wickedneſſe
effective
slave
certe
thirteen
signed
tertullian
conception
penitent
inclinations
kindred
hearted
ſignifieth
##gi
consciences
surpl
deſcended
##mar
appell
institutions
pagan
pleaded
##ulations
entry
##guard
ſaue
morall
loued
boroughs
diuer
moue
conſumed
##erts
fitz
veget
conſiderations
based
abominable
ſeriouſly
##bey
placing
purſue
sincere
diſtemper
##cribing
intereſts
ſheep
deſerved
##bis
tac
ripe
##gend
advised
whileſt
##wart
behalfe
repr
parted
lieth
##ongeth
indiſ
readers
##acies
gil
publication
dukes
induſtry
roll
approaching
specific
britt
thorn
ig
affecting
eccleſiaſticall
##bri
arose
papiſt
gang
emperors
abuſed
iſaac
ſteps
peeces
comprehended
eve
thrice
##eſſe
bleſſe
extremity
martin
accused
ſpot
##loth
ending
losse
draught
##wels
prohibition
errone
##llic
christianity
habits
nephe
linn
judicious
ſixth
vvor
eighteen
westm
deaths
reconcile
sport
remon
recre
infected
invol
ſym
alexandria
##acco
mirth
ferv
purged
ſcorn
##ulum
default
ſuffice
inſin
euerlaſting
waited
##aunge
##aſmuch
apprehenſion
160
ſpecially
conn
manifeſted
##olate
maxim
pyr
##uouſly
revenues
##agree
plagues
wis
constituency
attitude
##faſt
cauſeth
confounded
##imately
fruitful
wretch
ciuill
angu
##claim
##pents
adjud
##erum
instruct
enterprise
reſpective
##vah
referring
pars
britiſh
lyon
knowen
mingled
philoſophy
nom
evac
##aus
readie
grou
foe
maſſ
mountaines
rib
togither
healed
seemeth
terrif
coulde
orange
qualifications
ſuſpected
requiring
iniquities
severe
succession
tons
##iection
vnleſſe
rais
wilde
fert
supplement
thanke
employers
offenders
daunger
unfair
ſpecies
cyrus
incom
dung
handle
noſe
pursued
##theless
cave
peters
oration
lungs
diſcharged
recip
technical
fuer
occupation
letting
enmity
avoided
clim
managed
##ishment
##rep
herſelf
merid
glas
weare
innocency
##uste
##shire
delivery
68
forſaken
grievances
commendation
ſafely
midd
answers
nevertheless
horn
dost
feeble
vncle
using
##hall
aris
shalbe
hoping
sab
deleg
fran
##ſons
substantial
reioyce
aggrav
wherby
annoy
conversation
balfour
flux
mou
##low
powerfull
ſhore
##ſtone
villages
groſſe
zach
chapters
##cration
payments
governing
##add
169
weſtminſter
rex
shewing
volunte
cleared
cong
nost
profeſſors
ſubſiſt
dust
aer
counſels
pressure
renders
oppreſſion
72
outwardly
titus
obtaine
dock
campe
hardship
dow
##lemne
162
##ilie
accordance
##cit
caught
ſhape
peers
prohibited
amended
predecess
juice
##bat
poland
supplied
ſeruants
flowing
catholics
changing
bere
modo
enrich
plainely
treasure
185
oli
beside
gardens
lodged
occaſioned
##enn
dragon
neut
pursue
defeated
saturday
genuine
witch
devout
nerves
expoſed
conquest
quench
drowned
humiliation
representations
athens
tibi
shillings
orderly
courſes
vessel
foregoing
gh
earnestly
centre
##wi
contentment
vnf
amid
germans
ornaments
##inis
roſes
cly
curioſ
negligence
unrighte
showing
distant
##mund
restore
iudgment
vnderſtood
executors
euident
##dam
wag
holde
protector
ruler
bands
couer
pair
anab
christe
pictures
hypocri
fellows
penalties
penet
mariage
ſtick
sigh
siſter
repeal
confirme
purple
convent
conſequences
eſcaped
##usse
enquiry
ſcriptures
heauens
ſouldiers
tied
romiſh
representing
rapid
eggs
swell
endow
arrival
##utory
schedule
anti
repay
slain
##graph
surprised
jones
maiestie
sometime
freedome
##ensed
aspect
consequences
neceſſarie
##uals
hit
preparing
ſecondly
serving
##pool
##eret
terme
##ieur
territory
##cery
forsake
##itably
sixt
unſe
postmaster
traged
ced
designed
heire
compound
commanders
explic
##ynn
##acks
believer
chryſoſt
impe
##rations
##enſible
delicate
hyd
##creet
repreh
eternally
tin
vary
dedu
ſhortly
purgatory
hug
earlier
##ayle
darke
dru
##asonable
gently
instant
addreſs
oedd
cog
metropolitan
conuenient
passages
councels
kindes
rehe
rou
rabb
verdict
impious
cook
##deſt
naples
caſting
##rell
discours
##whel
fruite
perceiue
boil
spare
diſobedience
wiues
perj
doore
talents
atque
analog
admonition
preventing
iu
prouidence
anybody
anceſt
diverſ
neighbourhood
deſert
staf
ker
bese
railways
eldeſt
cardinals
signifie
gay
arn
##enna
##ilius
witnesse
inl
##ocke
ashamed
fearefull
indict
withdrawn
didſt
monaſt
##rians
neighbouring
goodnes
seuen
darkness
ordering
##illa
##ulo
vigour
##fts
recommendation
anabapt
wet
oppreſſed
incour
limitation
jon
leaſe
abſent
tryed
wisedome
pon
aber
##elter
ouercome
miniſtery
ſem
manage
obſer
ſport
##uſtice
deputies
flies
benches
twelue
peſtil
towardes
lloy
eſay
anointed
##com
##teene
wisdome
accuſtomed
arra
foreto
distinguish
repet
rhai
##eman
persecution
leon
operate
composed
exhibited
phariſees
positive
##icion
furnished
perse
alluded
dome
doubting
vinegar
preceding
suddenly
clement
draft
##pper
##iques
consum
##nant
oure
ordain
undone
attributes
tyrants
pretences
lame
intit
bluſh
##cribes
##cht
hospital
continues
brad
pt
extract
exceptions
##enus
regiments
borrowed
worthie
teſtifie
ſtom
##yt
##lix
twentie
baſt
150
contended
cicero
reuenge
riding
sees
##actor
bib
ſtruck
preſumption
lud
martial
miſer
municipal
consecr
petty
##erated
warr
inquiſ
##illes
injoy
anteced
anton
romanes
intends
completely
queens
taste
backward
ſleepe
experiments
stamp
salary
portugal
disgrace
stronger
everybody
##rue
threatning
tobacco
ſhake
whereon
labouring
supremacy
combat
inclo
auſtin
##itating
##ampton
membr
slaughter
##bel
pretending
az
successful
nid
##auch
intol
producing
catholicks
award
esteemed
lloyd
attached
allies
lordes
poured
needful
tending
humor
upwards
ſimply
##bre
shine
struck
ſtart
maiſter
extant
perswade
efficiency
arrest
subiects
kindled
caval
beloued
##holders
fearful
dul
differing
##iders
##grate
sult
texts
aston
charms
nicholas
certificate
##appoint
compaſs
ſate
iſle
burgh
foll
##iected
sober
glut
vnderstanding
blessings
ego
assert
impoſed
performing
##idels
monument
sow
alledge
endured
##ateth
horror
ſettled
beseech
argued
engagement
tread
appr
##utors
oth
solid
addeth
##ests
westminster
##iring
##fluous
##angled
salaries
aſia
vicar
frag
161
park
perfections
cathed
trading
##ras
##ost
twentieth
##rill
boats
commence
ſwift
67
conſecrated
progreſs
furthermore
daye
rip
enforced
##asmuch
criticism
obſerue
sanctuary
##yled
founde
alliance
tinct
abandoned
wer
##atures
spite
throat
tall
impose
idl
thre
adjourn
presume
specul
fulfil
preparations
beds
grain
ascertain
hood
mole
offe
frail
sincerity
##ifice
audience
reigned
worſhipped
victorie
##ources
diſpenſation
poys
club
permission
globe
neb
ſeuen
##ſey
##cepter
ſaued
dion
petr
chir
forfeit
vniuerſ
secund
distribution
citizen
dignitie
propoſitions
##payers
##iſſes
propound
geuen
conſtantinople
listened
thoroughly
essence
deſpiſed
laure
##amin
flanders
bark
applications
window
tempeſt
islands
meddle
##mark
marble
aux
herbs
ſcho
trau
##ilia
##vis
felic
myſt
fountaine
##odes
hearty
iew
conspir
##enſed
foretold
whoever
glasgow
gathering
propoſ
##arre
belongeth
doings
harl
##rius
indef
wiſhed
glorifie
patent
##face
infidels
beho
harts
refresh
roger
profane
cuſtoms
yards
##cast
bulk
compulsory
estimated
appeares
##lyn
scandal
salis
ſumme
investig
##icular
fortified
nobody
holes
proſpect
tres
quin
quietly
edition
bargain
mechan
goodnesse
69
transgress
ſealed
rebuke
aven
ſpec
justify
denie
refers
##din
nunc
erroneous
electric
damnable
##iad
kinges
beams
legislature
exerciſes
governors
heal
allead
apollo
chart
houſh
deum
diviſions
secular
equality
franchise
scene
interpreted
comforted
lor
ſinfull
caut
tomb
reception
punct
##iary
timothy
mould
beautie
##umbling
anchor
##ella
raiſing
temperance
accust
minority
complic
infin
hann
triall
begged
confessed
solution
uphold
pressed
diſſol
defiled
ſtandeth
beneficial
favor
edge
languages
promotion
##pulch
improper
homage
conting
obſerving
princely
affirmeth
meſſage
painful
hip
spot
potest
##urus
##ſum
partie
satisfie
prelate
happie
sentiments
vnp
prick
##xton
forest
##oward
altars
praier
prolong
larg
##amb
fortunate
##oret
artillery
brook
fry
vita
showed
tythes
myr
preu
##chiefe
aeth
euange
diſſolved
argent
denomination
brig
amm
invite
append
copper
troy
blew
apoc
frat
furnish
convicted
congregations
purchaſed
expoſition
lane
wholy
athan
egyptians
celeſt
european
recey
joys
deter
consumption
##anted
##wyn
adorned
##atour
groweth
diſcourſes
##anges
anon
expert
##iger
mistaken
uſing
iſlands
plunder
eager
falleth
incredible
syria
harme
enlarged
##uert
crooked
exert
ſucceſſe
hungry
eum
grievance
158
healing
removal
admired
unite
aequ
boſom
ts
hire
awa
electors
haire
##ideth
ond
costs
phyſick
##eraigne
tormented
urine
ſtrait
reality
shews
600
onelie
ware
miners
reckoning
blaz
ſuitable
fi
ddywed
bury
suspend
##ways
##atius
saxons
forb
deemed
captaines
violently
trained
##hu
jap
proviſions
heires
lusts
decent
senses
immortality
western
##olid
reſiſtance
habe
brim
treatise
hindred
##aux
valuation
nin
thrust
78
aſs
##ograph
quint
ſhining
signes
##house
ſto
mul
##orters
suspic
calamity
##cho
believes
godlineſs
synagog
waves
ſhewn
lodge
interesting
aroſe
ſeized
conversion
maie
##times
meaneth
weapon
ſpeedily
erat
offerings
burne
foole
illa
durham
##ioned
assess
73
draws
iudgements
##usions
tha
godhead
behinde
motor
calumn
externall
quantities
##ilus
bids
swift
smaller
source
edification
recollect
aure
alleged
regenerate
fitting
beauties
hereſies
origen
perceiving
ener
##wall
31st
victorious
removing
deacons
beings
##ints
threaten
attract
impen
quote
kil
soc
aſſoci
##atched
neceſſitie
psalm
amounted
immod
malt
conſiſting
houſhold
taſt
poiſon
feſt
defeat
convenience
saue
fits
rab
qualification
alc
fulfill
inhabited
concurrence
agitation
lordſhips
expressions
rewarded
regions
linnen
ff
ſeated
compr
voluntarily
grieved
dou
quidem
transferred
##ruſt
provoked
ſuppoſing
guarantee
mouthes
durst
burdens
maister
adams
meats
cell
mathem
iudas
around
lodg
gramm
ai
179
counterfeit
plus
assume
##ctor
chambers
telleth
##cheſter
hook
personally
omnipot
excite
enlarge
galen
anxiety
sap
trag
sodom
unfortunately
ſtrive
baptisme
captive
authent
patiently
pir
program
lig
philoſopher
pater
sets
concealed
hercul
magnificent
wooll
inflamm
pipe
corpore
leauing
divert
lets
adorn
ſends
benev
injured
vvere
habet
dix
alternative
layd
phyſician
couenant
chains
4th
invented
foreſaid
completed
incline
wilderneſs
perplex
wrongs
##pation
bald
pillars
##uet
waſte
circular
##zing
##annes
pages
til
fath
71
excre
serpents
##aeth
valued
posterity
pretious
worms
firmly
propriet
mall
##enſis
indis
allowances
amazed
##rane
monk
methinks
##gage
reſerved
ſuit
groan
£6
oracles
tune
elias
74
##arian
yere
sulphur
##ſay
##usive
anni
impreſſion
terrour
geſt
##itous
riot
jupiter
asia
proclaimed
infirmity
dip
cannon
blem
adoration
##verse
redd
adventure
imaginations
##iop
shows
respectively
homer
pitty
entering
apology
perſecuted
plur
##adel
##uum
dew
relieved
bleeding
lambe
horiz
##plic
##inde
amiable
cork
effectuall
needfull
pleaſeth
coe
embraced
maior
professed
concession
clos
##ufficient
##giving
fewer
ſeparation
toll
##inum
##ſſive
##itians
stret
##emus
waſhed
bestowed
overse
pox
applies
treaſures
ſucceſſion
fitly
##urn
corinthians
borders
ice
correspondence
hebr
##ely
##aith
privately
tea
impeach
advise
lesser
ſacrifices
investigation
shr
venetians
dooth
reproof
conservative
heale
impatient
tide
claud
euchariſt
evangelic
premises
talked
inſe
##ders
##took
instructed
decoction
distinctly
dal
compoſition
dance
clare
interrupted
palat
vil
##itia
abundant
purging
battaile
ſhad
##ization
thirtie
instituted
incurred
injuſtice
prophes
cain
seeds
##moned
um
shield
warlike
ariſtotle
affright
repented
lightly
ſubſtant
cloaths
cod
##riment
ſquare
plough
renowned
hypocrite
##entes
sentences
##ira
##ceſter
roome
##amations
ſouth
pillar
##wor
failure
particles
##tering
aſſertion
feathers
##uw
vicious
##ga
rein
ferment
turkes
ſupreme
wonderfully
illegal
overc
ſydd
ſumm
plun
remission
constitutional
obviously
ourſelves
##iorum
confine
thirst
ferdin
nab
impertinent
lle
attaine
##adu
subſtance
claimed
expres
2d
ierem
battal
edmund
idolatrous
anothers
##named
malignant
liverpool
##aen
preſſed
amounts
##itiue
committing
appropriate
pilgrim
reveal
ariſing
##ſide
comparing
inspector
ſpirite
ſignification
gul
reflections
inserted
defined
mounted
thinketh
assembled
lions
garriſon
lamentable
lewd
ſacrament
suggestions
replyed
sangu
wils
judas
lang
derby
hynny
lum
##ani
lawyer
scorn
◊◊
pig
repugnant
voting
mainly
davids
henceforth
inviſible
truste
controverſie
chancery
markets
victories
derive
nail
fires
laced
##agh
refus
shad
conu
domest
oxen
carrie
socrates
attent
iews
promoted
forehead
contriv
saxon
purchased
##iii
noon
herb
border
unions
hospit
guid
##uaile
corrected
##utor
abo
fib
contributions
diſgu
mightily
surplus
pack
irr
angles
imprisonment
deme
##vous
remembered
explication
slow
prophan
maur
novel
longe
##aved
perill
factories
##akings
unexpected
iourney
exter
compassion
chain
nis
manchester
hercules
parable
ſhewe
niſi
ingrat
promis
##avour
undergo
circumstance
chalde
victuals
purſued
wels
figur
wold
temperate
77
jerem
rober
jerusalem
capac
vigorous
treaties
accompliſhed
finished
steward
##burn
reprobate
plen
applicable
adhere
ov
hob
impiety
medium
##ik
reap
bothe
travelling
tents
doubtleſs
miſtreſs
##ppes
falſh
highneſs
advancement
depra
ruined
bail
rhetor
ſyn
ioseph
##opes
salisbury
virtuous
ſpeeches
manufacture
yt
##uere
demonstr
##bra
intolerable
subſ
nouriſh
trun
##advantage
lee
##ashire
ſecretly
fornication
##cester
consists
forſo
deserve
parishes
##iuers
theolog
ambroſe
austral
ſcor
meridian
ſworn
prevailing
certayne
dumb
##nam
thigh
ner
dismiss
aſſigned
inconsist
concup
faine
translated
##unci
76
ſubjection
comed
modeſty
terra
dreſs
republic
lightning
unbelief
propoſe
epiph
lancashire
perſwaſion
##akable
urgent
##aign
tour
ſplend
exqu
monuments
mewn
wiſely
preservation
##xx
oracle
appeals
propheſie
lyons
impriſonment
commiss
pelag
separated
pare
melt
flu
syll
holdings
vpright
lep
ſtout
arte
artificial
herbert
affords
ſicke
meſſenger
buſh
ventured
ſeede
ſervices
##nance
##nded
ſlaughter
##ulis
constituted
##reys
requisite
##off
##hed
statutory
##anged
anc
secur
fruitfull
protected
ſolic
dominus
fancies
ſorry
metropolis
ſincerity
matt
generals
neque
northumber
marvell
##nox
##oles
secured
scribes
illuſtrious
movement
looſ
majeſtie
preference
declareth
forgiven
subjection
accustomed
##city
equival
##uo
##naturall
daring
factory
##lihood
rs
bestow
brib
farewell
ſhun
levit
furniture
splend
tariff
marquis
dwelleth
armen
impoſt
bottome
soil
expounded
exists
provides
##andy
russian
ſeruant
bicauſe
emergency
epiſtles
##ghter
precisely
respecting
##ano
footing
crew
extending
hereunto
doeſt
masse
playing
equip
fug
incumb
awe
dispose
noise
diſplay
catalogue
miner
rash
sanctified
reprove
indicated
##lander
assertion
recognise
helped
proverb
expecting
mam
swords
trump
introducing
epic
demonſtration
##utations
haven
belg
unac
aſc
doubtfull
moſte
indic
mortification
##ſtem
previously
levied
boast
licences
blad
risk
apprehension
severall
lac
poſſeſſe
resources
eſſent
sel
terre
vanities
ij
inventions
obſtinate
transform
ſtrictly
penal
##oking
##ouncing
greatneſſe
##ijs
##abol
compaſſe
rejoice
obſerued
##itans
tame
licent
wept
domeſt
riſen
euil
affirming
ſpect
fellowes
##ificant
covenants
##onians
excited
strictly
sacri
vows
##fare
followes
slightest
prouided
canst
tyed
ſweete
pip
disposal
accurate
##cio
ſcar
shepherd
colleagues
ſex
disorder
reſolutions
tokens
milke
nephew
120
aqua
planets
egyptian
pleasing
practised
eman
inſtantly
ranſ
beyng
wheel
idolaters
##incible
proving
nero
adviſed
margaret
anye
depos
preserved
vindication
befall
scepter
falſhood
plutarch
ſhou
chose
##most
ruſh
meditate
northumberland
##ixed
infallibility
pagans
##appe
covering
embar
deserved
##ſet
problems
nt
breathing
tantum
##aven
rememb
inherent
ingratitude
tithe
deſtitute
trick
ſupper
unreasonable
reducing
##ilton
interference
##raine
159
anthony
seruants
ioſeph
ſmell
christes
curioſity
hiſtories
glaſſe
clergie
##idd
enters
almes
vineyard
shoulders
##uffe
wage
ſhillings
rocke
foraſmuch
superſt
seamen
concludes
84
gradually
##aſius
complement
choler
mentions
##ona
hierome
heretick
##opol
##ront
chuse
philosophers
giues
legislative
payable
chym
reſent
ſod
exempted
beholde
ſeuerall
bona
raine
##ester
##udge
suspect
##isons
soever
honeſty
sain
##ructure
vpo
apple
elementary
paſſeth
dares
disse
##icis
bigger
yeres
monaster
exig
warme
noe
altho
hypocriſie
ubi
##iau
overwhel
ſuſpe
baniſhed
warned
grieve
lande
consulted
satisfy
poud
tick
ny
withſt
sith
sele
athenians
depending
obſtin
ſaye
ordnance
philosophy
safeguard
birm
era
ſharpe
abolition
immense
wry
arke
condeſ
fulneſs
educational
enimies
poſture
disob
phyſicians
ply
prodigious
manufactures
signifies
maximum
ſoeuer
fod
##orate
achie
navigation
expresly
surrender
russe
ſeal
academ
shake
beautifull
programme
##rages
expoſe
formid
ſcruple
luck
degr
tiber
156
explo
absent
extreame
ſmooth
complexion
involve
memorie
finiſh
businesse
weighed
##aris
alreadie
indign
spaniard
peril
##cet
binde
mannor
sayde
##pable
birmingham
ſigns
knife
beleue
fewe
thicke
profite
consequent
conjecture
girl
stanley
contemptible
inef
types
extreamly
ſpeedy
manna
channel
stating
157
eleph
unprofitable
portions
usur
shed
equivalent
prouin
##thr
scholars
beleeued
sig
homo
elev
iudged
gad
compel
defile
parl
weakness
exor
gle
immortall
##lock
clauſe
heresie
##appointed
vocation
morality
theoph
commodity
baptiſt
carol
turb
##berg
laden
grapes
scient
deals
haste
diſpatch
prieſ
legiſ
ſecund
manifeſtly
##att
liked
tone
universities
pulled
ys
##iac
quas
perem
miſcar
denmark
tir
##ibilities
obſerves
##ayed
crimin
gouernour
##aſc
mos
evidences
extravagant
builded
deeper
##fortunes
oy
tol
memorable
##borne
restrictions
impet
meritor
lays
##ieties
vnlaw
wake
marque
scarcely
eastern
deuotion
uttered
blaſt
sympt
comparatively
guides
##bly
tast
bankrupt
plans
gravity
foreſe
couered
wilfully
ein
81
ſuccour
papist
beza
righteouſnes
jure
shire
patients
sess
marriages
dreams
penance
chwi
prete
trem
yeelded
melch
155
bladder
jack
deceiued
luxury
workman
##chus
hapned
##uld
eſtim
ampl
chriſti
tymes
periods
##peth
raging
woor
bree
trou
proceedeth
thereab
debauch
horns
resident
metaphor
79
chariot
truce
justices
intemper
nym
aduers
duch
ian
evermore
iam
abolished
exceeded
##oper
helping
nouriſhment
taxed
fraunce
aſked
archite
declarations
typ
yielded
excommunicated
fooles
heap
tranſgreſſion
propter
subsist
drams
##ableneſs
printing
ordinarie
gentlew
##nall
##iunt
eagle
pertain
oſt
stom
departing
divisions
oppon
##dale
rooted
##gery
arc
endeu
infamous
manufacturers
postp
ſupported
mountaine
##aticks
baptize
fru
intending
welsh
weaker
admitting
ioyne
failing
aunſ
palm
canys
comely
favoured
ſubmiſſion
duration
isle
rapt
abſol
tub
cui
tenure
commiſſ
pud
tartar
acknowledging
eden
sco
inhum
euſe
repaired
quicken
stick
##zer
agreeing
legitimate
anceſtors
discussions
bloudy
influences
silent
denial
library
vitri
adher
undertook
inspectors
deceaſed
affirmative
##ptuous
diſcu
gem
boot
fifthly
designs
bohem
access
##atu
martyrd
##atick
mystery
liking
cli
rode
squad
loans
prejudic
hony
##ilian
signifieth
##aea
dignities
inner
##ugg
##picuous
hippo
loveth
ſaies
exiſtence
ſpeakes
defending
ſixe
ſlew
mic
##jah
surpri
paths
hebrews
119
unbelie
177
perempt
expressing
message
wiſhes
recognised
pulpit
##ross
pompey
prox
##court
writs
memorial
perpetually
rehear
chines
ſimilitude
voices
escaped
wombe
obser
tram
petitioners
ſeeds
tranquill
##idings
tang
fulfilling
malef
##aks
holdeth
##ubſtant
approval
embaſſad
impudent
##pheard
contributed
##ex
sultan
##inem
breaks
threatnings
##fyd
sheriffs
anoint
ſeemes
##iues
catholique
ſail
endanger
kindness
sciences
admission
infancy
provisional
pliny
ſtomach
bridle
ſubſt
affirms
prescribed
tends
slavery
seneca
magnitude
wore
treating
provincial
suspicion
ſtirred
ſpared
88
pastor
enſuing
oec
obscure
defective
compli
compact
conſtitutions
unreaſonable
178
##uſted
cleanſe
coer
ſerm
indictment
miseries
cordial
meſſengers
##iſure
iniquitie
beard
joſh
##empers
82
doll
monst
prieſthood
statist
##aste
##mentioned
ſcattered
confidently
##lear
85
formes
connexion
predeſt
anſwerable
cyn
excepting
unlawfull
fant
prooue
resistance
99
vitae
##ois
tranſm
expectations
preferment
pilate
##apers
libert
celebrate
wherever
agaynſt
beſieged
safely
##iſf
implic
knee
blamed
liuely
troubleſome
rous
##agon
##cue
barley
##mod
eſteeme
joseph
cleere
ſtrongeſt
flye
sixe
sinful
requirements
deliberation
vexed
weſter
clothed
tempore
declined
sixty
##uents
##uv
subsidy
phill
dyn
##pection
lazar
##yned
ſcandalous
hers
##sey
thynges
belf
yorke
exemption
exposed
compos
coni
##oureth
independence
stafford
converſe
ſinging
5th
##ſius
£7
facil
daie
mes
proceede
commendable
conſume
ſted
remedie
ecclesiasticall
oppress
blue
southern
ſtrife
ſaie
taylor
muſick
##lime
89
83
hey
agrees
ephe
ned
reuel
##lest
bleſt
vag
flouriſh
##geons
rhe
incarnation
tenderneſs
dduw
repoſe
tel
cloathed
refuſing
reſembl
##ige
antip
meditations
mortality
##gus
reſtrain
feares
##inger
##isk
pyth
interceſſion
baſil
aristotle
bea
##isible
loweſt
##unition
diminution
easter
reluct
##mans
presbyterian
misfortunes
pastors
ſcope
tenements
##uels
siluer
theſſ
##ruth
golde
ſickneſs
pouer
twelf
ingred
86
volu
nerv
examining
strengthen
##agor
procur
eminently
87
illud
raven
thur
steam
composition
cornelius
consumed
kid
##estine
contemplated
watching
magis
##gro
gentry
preval
epit
pocket
aſtr
##veſt
pſalme
##iſa
define
sayes
appoynt
monſtr
conſequent
adjudged
braine
aby
depended
wines
##crete
xv
buying
propositions
consolid
pretends
interven
carthage
cary
countrymen
condemning
infallibly
document
ros
nymph
turkish
venerable
apparell
recouer
undertakings
polluted
range
blot
saviours
fable
pest
heretikes
sickness
tie
carryed
series
subsequent
pint
apprehenſions
grecians
poles
##rd
dividing
wreſt
denies
tincture
adverſary
corporal
qualitie
releaſe
legiſl
directors
omnium
antecedent
boſome
starres
minimum
danes
thra
conſiſteth
##isition
muse
##erting
religions
ballance
##enteen
acknowledgment
reſult
creditors
midnight
unav
courses
froward
conceiue
chriſtend
adminiſter
eclip
sessions
##nels
exhorted
swearing
##iuing
detained
frederick
betrayed
relax
liquid
vision
ponder
democr
allure
promoting
blinded
imaginable
poetry
fayre
preſſe
blaſphemy
inſult
perfected
##ignes
leaf
paint
stile
stu
vult
##acent
backs
vnknow
exports
ceased
esp
isaac
triumphant
sterling
##vpon
ky
weekly
treachery
schism
##aſions
grieuous
mysteries
jehovah
closed
spirite
offending
diuided
conſtrained
levy
deareſt
formidable
ſuperſtition
secrets
repar
corporall
cruelly
unanimous
lease
##raim
ſincerely
firms
dreame
poyson
anat
everyone
serje
impress
breeding
magna
verses
gout
oly
aſk
##pass
procuring
trifling
crop
##ndes
patronage
##nus
roberts
hil
fines
##inae
preuent
lacke
agaynst
poſſeſſions
inference
springs
sepulch
##eris
harder
eloquent
affects
impoſe
##iſons
##net
inconſiſt
unus
ident
saide
plentifully
perch
briefe
##ailing
complaining
attempting
hungary
keepeth
handed
beating
jeſuits
iudah
univerſity
prouide
##pert
ruff
pleading
acid
christi
fret
praeſ
oſ
quen
succeſſ
##oris
rog
ſucceeding
chancell
leiſure
moves
vio
##ordan
##alis
wilful
expired
ammon
vvord
conſtantine
testimonies
suspected
desperate
throwing
##armed
ferdinand
##mbled
eun
ensure
eorum
clearing
intreated
##uities
ſtates
revelations
patriot
hog
##archy
pſalmiſt
confin
jewels
greatness
vapours
##ſel
proceſs
ſtrain
##fulneſſe
##oures
chy
handling
sixteen
corners
sweete
accepting
signified
cures
sections
neu
courtes
##entation
jes
##opo
infe
##rah
dreadfull
##idious
russell
couch
dame
nit
abused
preciſe
ſayeth
necessitie
recited
driuen
interruption
##oueth
beleevers
patents
vnderstood
sincerely
bomb
muſcles
preſumpt
kneeling
rigour
tels
cran
trim
fuller
philipp
offender
##terne
haught
adapt
1000
apprent
silk
vnlesse
##ſam
courteous
##inas
reſtrained
neſt
neceſſities
appointing
91
ſuck
arisen
accuse
vein
##lster
bacon
activity
hamilton
expos
purſe
ieho
orch
earthqu
brist
approx
##thor
truſted
coloured
deſerves
abd
expences
useless
ng
heer
viſited
meritorious
mediation
negro
##oſity
intelligent
selected
therby
knit
norfol
today
anſwering
vindicate
betwene
cenſures
constable
quicke
benj
gouerned
desert
grot
african
resolve
moneys
iſaiah
rejoycing
normal
ladie
##ortions
dete
ratio
wandring
pepper
##rix
uncertainty
conformable
sack
##affe
iudic
forts
inconſider
sett
sleepe
96
meets
182
gon
ſcour
##vern
churchill
citty
iun
malad
ſlay
gratia
twill
handful
consul
violation
rival
quarrell
putteth
org
expended
appointments
succeſſors
ninet
delightful
flocks
##ayning
theſ
invade
virgil
thie
lofty
##intend
mining
##icans
abuſes
incapable
cheat
charm
abate
generality
agreements
maſ
assumed
ſatiſf
valent
superiour
reproaches
marching
rarely
##ese
euse
##aunted
lamented
singing
implies
resort
thames
obliging
almightie
ely
##lu
ſcarcely
whilest
peculiarly
##ſafe
succeſs
refusing
advancing
consisting
reserved
risen
closely
rear
persia
##ieu
caſſ
seale
twelfth
illi
chriſtes
py
conſtancy
endowed
funeral
orph
release
recourſe
deliberate
essent
ſtroke
adminiſtred
newspapers
proc
couſ
whereto
lav
fyr
impriſoned
ceaſed
laughter
plots
godlineſſe
liturgy
##cill
ſith
92
guardian
considerably
##ounds
ſecured
##inius
abrahams
conſtable
ſtreets
ahab
consultation
##verance
intimated
ſubiects
forming
edw
chiefest
arteries
vl
vitriol
territorial
tranſported
frequ
widows
97
monsieur
torn
politick
dod
trod
excellencies
mett
pierce
detain
scip
campaign
orator
aſſerted
lazarus
confederates
##rin
thief
##cis
sate
imployment
##hand
anguiſh
believeth
appealed
##rod
##fathers
therin
constituents
dishonour
##ifyed
phant
nere
##urious
imbrace
sid
acute
supplementary
maſt
students
thinge
perſecute
strongest
convincing
priuiled
excommunicate
complaine
stuff
##okes
rand
benedict
lett
interpreters
negligent
##fa
baal
bees
lowest
zion
ammunition
dried
weaken
fren
##bted
ſecrets
braue
derog
##umble
eaſter
cittie
##vnto
ſcandal
sheepe
ſect
meaneſt
inquired
thurs
prophecies
practiſes
aduert
sphere
dioces
yd
communications
angelic
iuſtly
ambig
gab
deſigne
perdition
unden
##aſie
collier
concluding
##andi
declining
maruell
£10
whoſoeuer
dealings
chryso
##thec
aſpect
praedict
grains
formally
800
ost
feede
eccleſiae
diſperſed
divorce
infection
barr
chaunce
hathe
##abo
poem
discovery
warfare
threats
byc
orient
multiplied
stories
folow
noſtri
poſition
praes
desiring
thinkes
cursed
##emn
primary
##roach
beginnings
##chievous
##zy
pup
israelites
dependance
ſentiments
95
##igration
ſway
supream
corporations
urban
##orius
insin
trumpets
pouder
cite
authorized
uncom
3d
secondary
stopped
exceſs
##enius
arises
chim
britann
advantageous
punishments
carthag
robes
demonstration
ſhr
coin
##ays
reaſoning
ſtile
fitter
crueltie
austria
inevitable
insomuch
countreys
peel
paraph
hud
eſtabliſhment
ſprink
endued
liveth
##mine
guarded
ephraim
antiochus
##jected
homes
##neys
ſtedfaſt
sard
ios
consistent
noy
iſt
##lant
diſcord
lur
##bu
kingly
florence
reſolv
graci
##rounded
adjournment
sut
hundreth
remit
fuel
ſanctification
teaches
severity
##rel
promo
prejudices
7th
keepers
seats
growne
strife
##gement
sedition
##rable
nathan
mutuall
##rency
talent
##learned
deceiue
songs
##udeth
theory
traff
##amped
stations
##owners
ſco
drie
necke
seventy
manus
descended
hac
produces
volat
summe
curt
pant
dozen
documents
drown
graves
quh
##achus
contrar
hwynt
tragedy
ditch
bou
quare
appreciate
compliance
gladstone
##idue
wisely
avar
fishing
vniuers
94
walks
hereditary
hut
fixt
represents
cough
clothing
improb
##fte
##riff
receaue
factions
##stant
administrative
thursday
##erunt
couple
successe
##areth
percent
improving
banquet
diſſolve
wickedness
civility
inval
ſwelling
obnox
##oni
ſerving
signification
crave
##vering
aduerſaries
fruſt
ſubdued
drain
veneration
abel
aliue
##itut
mankinde
iuda
fom
strugg
cob
ulster
occupy
announce
ral
chrysost
affectionate
ashes
wholes
charming
theatre
gest
recipro
ſting
limbs
bart
agri
181
ſickneſſe
colo
sacerd
ſixt
##wing
streight
ditt
prouince
deacon
geneva
toleration
##tha
site
marrow
horne
necessarie
prosecution
diamond
damages
##leen
dole
leſſon
mitig
chape
pregn
poen
kiss
tops
turkey
cecil
dice
colde
materiall
exagger
##ſman
assemblies
ambassador
fruites
darius
##ifer
heareth
revive
mud
lincoln
pressing
coel
##adh
deplor
adult
quos
deſcribe
pere
oblation
forfeited
couetous
##leton
lau
mob
compounded
womans
display
vanitie
##aws
smooth
vnion
floud
##itly
pou
superstition
roof
coronation
igitur
trials
indebted
symb
deaf
gratious
charging
beginneth
yeers
##ulſion
gouerne
whol
lookes
opens
##adne
ſhewes
suffol
ſcene
decisions
choy
##eb
aſſiſted
colleges
diſtreſſed
pamphlet
##erius
omnipotent
flattery
outrage
stocks
aldermen
ench
##etus
##dem
myst
tooth
eſau
philiſt
graunted
queenes
loues
reads
98
contrived
parting
##cientious
garrison
jewish
chappel
##yards
heede
##nis
remembring
fortitude
auoy
delivering
obte
ns
foreſt
enum
##lio
repetition
##entur
##irs
worthily
peer
wickedly
##vy
caried
violated
seruant
ſuperſtitious
applaud
drum
sects
drank
reaching
translation
replies
awaken
edwards
sworn
meal
croſſes
conſecration
cauſing
iupiter
##were
worn
chinese
learnt
idolatrie
thyng
neuertheleſſe
deſtroying
accuſation
##ruples
deluded
ſeldome
##ocations
deſtructive
widd
diſſolution
hoſts
herm
##wra
horizon
creating
imaginary
telegraph
wert
favourite
accomplished
reſtitution
ſli
presbyterians
ſink
##alled
univerſally
antichriſtian
##illon
debated
rif
flocke
ratepayers
154
size
##rust
admoniſh
vnre
ignomin
baniſh
saturn
##ensis
##anius
aetern
peth
progen
180
wretches
argues
##ette
awak
##ensing
depre
submission
assigned
##abling
deck
seldom
reſemblance
twofold
soueraigne
ſorte
monstrous
eſquire
##asc
filling
vomit
rooms
standeth
##xes
mare
##van
forgiue
enjoying
alms
##uis
ſweat
cujus
ſyſtem
educated
poſſibility
suffice
brev
regni
##agre
lime
rebel
bough
goats
extends
nomine
summons
dexter
gallies
stout
casting
riv
thes
begging
eighty
ſlaves
benefices
tryall
runneth
philadel
theft
myght
regulated
graſs
##alus
strat
tribulation
uses
leather
ces
##father
engagements
conco
aduantage
inspection
##onsider
ſtreight
93
pontific
incorrupt
detest
nisi
belfast
champion
##num
##conform
##tered
succour
cuts
speedily
mingle
vndert
seeming
practicable
euangel
##iouſneſs
##rons
deſcent
shewe
##aynes
liberality
affront
prevention
fired
embassad
perſia
ſmart
repreſentation
pri
parſon
callings
monſtrous
rigid
reliques
dit
asserted
actuall
respective
pledges
vos
labourer
inconveniences
##alia
arguing
falſ
##eroy
regretted
despise
frig
accurſed
##ndum
neareſt
moore
moll
mercur
gentile
loe
wals
vexation
ezech
##ali
vnc
murdered
serge
adminiſtr
fest
diſciple
dictates
grande
proprietors
amos
treacherous
northampton
ſheepe
diana
followe
dependent
adversaries
fervent
unin
##mont
trace
##ceſſary
philadelph
uſeth
determining
conced
perpend
quando
octav
ptol
##ensible
feaſts
levites
quarrels
professe
crownes
registration
cheere
supporters
anciently
diabol
tidings
controversy
neglecting
bydd
miser
possessions
cris
fores
natura
muſe
##vest
describe
studies
libell
unworth
chat
nomen
ingenuity
incont
moist
##held
##iſſed
combination
scipio
determin
announced
##fod
crie
£8
##ſhe
nonconform
aſcribed
despair
waſhing
ibidem
weeke
vngodly
furnace
helpeth
##raged
deere
diſtill
ancest
remun
samp
withhold
##inary
holinesse
allotted
perſuaded
ſhoulders
##acing
ſerves
paradise
commenced
waxe
thread
incumbent
critical
diverſe
aſſy
finall
farms
holiday
##ailes
laſting
contrari
##inctions
abiding
abuses
##iſsion
vnh
flattering
impediment
iuſtification
baptizing
kindle
amorous
profan
robe
rar
unavoid
poison
unsatisf
referre
supporting
politics
machine
ſour
cleave
##etic
appeale
atte
tranſubſtant
executor
importation
domine
preſer
inconsistent
numer
##fetie
unnatural
ſtal
didst
harden
roſ
wearied
reconsider
quantitie
myne
whosoever
traders
ratified
abbey
facto
obeying
neerer
liability
unbe
extir
controverſies
vot
ſixty
tales
##ſmen
auns
additions
ſiege
##aſſed
abhomin
presents
##iencies
interpreter
deficiency
falſly
draweth
convict
wares
architect
warwick
liquors
appearances
darts
yourſelf
godde
detriment
chaun
marie
prone
firmament
complicated
##ubborn
ſtup
iſſued
tues
discontent
iren
planning
deviſe
permiſſion
repealed
autumn
ſnow
exceptional
buſie
burſt
breaſts
overlo
valid
infidelity
deceitful
maxime
array
electricity
knoweſt
aſcended
153
elegant
timely
synods
giver
rush
tended
8th
sweden
receiver
feels
prouinces
impute
attacked
ſeing
planting
emble
demonſtrate
remitted
impatience
##geth
##rit
undue
airc
constituencies
participation
adored
haunt
##icia
alf
cattel
omnis
6th
##ti
smell
faced
##awn
##ych
ſtayed
allay
yeſter
##altie
ſtopped
spar
reſidence
climate
buckingham
sall
##rained
ruſt
apples
robbed
ſeale
reproved
worshipped
selling
levi
rese
conue
##ifts
##grie
inade
animated
ſoe
vncertain
diſcerned
proſe
baw
preſſing
headed
hack
greedy
doom
dress
melted
harveſt
pertinent
olymp
shops
euerlasting
##ſhed
whyche
conceiued
riuers
##daine
##olous
arrears
##opoly
babes
rack
eſſex
wealthy
revived
vnlawfull
gyd
##opher
orde
trustees
circuit
behead
##inia
##ocles
ruines
aloud
differs
anom
concernment
joyful
inflamed
joyning
minus
hezek
includes
maiſt
176
vndoubted
incenſe
blows
indifferently
driving
dove
excessive
diſquiet
started
model
##igr
obserue
haſten
awful
enquired
allot
drawe
fables
landing
operative
conſtituted
assisted
ſlender
vaniſh
auo
ling
brains
pend
##isement
guidance
felony
mission
monopoly
wormes
intituled
glou
rau
coff
earls
apparel
nulla
willed
##ema
feaver
markes
vowes
handſome
cuſtomes
enclo
##ersed
viii
occasioned
ariſeth
gau
beames
raign
obnoxious
aircraft
##qui
asks
##urre
praiers
frankly
sealed
vere
henrie
diſcerne
indefinite
transm
demol
gouernement
setled
receiuing
ſhift
incomparable
kitch
begu
buff
gild
receaued
displeasure
managers
remnant
gale
exile
engra
##ref
brute
lambs
begg
ſwallowed
proſt
commem
ſimplicity
brow
terrors
seuerall
ſand
successors
10th
ruth
interim
drow
ſolemnly
curing
glories
floor
luſtre
teſtimonie
ſtately
tolerable
tru
advisory
carpent
##actors
circumcision
beleeved
fasting
examin
conuerted
dancing
warn
inſpired
wight
renewing
sicke
indure
walles
saye
extremities
deer
overfl
happinesse
reed
confeſſeth
bicause
hurtfull
predomin
##omatic
employer
fortnight
penit
##covers
kiſs
imperfection
quic
hoſ
unkind
code
windows
domino
persist
savoy
whan
hed
##upp
bast
yeild
woo
professors
directing
##onement
iuſtified
shift
acquit
##tion
monſter
nobilitie
parcel
diameter
prima
pointing
waight
perſians
ſubmitted
paroch
succeſſion
tunc
pine
##vil
fibres
forbids
humilitie
conceits
convocation
funer
confuted
addicted
ſuperfluous
ungrate
##ceptions
essex
ephes
italie
apothec
angli
forese
anath
##urity
ambaſſadors
##rem
olive
##ilem
##uating
reſtraint
confute
alias
drunke
fulneſſe
contemplate
eſtimation
currency
shortage
congratulate
ſtirre
ieſu
##obo
swine
necessities
baxter
tuesday
##abilities
euph
initi
breſt
ſixteen
lex
diſtruſt
energy
calc
juyce
gum
continuation
tolde
research
indication
excellencie
##path
arrows
conuerſ
founder
margin
circumfer
boyle
ſwallow
##amble
eleventh
inland
weale
diſcontent
broth
statistics
##zo
boyl
tempest
##odo
ſtretch
deſper
cass
conſul
promiſing
whiſ
hint
frown
forbeare
phleg
ana
oppression
bala
strain
##olo
leu
eldest
benjamin
vnited
vali
hefyd
250
stream
bottle
meg
noth
tremend
pecun
meſ
accum
regularly
reſemble
ſua
magd
inconvenient
magnifie
ſeverity
gut
ambaſſador
communicating
cato
endowments
girls
policie
challenged
albert
wiſer
dishon
sag
evangelical
graciouſly
italians
110
stap
manifested
##deth
periſhed
vne
fiftie
discern
mayeſt
covent
string
forreign
scandalous
proposing
mynde
moments
loueth
aboliſhed
narrative
hail
diſſenters
benefite
issues
fiſhes
wouldſt
##olph
invincible
perjury
genus
eccl
reuealed
mau
thorns
ingenuous
ardent
wof
ſorrows
harb
flouriſhing
130
remor
losses
diſorders
bren
organs
visited
engines
salv
flew
fellowship
cypr
ſolemne
ſmaller
forcible
ſawe
paulus
weepe
excellently
legally
admits
hicks
##reſſing
tranquillity
moste
commandeth
lifting
ultimately
reasonably
ſetteth
encouraging
annually
##fast
sends
seing
spouſe
garn
guts
keyes
confirming
hanc
ſurrender
rating
tumults
compasse
fruition
securing
aſwell
conuers
uſage
mariners
captiv
parth
employments
unrighteous
makers
##ila
distributed
link
seeth
##git
prepo
vnw
vouchſafe
tarry
liberall
hired
ignatius
schoole
incorporated
abomination
discourses
##agoras
lodgings
straw
exposition
prouoke
constantine
presumption
diſtinctly
ocul
carc
australia
tenne
laudable
wronged
credible
woordes
##enants
buch
vns
##ibh
concent
confuſed
hinders
wheras
thund
candidates
breaches
imperfections
##rad
griff
galat
##mos
proportions
hungar
##lineſs
ſale
captives
reiect
##igible
courtiers
highness
vindic
combined
drove
threatened
refined
##ago
domestic
##put
partaker
headlong
##ffed
plays
bh
prius
xii
registered
##atically
hare
assistant
aunt
erit
stores
nineteen
cattell
ſung
euſebius
decency
shun
regulate
aberde
plow
laughing
##adventure
antid
imperiall
mete
caluin
commissions
conduce
magnanim
magnificence
kepe
waſted
bridegro
mov
consecrated
##ractions
##arde
prosperous
ſangu
patrick
bi
ſap
driue
phiſ
obserued
nominated
insult
behau
guild
syr
bass
beganne
worſhipping
infamy
samar
purſuit
certified
ſpoil
cyf
folio
conſented
convictions
fixing
controuer
yeſterday
adjourned
residence
##rued
circulation
marsh
30th
beam
causing
wonted
ſavour
preuaile
subjected
performances
remonſtr
wolves
normandy
defender
wick
coup
dearly
devotions
proportionable
categ
perſiſt
wilderneſſe
invaded
##oping
behave
chargeable
appropriated
eunuch
norfolk
tack
reſort
noſtr
recollection
##isms
ſtream
deluge
similitude
##iri
##abel
howſoever
##itat
bob
barely
loco
ezra
##ippes
cars
##atione
scr
reigns
witches
needle
##orced
exercises
metals
perſecutions
peſtilence
ſwim
emphas
managing
marcell
diminish
##raell
vend
maids
transactions
##ez
##ulating
maria
director
##underst
victuall
arabia
contentions
ſeize
unequal
enterprize
hedge
126
file
savings
hurtful
##pen
gown
conqueror
weſtern
inclin
manifeſtation
inconſiſtent
104
powre
cauſ
skins
grae
##imi
infring
eos
##atorie
##rend
taſted
meſſiah
adjacent
##asius
##iots
solely
##frey
lis
interrog
hospitals
nehem
##ruly
##ilee
marvellous
##ermen
beate
moab
##cesse
renown
mord
##orton
inſerted
700
serjeant
eod
##leb
blesse
superintend
maiden
ſtation
gains
misunderst
##ſpeakable
greatnesse
gord
disputes
##caſt
premiſſes
obſervable
oynt
percentage
surface
planet
veter
recreation
overseas
erred
mong
guine
britaine
denounced
##izance
seuer
premiſes
unlesse
hezekiah
murthered
withdrew
##gated
ſiluer
scyth
ſits
tye
donat
amiſs
harſh
pic
impure
##uchadne
rerum
sharpe
tranſcend
thankſ
iune
volumes
concerne
superfic
syl
presbytery
deſerue
dissatisf
musk
enn
advances
eadem
yielding
longing
lieu
encrease
inſpiration
##acre
vacant
notting
predeceſſors
lookt
proſperous
zen
jealouſie
##inck
##gia
villain
pry
wickednes
ſpiritually
commencement
flaming
##appointment
exha
ſmile
abominations
pregnant
forfeiture
auguſtus
##vant
pikes
burgund
persian
##urances
patern
degenerate
austin
ſparing
demet
drift
grosse
approached
##kshire
hardy
tua
fevers
burial
clemency
hallow
pho
aſleep
deſolation
keys
withſtand
aſunder
##core
scur
diſlike
abolish
##icae
vous
init
altering
rue
##irt
doubtleſſe
dispatch
relinqu
##amor
soveraignty
##anth
ecclesiae
avoiding
miſchiefe
deedes
villan
grammar
£100
ipſe
volunteers
diſpleaſed
ulcers
richly
##bet
##generate
agripp
forge
admirall
sue
cuſtody
beleeving
iuly
played
mourne
alderman
cos
ſwearing
saued
prouer
aene
geograph
ſtirring
allows
circles
wider
ame
ramp
moe
flax
brag
##onian
sentiment
peaceably
toke
trie
forso
##ifi
dywed
103
expects
lb
##afed
##chal
animad
games
hoſpit
tiberius
inse
amph
certainely
vii
15th
viceroy
aſſuredly
hates
poorer
ſhar
syrup
legions
ranke
invitation
105
pell
##ifiable
ayde
152
deplorable
beares
lact
whip
debar
embod
preiud
daſh
geomet
troop
pallace
wearing
170
##ſcore
ſuo
##pective
regent
dat
fid
deliberately
reins
ſomtimes
felicitie
wedding
abated
ultimate
beque
ſinning
cornwall
rings
peradventure
cromwell
simplicity
trench
##abil
physical
sweat
slew
annot
tren
boyled
oint
immoderate
suck
nemo
diminished
paſſes
controu
listen
knewe
harlot
holders
nervous
##oude
furie
140
secretly
newspaper
prayſe
teleph
executing
despatch
fearfull
xxx
##rington
containe
depoſed
##adeth
perceiued
chaſtiſe
##ibal
priesthood
##uſal
palestine
certificates
embark
##fet
appetites
spart
nottingham
inordinate
illis
banished
ſweare
attendants
jub
##castle
##courſe
deferred
implied
##iuen
cupid
##imer
contemned
admitt
trav
comfor
ſhaken
enjoyments
uniformity
joyes
preſerue
seſſions
trauell
esq
ſubdue
notor
style
irres
##astic
pem
##rings
vnitie
predecessors
##ffron
##icken
dissol
samaria
indulge
vvould
ee
associated
device
imposition
ſteep
oppressed
conſtruction
loos
acceptation
epistles
stal
ſhield
ſaieth
ith
devon
madneſs
ſatisfy
ioynt
sinned
succeeding
auct
wondrous
profeſſing
philosopher
whir
replen
ſeu
fitt
##tels
excellence
steep
cole
conceiv
diminiſh
comprom
remayne
hierom
ug
treaſurer
inviol
disagree
materially
ulcer
benevolence
cals
##ione
blush
ſecur
excluding
undes
augmented
butler
medd
manhood
eius
baker
sicily
strait
liu
verum
##anke
soeuer
mint
seu
homines
eaſtern
##lan
reformers
unm
##ryd
ſilly
forsaken
plural
##fes
becomm
ci
diſtempers
inuent
virginia
hindered
diſpoſitions
campbell
disgu
tenor
morrison
shining
feather
ſympt
eateth
quorum
unchar
##tency
maieſties
caſtles
familie
finish
sainct
wards
grove
##onie
##cha
hull
praises
counsels
ott
reliefe
features
expedi
japan
expelled
##uteth
ſeaſons
9th
opus
diſagree
consisted
besieged
wrest
112
populous
106
nig
waye
hadſt
thieves
jus
satans
keen
graham
acquitted
catholikes
sources
travelled
plentiful
weakneſſe
howard
circumference
preſerving
enterpriſe
##wg
##hips
licet
wast
glutton
##thrown
distressed
##pels
manye
appoynted
drinks
##while
analogy
purse
defray
##anum
rolls
cottage
beau
julian
##coming
laborious
conſiſted
roaring
##uſive
dipl
aliud
##certained
hoſpital
wasted
exceſſive
sway
legall
pſalms
ſuſpicion
manly
euermore
##orily
fleſhly
painting
imprinted
miſtakes
ſenſual
expreſt
trin
hew
##abas
##tus
complex
immun
plin
amor
dicitur
entituled
baſtard
iuſtices
ſprings
consolation
reſign
aliens
##thank
senior
synagogue
printer
##zes
bry
oxe
prophecie
diuels
gentlewoman
tartars
barbarians
hears
##franch
pariſhes
intimation
answering
sayeth
ado
wednes
restriction
repaire
##ridge
marine
cauſa
unsatisfactory
amidſt
ſibi
tory
shou
envious
##tur
beheaded
bliſs
ech
bush
tremendous
crafty
lighted
framing
condeſcend
counſ
spending
warri
##arium
repul
bite
oliver
assign
deſolate
##briety
powerfully
##esses
scour
##appro
cloak
subsection
ſtage
appendix
plantations
peri
map
gaud
doores
ſeverely
bequeath
nutme
rested
ſeuer
darling
seemes
authorised
dore
iddo
bonif
inquiſition
107
honesty
justifie
histories
##lications
##imulation
defic
damp
annex
vouchs
wilson
ambrose
pharise
ſollic
recept
ſurp
conclusions
agreeth
rector
vet
##vania
twixt
aſper
pays
definitely
diſpoſ
epith
enjoyned
indig
neceſſaries
hippocrates
epheſus
adjoy
forgetting
godd
##arts
drach
ſaints
senſes
defr
chryſoſtome
numbred
owen
ole
conſpiracy
productive
ſnare
##urten
##blance
inteſt
quaker
aide
doubled
patriarchs
fidei
loſſes
scientific
aſcribe
thereabouts
pilgrimage
kins
fieri
epiſcopal
bridges
meates
partiality
##aſi
##cribeth
claudius
undo
metal
##ario
wiſeſt
##abant
tranſubſtantiation
witnes
ſhelter
follies
mex
lip
turnes
joyne
corro
disobedience
ſpecul
interval
impot
144
violate
believ
actes
eaſier
##olds
caeter
plane
friers
bohemia
entertaine
windes
diſhon
##payer
whych
worme
brest
neceſs
##idas
inflammation
skilled
throng
braſs
stup
##iso
covetouſneſs
shares
surprise
ſtatute
impreſſions
incompreh
accusation
ſunk
unfe
verified
curtain
ſoldiers
##fell
howſoeuer
cultivation
##arn
furth
warranted
murmur
12th
preſby
skirm
rootes
payne
##aies
leap
prejudicial
exquiſite
##urbs
philadelphia
abrid
elab
graft
nes
superiours
deceased
ſignify
conſulted
miſerie
ſcience
##ynges
delayed
##utem
clearer
diſturbance
seated
ſweetneſs
praiſed
##otus
##icet
##aticall
score
excuſed
stages
inher
veſſell
cathedral
maieſty
leis
ſpark
##mael
forgiveneſs
impudence
aliquid
thair
factious
tranſgreſſions
christend
establishing
118
ſuffers
unjuſtly
sime
continu
ſtated
witty
wave
decret
products
willeth
sage
impoſition
impost
mea
pang
concub
provident
heauy
orle
ſignifying
gaol
mant
fertile
murmuring
confines
calculation
##round
nose
creditor
spin
withst
##abit
blown
craue
brick
across
ara
nurſe
seditious
##chel
ſtopt
acknowledgement
##aneous
hypocris
yow
mental
allied
captiu
suppoſe
stroke
iude
doone
diſputes
withdrawing
retirement
easier
ſanctifie
treaſury
plag
turneth
hars
##ills
aimed
leve
conſumption
perchance
oak
assumption
jug
curios
congreſs
##anias
eodem
tion
amal
guy
scruple
##mount
travels
somers
verity
necks
hos
putrif
mutually
disturbance
majestie
heauie
forgiuen
specified
ſecular
perpendicular
##ovation
index
surv
ipse
101
lamentation
revolt
dde
repell
preſcribe
ballot
lob
herit
dialogue
##set
##avers
tricks
##lay
##enance
belieue
sr
##cibly
pestil
moiſture
mediter
disadvantage
applauſe
duc
##wered
bonum
witne
depriued
hujus
mck
appurten
aberdeen
##onant
ſurv
aſſume
primo
childrens
##gies
briſt
middeſt
deriv
gel
ſcore
rice
reſerve
##ranean
##idit
ſpeach
certeine
allan
ſignal
eſa
magdal
coh
watchful
seized
amounting
defiance
forra
whereat
verba
dispensation
pleaſes
hereford
ſue
journal
vested
##quid
happening
mineral
waite
retaining
debtor
indirectly
pietie
zealand
awaye
gallery
amity
intelligible
longitude
cherub
wofull
ſuis
beginne
reaſonably
adrian
conveyance
apparant
warmth
sov
vſeth
madame
guiltie
boiled
##byn
102
oddi
reſted
vobis
differed
leadeth
capacities
bitterly
colum
##inoct
retail
nest
rays
##ordination
vniuſt
##iarum
dirt
cavalry
##itu
causeth
##loc
##angeable
males
grotius
intric
##asant
##rical
grecian
cheſt
traytors
mature
mills
moor
facility
amiſſe
atchie
ej
rapidly
##inson
clad
wyne
intellectual
strive
lege
perſian
findeth
superv
angells
##ippers
phyſitian
contag
repute
exported
forcing
traytor
sli
vttered
towers
arriv
pardons
pitie
wolf
gaining
151
esay
unlim
prevaile
pulling
ding
ſupplied
121
bowed
##oft
##ky
divell
aſcenſion
munitions
gilbert
20th
twere
meſſias
infidel
proſecute
##lton
quoque
closing
hurry
suspended
aus
ape
##aied
inadequate
regiſter
theodoret
abhorre
crept
grau
avarice
enabling
indicate
01
foreigners
cann
devices
context
vowed
##ori
lingu
terrified
##itates
exceeds
rigorous
##inton
##ayes
ratione
pled
##cied
farr
ministery
musick
##kers
opera
arith
chryſt
perswasion
doers
extracted
sectaries
##eys
coals
achilles
conteſt
nouriſhed
pilot
regal
mentioning
insisted
##pheme
exe
giftes
raigned
fortie
scattered
meekneſs
##edding
honors
174
receipts
spleen
##ouing
directs
##ulary
##glas
foresaid
parce
falshood
##ew
spur
norwich
##oboam
democ
paſſive
charters
burghs
horrour
onlie
turkiſh
##ſive
foreſee
monkes
rejection
hornes
correſpondence
observing
108
faireſt
thornes
feigned
winne
released
eue
1s
playne
ſuffic
eusebius
erection
ſubſcribe
wilfull
whored
superſtition
epiphanius
expir
cruelties
woes
conſcious
##odie
romish
pores
dreames
mediatour
thi
doubtless
sci
##urable
ventric
worker
canal
##uant
neat
purchas
patrons
ſearching
corresponding
##ithe
ſaint
promoters
spared
forever
##wort
##omons
ſtiled
##aunder
enlist
forasmuch
transaction
harcourt
destitute
wednesday
##auntes
fydd
##udd
##llerable
ave
##quitur
reflected
reſpecting
travellers
venom
interview
diſdain
crack
enthus
##istic
reſiſted
threefold
ras
##regard
subsequently
exchanges
finite
ſett
##oli
vines
##pha
hollanders
conspiracy
ſeaſonable
gom
gentl
anticipated
ſtil
containeth
hadde
ſerued
curte
11th
rendring
legion
credite
##force
torture
quantum
disclo
trenches
monmouth
##aime
aſſigns
barra
bodye
blemiſh
remaines
##iffs
conde
robbers
scal
opponents
ancestors
encl
intercess
##onne
horſemen
commodious
accompliſhment
sibi
cumber
unse
thanked
##ef
councill
crowd
modesty
senators
substitute
inasmuch
messenger
earthen
reclaim
shelter
variance
ineffect
abounding
eche
##ircum
175
bowing
centuries
plaiſter
gregorie
invisible
memorandum
dates
unple
forged
##will
proſecution
beliefe
awakened
14th
nebuchadne
sustained
arriued
passes
apoſtolical
bleed
benign
contemn
grandfather
forefathers
entreated
compri
doſe
robber
recount
uſeleſs
unhe
opium
##du
endleſs
cir
englishmen
wells
illustration
pond
sollic
##iep
vigilant
outrages
prieſtes
tacitus
bristol
florent
triumphs
extensive
beef
cottages
oathes
contending
vienna
pipes
##version
diuerſe
hector
mistakes
canad
amazement
weights
##ilio
ſuppoſition
conquerour
concupiſc
celest
##othe
herbe
consumer
125
chel
organis
vincent
kinge
##cor
possesse
intirely
deputation
arranged
conveniently
##umen
fills
largest
putref
cyprus
fauor
agen
promiſeth
##ran
tanquam
structure
##ardy
intercept
ſummer
receiveth
defraud
circumciſed
infinit
abstract
cheriſh
exclaim
ceremonial
selection
greekes
##onent
forbidding
dund
casual
mover
brutus
glasse
inevitably
vineger
1914
testifie
##olations
aſſumed
##uously
##lington
plentifull
hie
wipe
aduance
vaſſ
hieruſalem
inconuen
striking
fabric
messengers
##ordered
##lege
rans
establishments
preſumed
aſtoniſhment
deport
reſtoring
contradictions
careleſs
##lis
##las
concessions
quer
idoll
darknesse
prisons
finely
studied
propagation
dollars
alia
web
saffron
needeth
goodes
fatall
ſeas
voters
dissolution
yeelding
wholeſome
##rice
couſin
##rall
ſmal
primum
teſtified
plains
toil
mace
goddes
arrange
sarah
decei
ning
frog
##ableness
authours
ſhade
davies
##uus
dawn
##avia
successor
fatherly
refusal
deliuerance
fundamentall
##llen
improbable
effecting
##itutes
varied
ſacrificed
associations
skilfull
fails
##ſm
porter
crisis
impregn
cripp
ſcatter
beggar
craw
diſpenſations
reſentment
bil
solemne
papal
overthrown
purpoſely
arreſt
lump
brotherly
nupt
friv
ſtars
shoulder
##eps
##unciation
lots
tramp
signior
scholar
demean
cheeks
dwells
##erxes
duely
joſhua
ſlave
converts
ſtretched
attachment
eut
entertaining
alleadged
ley
##reſſion
pertin
##bling
vigor
licentious
laun
constitute
inough
lancaster
deprec
group
wickednesse
vnworthy
109
yorkshire
pent
monke
vail
##ook
needy
newcastle
vvorld
marches
sinking
richer
euening
baronius
116
elevated
abhorred
intollerable
administered
147
pius
ethel
##piring
feature
##imp
eie
cryes
increaſing
lucius
matrimon
recourse
speedy
habitations
##ighted
americans
##atories
arithmet
frontier
zel
distemper
mirr
acknowledgeth
balaam
thirteenth
circumſ
decayed
concurred
beinge
marcus
slo
##auit
robbery
##iman
blank
pool
simeon
paces
nativity
coaſts
##cas
noblemen
unlimited
recognition
##imis
publicke
winding
discord
unl
detailed
insufficient
opposing
fatig
shepheard
rejecting
hypocrit
norman
potato
morals
claime
chearful
likelihood
tue
bruiſed
##vereignty
113
grass
grandeur
univerſe
sicut
171
novelty
conscious
biting
##oon
##edes
thirds
flourish
una
pauper
allegations
##vve
fides
##abs
diſtreſſe
lighter
ſpite
leaven
13th
##aman
mayſt
ſtuff
vehicles
viſions
hardened
miniſterie
iſai
seals
sting
pad
gyf
prehem
puniſhing
ist
ſeventy
marqueſs
amuſe
exorbit
brimſtone
hav
harte
diſtracted
chaſtity
forwards
cheaper
##reate
exaltation
equipment
seign
posts
wonne
fidem
ſunne
ninety
##ovv
watched
148
waie
legate
ſakes
burge
ſource
ſubſcribed
output
importunity
hunc
skilful
haughty
files
manifestly
trifles
spoil
wedi
trop
carriages
viſitation
demonſtrated
contest
edom
archiep
omission
marſhal
imprud
exhortations
theire
##imable
duck
inſiſted
embracing
despised
daint
partition
reparation
viewed
piercing
houshold
##sea
lesson
esteeme
bun
shar
abideth
diuerse
noone
ſerpent
manufacturing
dissenters
petitioner
diſtributed
132
sua
conceptions
expreſſing
##enc
surety
exemplary
dede
##ithr
##iſms
dryed
hostile
appurtenances
deuout
hend
readineſs
##ipend
harp
facilitate
leices
retaine
harde
conſumm
impul
##anna
excrements
naming
attacks
baniſhment
hebrewes
##bles
vayne
sacrificed
engaging
bounded
forbearance
hote
declination
primarily
remoued
kneel
149
behauiour
ſive
eich
ſlip
deſcending
adapted
util
perplexed
demetrius
sprink
exhau
remov
repreſenting
##ronom
addreſſes
115
##uper
antiquitie
trip
hartes
approued
dorm
expo
piſt
sits
magaz
inſolent
laity
maximus
powred
##utus
145
flem
invasion
##ffer
reprobation
amends
bedford
##eron
generated
liberally
ſweetly
ſigned
juſtify
queſtioned
inequ
fountains
epiſcopacy
berries
boldneſs
thankfull
vault
prayeth
pills
persians
124
ioyes
conjunct
noteth
##oa
##umbled
verd
contrivance
flows
amber
dedication
meaner
option
10s
##charging
conceited
##keth
##asions
conferences
pulſe
gath
wouldeſt
latest
##perated
consented
##imil
hiſtorians
juven
ſhoot
diem
centur
invested
ambassadors
peru
##olis
shrew
pierced
monaſtery
maried
traitor
##eng
decrease
##tt
brazen
scorp
##fig
##erman
triangle
encreaſed
impenitent
familiarity
faulty
gratifie
rope
subordinate
diuinitie
repeating
plum
battles
brood
##rier
##nage
urging
influenced
unfold
recouered
richmond
intrig
greet
morgan
diſcreet
approaches
troph
celebration
solemnity
volatile
##thol
summoned
purified
##iars
vncleane
babel
##atra
vniuerſall
dieth
crucif
ſurprized
##celer
foreſ
aph
lomb
defendants
mortals
hore
reſting
##fi
pith
forl
parker
sorrows
platform
##gam
poſitively
auxili
##iating
semper
quitted
assessment
produceth
ſacri
ſeiſed
dothe
anabaptiſts
prevalent
##bow
##emonians
##usively
##nted
nurs
contemne
trunk
deformed
impos
innov
heresies
witneſſeth
##wers
##aduenture
conſiſtent
formation
129
continueth
ethiop
rite
priestes
##arke
ait
##erat
chaos
factors
stor
lecture
mooued
unneceſſary
diſcerning
##ala
prest
particle
##encing
obliv
ia
moleſt
actings
concluſions
oppoſing
burns
petrus
banner
soveraigne
doest
augustus
proteſtation
symptoms
##vo
floods
marit
perſonall
swallow
orb
bewit
ſpots
##ffield
ſuſtain
camb
wooden
literally
deuided
factor
utility
##eri
foode
earles
lute
eug
accidental
reape
deſireth
ralph
faithfulneſs
digest
141
congress
ſtudied
139
annihil
filius
liuer
offenſive
comforter
ſkin
dicit
pearl
controversie
aſſemble
pockets
attaining
fetters
nad
gaſ
compulsion
shepherds
##cede
swan
honestly
anticipate
catholicke
centres
##owered
122
repairing
farth
blast
##enti
logick
livery
frust
ibi
vainly
traitors
##inue
compoſe
vouchſ
ſpreading
iw
induſtrious
deſc
##oues
spiritus
shaw
##ivities
##ocate
##cca
merited
guile
pretext
blowes
englande
##bant
##back
coke
pits
constitutions
praet
irenaeus
111
cloſely
misapp
trespass
minerals
rei
enlightened
wan
thirde
equitable
excise
clemens
##ulc
vapour
imprisoned
realised
torrent
remarked
ſemper
sanctioned
nearest
drawen
frozen
earthquake
##rym
ting
autor
prelimin
baptist
##ionable
ingredients
rhodes
variation
ſuſtained
##gone
comparable
##atours
##very
miſerably
tranſlate
##ſhop
blaſphemous
goat
cash
actors
farthing
scriptur
candidate
25th
basil
deſerued
illustrious
##hur
inſenſible
impediments
##acher
stable
compoſ
lind
vnknowne
diſpar
jove
bonus
ſayings
ensuing
jen
household
supposition
quenched
cloſed
healthy
securities
##rac
comedy
ſter
thereafter
exit
leisure
encomp
perſonally
chaire
severely
licensing
presumed
ſmite
##ilo
enuie
covers
couragious
travell
lamps
##thenes
depl
columb
chaplain
drunkards
grounde
ſcorne
adherents
auditors
bede
congru
hides
milan
likeneſs
pleaseth
nept
womens
lance
sinfull
##leth
fidel
coats
ruins
passeth
##wark
bund
praecip
diverted
forementioned
114
flint
mistress
shell
bells
wheels
diſcom
rogue
sheffield
unregenerate
hume
ſurpriſed
##ndo
vnprofitable
deceitfull
ecclesia
affron
quarto
growes
eke
##atim
squire
choiſe
pike
celeſtial
##amon
informs
progn
rams
tout
ungrateful
fairer
owed
foxes
harvest
avowed
judicature
##ceſſes
bug
remoue
dismissed
##ager
ct
receyued
perſeverance
sergeant
maurice
ioſ
immutable
coffe
cautious
ix
123
lawrence
heroes
18th
diſcoveries
forcibly
provocation
##cem
bulls
##imen
adventures
sinai
indenture
statue
oile
hateth
graſſe
eſche
fifteenth
##ircumc
memories
##reſt
cleer
##bar
delect
spark
incarn
ſtatutes
athanaſius
ſecundum
hammer
subdued
raid
gym
wiser
traine
angliae
##inam
blunt
institute
vehemently
byd
##ouſnes
##ſible
dug
playes
mediterranean
requested
ditto
contagion
reiected
eminence
ideo
melting
##cum
117
127
##gging
honourably
ſubtile
taunt
##gged
fleſhe
quaſi
ingaged
gouernours
##achel
whiſper
admiſſion
betake
fainting
diſguiſe
diſpatched
17th
harris
probation
matrimony
thess
commends
baggage
##unctions
unſpeakable
vegetables
deteſtable
barnabas
injure
estimation
##geather
complains
vntil
dud
deviſed
lambert
suppress
ves
146
suffolk
palpable
canonical
rests
negotiation
lill
gam
murray
squadron
loſing
libel
seldome
items
lem
##vit
persuaded
primitiue
ſtriking
tired
earliest
peraduenture
##uta
##rough
16th
ſuſpition
netherlands
signal
dda
organisations
hinted
fyre
experiences
phoen
vpper
hauen
##onym
excel
swit
repairs
bradford
awarded
##rolled
recruiting
##han
##iſco
facit
ſnares
superstitious
##rating
contrition
sib
precedents
##asie
murderer
trwy
harsh
amazing
suits
taile
admonitions
enlighten
devote
128
reporteth
bysh
civilian
sweare
recl
macdon
fuerit
projects
immo
hominum
universally
resisted
heſ
distrust
holines
merchandize
pembro
cleanſed
##idi
sawe
gwr
diſcouraged
oblique
cards
fiat
##iths
##grave
poems
fleg
peric
metall
complied
arabians
indulgences
arrowes
stayed
sicknesse
depoſe
ferr
liueth
perceiuing
uncapable
ſtamp
pror
ſovereign
contact
beaſtes
plantation
cooper
protested
##atement
pouring
173
streams
buchan
redress
ſublime
demanding
perſuade
iustification
tene
dislike
advocates
eſpeciall
arbitration
##rip
diuerſ
133
corporeal
adminiſtrators
contentious
burthens
commoditie
vomiting
##vial
aboute
maiesties
agrippa
awaie
euidently
ſimilar
perſecutors
eam
inſtitutions
##hill
boſton
layes
fined
needleſs
heels
##itius
gore
preſerv
19th
blest
##iece
geneſ
mast
valiantly
ss
pouertie
obiection
ayr
oll
inferred
abſolution
frontiers
growe
faſten
etc
hinc
piet
jordan
ſtudies
herself
analy
healy
diſputed
verye
137
##ituting
spen
##oord
diſg
pots
equiv
pleads
asc
stewart
progre
partners
ladder
witchc
fluid
ſtrangely
##uag
swim
rebus
ryght
monies
dere
irrelig
execrable
damm
ſhines
arund
fourteenth
democracy
underſtandings
chaunge
middles
monarchs
prevails
mortified
##icing
payed
accip
tull
morn
saie
deſignes
reprobates
va
##zzar
##iva
delinqu
##emean
frivolous
noct
surrey
dioce
lowly
encroach
destroying
##onies
heade
currant
##aſis
ſeditious
values
barke
143
##yles
idd
wyl
juda
prophetes
intervention
seb
turpent
coffee
venetian
greatnes
speakers
cunningly
unit
phyſitians
contrive
expose
ſicut
begat
unum
status
##ſſa
offred
fitteſt
##thar
jude
sisters
myſtical
aliis
habitual
grim
scales
##ſelfe
absol
nimble
mainte
collections
##inſ
neutral
achieve
lowe
warrants
disappe
136
preferre
vehem
ſtaid
06
erecting
upward
combate
resent
regarde
shewes
##ricks
froſt
clergyman
butch
promising
euils
darknes
nourish
habere
##ste
compromise
diſobedient
starre
kiſſe
repud
veil
drunkard
battels
diſo
##kil
papa
ſufficiency
threatens
approximately
ſs
looketh
professor
forte
##ulae
pens
allude
narration
oyntment
grudge
tutor
permitting
apprehensions
##aunders
junct
##idh
##rap
dissolved
ſhouldeſt
smart
cords
princeſſe
caput
kindneſſe
##ubble
conſtitute
stately
mead
rhy
consume
vnity
indued
principalities
bacchus
railing
ric
obstinate
offensive
##itement
##ngers
##utary
benediction
goal
##phin
mack
artifice
colonell
detract
##parably
##osity
bribery
miſchiefs
woorde
plau
swelling
satyr
cull
ſeate
proofes
refrain
1920
lly
downwards
prodigal
answerable
ſupplies
prooued
traveller
professional
uneaſ
remuneration
toucheth
meaſured
aſtoniſhed
midw
##ubstant
172
enjo
##inder
##into
consisteth
devoured
ſyll
##atorum
condes
bodyes
monthly
sanitary
inioy
raſhly
sickneſs
counteſs
farewel
owning
situated
ſleeping
omitting
ſchool
commiſſions
washed
##pheards
paraphra
bosome
stake
extraordinarily
coſ
debet
inac
julius
frier
##ordid
##aseth
inquit
deserves
seasons
tyd
nunquam
ſhop
wormwood
ſubordinate
embraces
urg
fra
##oneth
benn
peaceful
135
##rance
repenting
anima
cloſet
republick
forster
brun
battalions
sepulchre
##ricke
##demean
vie
##lit
##rupulous
dispersed
##arded
theeues
choyce
duetie
girdle
mab
131
nazian
demaunded
secre
palmer
chariots
ſerviceable
chapl
diſcovering
reflecting
andrews
insured
stim
donation
##yns
ars
begot
##ails
tempered
puer
crad
benefites
las
##iſo
signific
corruptible
betimes
##tons
134
##course
stil
relieving
heritage
haſty
sink
lieutenants
fiſt
contradicted
ſentences
fortifications
emulation
iustly
troublesome
1919
pollic
fullest
adopting
oute
attire
##utis
monte
ſize
##pop
##eping
conuerſation
husbandry
publiſhing
parochial
nets
convul
142
##chell
##onful
turpentine
ſtyle
evacuation
vncertaine
prohibit
taxpayer
wire
clubs
##atae
enſue
pulp
##roph
treasures
loyall
painter
hiſtorian
positions
##fu
locum
hangs
weeds
persecuted
##abella
##da
clark
johnſon
inside
outſide
fruct
devised
uncommon
chri
pane
##ilium
intents
repreſentatives
oppreſs
inſol
juſtifying
feareth
undesir
groves
iulius
renounced
tyrannie
volunteer
chester
departmental
aſſaults
amply
ſhorter
alar
##ſpection
alleaged
jac
britains
confutation
##ocks
conquering
firing
hovv
benefice
struggle
fyn
preamble
heavily
aduiſe
examinations
morally
indulgent
ſurprize
ſtomacke
quhil
affinity
poſſeſt
righteousnes
judgeth
gloomy
palaces
ſucceſſors
##lech
superiority
exeter
temperature
heartes
begger
bearer
announcement
conge
equitie
interpretations
diſſip
digeſtion
##cu
praecept
apartment
bav
baptiſed
ſlavery
avow
##hous
##roth
phoe
custody
wna
iurisdiction
stuart
ſympath
monastery
push
maxims
incloſed
thay
##melling
evince
antonius
ſprung
##elie
preferring
##ndi
vvee
138
comprehensive
ſlept
incurable
bitterneſs
ſan
ſubtle
##ſse
badly
henric
trifle
tares
heretical
2000
wherwith
loaded
consecration
##ilde
dydd
groans
ſauing
cheſter
lans
##neath
mundi
##gne
oecon
productions
##bend
woorth
extenſive
fowl
solemnly
rege
truſting
butcher
##leigh
drainage
evans
##ioners
##inges
ſwore
repreſents
haply
inveſt
##ucke
undeniable
bewray
embodied
praem
mate
indu
philo
respected
elliot
videtur
soviet
vaunt
fourty
##cot
diſcovers
cort
inne
chor
ſwords
expoſ
caſtell
creeping
£9
hairs
summary
deciding
substantially
ſteal
skies
aloft
mire
ointment
vanquiſhed
24th
invaſion
syllog
crook
ſuſpended
inven
horace
lectures
##onis
countie
partner
resolued
macedonia
somm
murderers
eucharist
iſſues
restrain
reſolued
reyn
reforming
arian
recite
cargo
dwellings
restraint
crude
calf
succeſſor
thred
##ulity
reſolute
industrious
##oneſt
detach
provoking
yna
canonicall
deserving
rhine
reacheth
reſpectively
diſturbed
implore
preſumptuous
imposing
ceſſ
cared
discouer
glit
obstin
moors
recur
clocke
diverſity
quasi
##hau
morton
illius
paſſionate
adioy
teache
stirred
aſſaulted
fratern
avoy
murders
channels
compt
dover
##ippus
depreci
unfaith
ilands
sixthly
villany
ſuperiour
rit
suo
##imely
1931
horsemen
highneſſe
cove
nobler
females
heaps
joſ
vnſ
ezekiel
ſeeks
litter
##igns
apoſtacy
malignity
riſeth
tribunals
marrying
baldwin
##ighe
converse
noticed
messiah
expensive
organised
##ocr
haeret
snare
calum
embro
arrested
hardned
miſſion
forſooth
##wayes
chriſtendom
##uler
godlie
assuming
inexp
thorne
sext
camps
chin
friendes
pharisees
##llo
dungeon
malta
perils
predictions
ſupra
vſur
agoe
##eus
whel
concerneth
geſture
##hol
##andus
smallest
nevertheleſſe
1930
imminent
curſes
auditor
thrive
chapel
jar
zech
impotent
##ilding
slender
seaſon
stretch
hyper
vera
tak
vitam
behaved
tet
infantry
intimid
modes
##via
formall
hort
ally
turbulent
chau
evangeliſts
detected
endeuour
reſpected
##uti
lyue
cox
dispar
indicted
ms
chur
baptiz
tempting
facere
sanctity
postponed
explaining
bellies
ioyfull
reforme
02
arnold
paradox
hainous
objectionable
frenchmen
units
predecessor
font
machines
ascertained
abſtract
wither
vnhapp
jeſuit
honored
vbi
heredit
##houſe
publikely
inconſiderable
conscientious
landes
customes
##rass
secundum
relee
pollution
yron
sarac
douglas
inlar
felix
##vvne
viſibly
frug
nobly
fiction
wilderness
chappell
radical
damas
dent
participate
ſurrounded
aeneas
axi
cognizance
lasting
tranſactions
lxx
rut
##uthur
sky
##bern
serued
manufactured
smoke
psalme
ties
miniſtred
##iere
charg
##idia
##ynes
pav
cae
infirmitie
fifteene
transported
dropped
extinguiſh
somebody
presumpt
unfeigned
unlikely
employing
reliſh
juries
preliminary
coram
aggreg
connect
marvel
restrained
dele
suns
##pa
priority
protecting
recruits
fathom
joyns
indulged
revision
ſmalleſt
garter
ariſes
charta
myſterie
courtier
##ggs
primate
losing
holder
##rio
ſeduced
bayl
vacc
sands
£20
frailty
deduction
propertie
##igable
dependence
frequented
reasoning
passengers
yields
ſall
generoſity
storms
##iencie
harry
ſtrugg
##abulary
##ruit
perturb
inveſted
engineers
##onus
exercising
firſte
##adoes
##ortable
ſummoned
experts
becommeth
converting
rated
sirs
##plex
boyes
altitude
barthol
ministerial
inſcription
coniect
layeth
testimonie
conjug
heape
##alton
exten
controversies
rabble
literal
boniface
conferring
##ird
unusual
hiſtorie
epitaph
hideous
gueſs
rhod
diſcouer
gap
ayd
immenſe
developed
cess
princess
aye
wench
reigning
plymouth
respond
ddywedodd
forma
adjust
mc
##ffing
corporis
shewn
armaments
sted
minding
##ylvania
preſſ
tearmes
##time
##osis
socialist
tryals
magnified
dreſſed
##lles
retiring
propit
admoniſhed
##angling
consuls
secretaries
sacerdot
ſeverally
costly
affording
disappointed
compend
##ilies
older
##awares
veines
coſtly
abj
covert
efficacious
palatine
##eton
deſerts
enthuſ
macdonald
atlant
likes
shir
predeſtination
seede
descent
##oedd
##aica
diod
£50
##anting
reſidue
tenement
allegation
exceſſe
ipſo
ſtreams
telephone
weighing
##sel
whosoeuer
spiritually
cubits
##inda
flan
##bol
shorter
saxony
improperly
profeſſor
persuade
godliness
leafe
wincheſter
plates
superfluous
##erea
rebuked
marshall
vitious
oblivion
inconsider
##rences
leane
purpoſed
annointed
hinderance
reconst
undesirable
busie
obſtinacy
meli
speach
downward
concupiſcence
##ſſus
scarlet
controlled
federation
othe
cleans
reminded
thereat
irreſ
builders
elijah
mercen
reverſion
cloathing
extinct
og
moyſes
patterne
permits
winchester
ſkill
prophesie
indemn
mail
##iſmes
##arine
heavier
reuerend
bane
ascribed
affrighted
fence
perſecuting
pſalmes
##ocated
equinoct
increases
ſtinking
carr
reduc
potter
mith
career
##ifick
narrowly
##autions
devouring
hypocrisie
crucifix
ague
bau
exhibition
hatch
##organ
quhilk
ginger
laughed
contradictory
##fected
omne
eſtabliſhing
waking
failings
jeſt
venem
faul
diſpoſing
lyd
armenia
leeds
principality
##olly
inculc
cream
elephant
bycauſe
ſuppreſs
totum
junior
impug
##phal
conceale
exhorting
negroes
##rium
freehold
##ouched
robin
outbre
##repres
##quin
##urate
favourably
attends
theefe
vindicated
enraged
sanch
breade
booth
##ological
treasurer
##atches
footſt
detect
layed
univerſall
##anded
licensed
precautions
antagon
ecli
locks
martiall
##theſis
literature
leſſen
jeremiah
creep
frend
##yte
chancellour
manuſ
meum
##igo
ſlander
expire
durable
peruer
adverſity
pſa
frighted
anew
ſtubborn
incomes
marty
effem
ſtomack
04
##wyth
maist
restitution
misrepres
jonathan
lepro
cenſured
collecting
fortifie
ioye
holye
unanimously
##arb
gwe
gnaw
bullet
##antages
endeau
aduenture
illumination
linen
1ſt
breathed
fecit
##formed
lym
##sses
perverſe
poult
marr
ſelling
buriall
monſters
##auration
quotation
stature
ſmoke
##ſl
##uri
morley
fram
thankſgiving
incap
##ſan
sovereignty
murtherer
eagerly
pangs
diſclo
ink
##cive
wot
ſloth
bravery
wardens
doctour
defection
clearely
mitt
disputed
##lam
binds
yeoman
troj
gangway
regulating
fishes
iesvs
##wyr
aime
allen
sounds
depraved
aswell
##acted
abſtain
loft
feasts
subscribed
fluct
2s
confederate
auc
deſerving
thanksgiving
diſmal
£500
bending
manich
aethiop
inferre
yeer
poſs
pto
acceſs
deſer
instantly
##rob
##arians
##icon
##atious
operating
importunate
redeeme
praeter
resign
seventeen
ſpoiled
confirms
validity
hiding
wishing
winning
requeſted
hesitation
dutche
termin
fowle
routed
28th
superiors
aſſuring
fiftly
summon
##upportable
confused
deposed
phraſes
aims
inequality
##ſequent
##vr
ſtrengthened
requite
nil
##actorily
smile
calumnies
adverse
##wage
##aca
impartially
pyram
diſcontented
beleeuing
slander
reſolves
exhibit
templ
propoſal
forbad
feeds
impract
duked
conditional
locality
##oſius
##onshire
##uarie
delays
diſpenſe
inhuman
wondered
forſaking
preheminence
##kir
requeſts
diſtribution
##nda
diſappointed
difficultie
glaſſes
membrane
ſounds
leicester
##ſhips
reaches
sudd
eithr
##iferous
wary
mutiny
produc
bridegroom
combine
##pture
episcopal
##fford
nomination
1929
##fter
presse
stam
practises
deponent
thurſday
iniuries
wondred
sant
invari
atheiſt
##riers
prost
##abat
##aſſing
fabrick
usage
vnlike
constancy
vvithout
brooke
##ama
##inds
pending
figured
mortifie
expreſſeth
becometh
borrowing
nehemiah
shilling
bridg
subscribe
exertions
calme
erle
mocked
spots
1925
##acking
##utum
publican
carm
deceaſe
proviso
##wear
neuerthelesse
archde
ſhire
handfull
darkeneſſe
preſbyter
compliment
reprehend
chaſe
bravely
reuol
joynts
criminals
dragons
##ifted
atonement
auguſtin
complac
##chi
trinitie
preser
maiesty
edifying
drunkenneſs
##aſm
senſ
sung
pearls
biſhoprick
venemous
resolv
##iuely
exerciſing
pardoning
##py
afar
##occ
desper
hannibal
personnel
agony
preserving
edmond
##tham
amending
deuiſe
boſ
historie
herewith
vix
gallantry
priuie
perſwaſions
##ſia
illo
curſing
calumny
limitations
involves
pursuing
dagger
hogs
owns
diſtinguiſhing
ſtature
harbours
heroick
heades
counſellors
orleans
coercion
##inter
canadian
unavoidable
breaketh
adhered
intricate
fishermen
collone
noſtrils
preciſely
monster
maries
sper
ſeeſt
norway
helliſh
elaborate
heats
confeſſing
gueſt
clamour
burgundy
##uter
vntruth
warw
snares
##isers
consumers
involving
posture
notices
withered
coag
oport
hert
yonder
ſendeth
trauaile
stress
physick
intervals
preſt
incorruptible
manuſcript
banish
insol
martyrdom
intercession
cous
tueſday
vvr
wrapt
accounting
proude
cuck
##endum
circums
diſtilled
ds
##zie
iniurie
counts
##auer
##born
ſettlement
maund
eleuen
1924
fern
##burie
wolde
wiſhing
megis
tuber
##braid
computation
loo
commentaries
calves
magnus
diminiſhed
delivers
reuelation
lewes
accurately
appertaining
maners
melanchol
eligible
ovid
shin
asyl
wyfe
dogge
carthaginians
vnbe
##aft
stag
tenderly
##anese
umb
##arious
ſhoulder
roar
louers
endureth
criticisms
sanguine
dissatisfaction
rodd
ſignific
mercant
parcels
griefs
ſubſtantial
internall
constrained
diſpleaſe
preſcription
deficient
##ulouſly
searching
##cedon
ali
edicts
imployments
chaſte
dialect
delicacy
youre
percy
portra
clap
whig
quom
addreſſed
hereticall
lutherans
##agne
couns
##then
jewel
vsur
rods
colleg
chiefs
faythfull
yol
##chod
unuſ
##lium
mischiefe
perverted
unal
aquinas
felly
breeds
redound
diuines
anſwereth
strikes
herald
northward
deduced
ſutable
aboard
indifference
remorſe
silly
latines
seſſion
brisk
lighting
26th
hoſe
unchangeable
middest
clif
##cos
postpone
##atherine
tonnage
chaldee
muſic
poter
antig
imitated
ruleth
togeather
##iterate
chronicles
ſmiling
via
religio
animate
bert
disturbed
acte
unpre
englands
stratag
ira
lancaſter
flourishing
comfortably
connor
ſack
enoch
ptolem
depoſ
howsoeuer
##aur
essentially
mantle
ſtarres
cancer
quake
inſpire
anoy
dogges
confinement
foresee
gly
##ilon
ſtories
reductions
coſts
thrones
phaen
mercantile
shoot
constabulary
terrae
##ſtru
weakened
##xit
adjo
##antic
decim
welc
tyre
##itative
foment
##abilis
##bone
watered
alleage
recalled
tenet
deuils
executioner
uniting
##neſday
deſerted
##ineth
auctor
ſuperfic
accl
chronicle
buchanan
##inn
inducement
castell
##ulit
boston
rebellions
censures
inſtinct
mh
dely
physician
witchcraft
shade
castles
condemns
openeth
eternitie
conjectures
germanie
conjoy
inſinuate
ſmote
##andem
##rus
quire
promul
statues
treſpaſs
lore
##xta
column
abſurdity
iewell
implac
demur
iuriſdiction
miscar
simpl
elephants
confeſſions
wedg
ranne
##ivs
drives
intemperance
nourishment
pile
remonstr
damaſ
hurried
vph
fraught
gordon
inund
aggravated
purport
ſitteth
conſuls
barnes
spouse
unruly
treſpaſſes
fierc
henderson
inflame
##awes
attentive
cym
arriving
digged
historical
gland
recovering
##atores
displ
underſtands
dile
cheek
standards
##lvs
suggesting
aſſiſting
lyable
chrysostome
ordeined
demonstrate
proffer
cheerfully
sive
ſhuld
dyet
imparted
throws
##iem
feud
accuracy
accommodate
##guent
verbum
gallons
chargeth
scorne
seize
tombe
wolfe
walketh
tully
munition
cumberland
suppos
grind
##ſley
herd
eſſay
dot
##vaal
activities
enlightned
prolonged
ſuum
notably
peremptory
##leſly
##yon
transvaal
thu
##ribly
wir
chem
##ainty
verbis
anatom
moores
torne
suffrage
ſighs
##ſtre
enriched
occurrences
ske
humph
##aie
predominant
fait
sales
sheet
evicted
badge
blaſphemies
destructive
preſidents
aloes
perfidious
nous
marrie
habent
obſtructions
comit
aggress
uſurp
furlong
lyt
syri
findes
nobleman
eagles
obiected
dedicate
accuſations
extinguiſhed
whet
##wl
inforce
caſts
woful
ipso
prejudiced
##iſted
multa
purſuing
liſten
amp
##ishes
##aphat
ugly
pact
rt
vſing
amo
finances
invocation
beet
deserue
comforting
exploits
beli
diverse
blowing
advisers
ſworne
prosecute
inhumane
dispens
robbing
strabo
exhorts
##wedd
adequ
##hon
dyes
mai
wherevpon
percey
heli
amonge
cultivated
5s
##water
baths
ſhouldſt
consolidated
paules
sayings
cups
stirre
##adius
anointing
adjoyning
29th
servitude
ceremoniall
andre
militant
conceiving
poſteritie
almonds
##uſable
hopeful
battery
ſucceſsful
slip
##roportion
unlearned
malefactors
siſters
suburbs
doctours
tenour
##bourg
mell
diſſemble
deformity
supervision
surgeon
somer
27th
##llius
slay
tyrannical
rust
virtually
antiquities
##arus
daz
unpar
muſte
iſraell
nutr
jealouſies
belgium
##modi
ſhepher
cark
ſuddain
oven
gaze
excused
ſtumbling
respectable
bly
furtherance
remedied
##alon
democratic
exclusive
candles
alfred
worceſter
thow
policies
appeaſe
masses
prebend
meale
curiosity
delegates
commendations
comprehends
averſion
nicene
pedro
plentie
disabled
dejected
deſirable
arches
##umus
extortion
dungh
skinne
happeneth
unhappily
eis
reproch
reſignation
magnet
ſermon
pryn
uſh
contum
sorte
ſeeketh
preserue
##ifical
symbol
liſ
##enſes
canv
condemneth
inſenſ
##itiae
##rug
putrefaction
inspired
reforms
receiueth
astr
oblations
reſtor
romaniſts
traffick
propheſied
praye
legacy
extirp
##rub
recollected
imagining
diſtreſſes
retort
whis
exacted
apprentices
hominem
dh
croud
ſubjected
##chen
pand
immor
husbandman
gueſts
emol
formality
rationally
poſts
questioned
simplic
causa
teare
contingent
calend
defaced
vnworth
menne
diſtinctions
##my
reſcue
chearfully
param
##threw
electoral
paſture
ſpecified
inveter
myn
denote
##ſor
uncont
gilt
royalty
delicious
braſſe
ſovera
abi
abbe
gabrie
banbury
##iſſa
ſtif
accurs
wisest
elevation
curate
tire
meanest
journ
astonished
##ſeth
terminated
sorcer
controverſy
shel
##ſtus
contagious
engag
##ſil
helpes
cuc
inco
##oning
antonio
tolerated
tortures
arragon
ſhaking
coole
rigor
axe
##entures
##terable
recuſ
waterford
prevents
kills
aeg
ſtab
reverse
iſles
reliqu
tempus
agitated
martyrdome
withstand
confisc
misappreh
errand
circulated
dearest
oats
richeſt
owes
##cipe
lilly
miserie
subsidies
impracticable
retract
potius
quotations
ſeauen
balt
unqueſt
##caſtle
mathew
##uerunt
impun
somerset
cloves
delude
vndertake
carpenter
##erity
reſolving
devise
pensioners
underval
audit
pythagoras
celeſtiall
lakes
apprehending
cheefe
interfered
ſundrie
overſe
##poss
workings
ſmitten
varying
ſiſters
enfl
inim
feign
##iſſing
wedneſday
##arrant
revolutions
empires
dictate
fornic
tib
ers
occurs
wreath
##ervient
impenit
cooling
barracks
bleſſedneſs
discerne
crosses
conſecrate
indiſp
propagated
expiration
laye
08
egge
laſted
commentary
quomodo
nebuchadnezzar
portugall
##redit
tus
phan
redreſs
smal
dearer
##lon
falſely
adieu
reserves
desirability
ſtriving
lucre
kisse
mischievous
washing
ſugar
battalion
##ipper
glance
##amia
commiſsion
alarmed
riche
ceſ
acr
bord
omnipo
brutiſh
##icions
aper
eſſentiall
balls
denieth
otho
prediction
foster
antidote
proſecuted
nef
sunder
##culus
conuerſion
impropri
##lar
treaſons
viſcount
necessaries
haſtily
upst
vip
1939
cleop
pawn
coasts
kick
quicquid
periſhing
issuing
oxon
murtherers
ruſſ
euphrates
disquiet
sancti
afterwardes
inue
beach
ſituated
treats
jamaica
schooles
sabbaths
iohns
suspension
uſefull
yſp
purer
alledging
offereth
capite
contrariwiſe
forraine
##ologie
voyages
proprietor
evid
joyntly
##lieth
admirably
precl
lucifer
transgression
##vill
novv
##verting
marſhall
##isha
diſeaſed
byr
deade
ſavage
riſes
chaines
careless
nails
aem
confederacy
aed
##riſons
pervert
##ods
seate
cordially
fights
##wrack
determinations
embarrass
##lead
ſpight
ſpur
jobs
thwart
pitched
inability
breathe
annals
galilee
aprill
limb
relevant
accommodated
predeceſſ
sailors
##sbury
prow
shuld
pretenſions
fie
authentick
coch
azure
eſſentially
honeſtly
1921
talks
ford
concludeth
abbots
gill
rendering
perished
assy
##liked
congested
nostri
terminate
##oran
fained
champions
##nut
disappro
ſeque
dependeth
pittie
musket
careleſſe
preiudice
impressed
stewards
demonstrated
savage
controuers
malum
exclusively
begets
wne
catar
regem
burrough
tabernacles
blotted
crops
whites
acquies
##gender
cleaue
mayo
preceded
killeth
beaute
xen
recant
heretiques
inrich
hatefull
burst
cavity
ſurface
mithrid
dionyſ
kynge
tes
barber
pronoun
fract
##umbr
conqueſts
revers
grieued
obſervance
helmet
##uitie
refreſhing
##legious
fabulous
##oniam
inforced
ſalute
heated
choos
gradual
towarde
ſtiff
daw
ſtudie
##uy
mitigate
sighs
diſputation
##ctus
manor
propitiation
federal
epidem
##uates
##atam
judea
depths
aſcending
useth
whale
enuy
proſperitie
mutton
ſorrowes
ruf
##atham
encount
aboliſh
witte
##brid
outrag
layde
pertaining
politicians
afterwarde
mckenna
victim
saies
03
repose
cair
griefes
unjustly
contracting
yeelde
##lete
wen
euidence
oes
irration
medicaments
mandate
zone
informe
fates
baſis
aboundance
chryſoſtom
wedgwood
abrogated
auſtria
##antius
evap
joining
cret
roses
happier
naturae
exclusion
##uage
ſuggeſted
extraction
penetrate
serves
enlargement
##zard
preſerued
abounds
ruinous
antients
compens
rogues
byn
precinct
ſhock
speakes
conferre
septuag
drawes
colliery
wanteth
producers
uncharitable
bard
norton
deſpaire
diſadvantage
contrite
socinians
baſſ
antimony
widely
prayse
fancie
invalid
tempeſts
depression
superann
lax
##onte
meals
prudently
savour
mexico
lice
hostility
drafting
##chym
cheerful
widdow
discom
##ribution
interd
informing
1926
taſ
nox
nobleſt
liege
tip
trembled
facile
mooue
intervene
hereſy
antwer
cloathes
recess
ler
iustified
calv
sanctifie
cleanſ
euerye
norther
satisfactorily
nerve
vnderſtande
hils
excuſes
nova
rebelled
ſurpriſe
05
ſoil
advocated
occupations
tig
ſupernatural
purchasing
babe
coupled
prorog
##ationem
deceiv
advanc
ſeconde
undef
moſ
termination
ſubſequent
orphans
ſweetneſſe
suis
##atiable
egipt
synagogues
baſh
noting
emigration
painfull
expounding
bassa
goth
experimental
maim
beck
sauing
prose
laod
##lian
finis
meeke
fowler
comet
kild
##bod
ephesus
monopol
aegyptians
unlo
digeſted
hounds
reproached
rockes
whereſoever
polite
browne
bounde
pecuniary
annuity
lub
ſui
aunſwere
aſke
iſh
perkins
##ground
infuſed
bann
ineffectual
interior
bien
xi
peccatum
profeſſions
dared
##fax
freemen
sensual
considers
profited
punctually
guiſe
missing
##dles
mynd
raviſh
bethle
blaſpheme
vy
##uetud
proudly
mannors
iuice
japanese
worthies
proueth
drying
archers
chich
setteth
hardneſs
##arv
ſatisfactory
lug
diſpo
shaken
regnum
addes
vener
divul
ſown
clarke
sparing
sancho
malach
vvell
lillies
gren
seeks
prefixed
dower
##vver
rhag
##lane
aliment
obtr
mang
sul
bloſſ
untruth
practition
circa
exhal
livings
providences
trivial
hypothes
bidding
fere
professing
contraries
potatoes
quat
##asses
accidentally
sloth
happines
obſcurity
violets
incarnate
conſpicuous
fulness
repeatedly
rete
##ineſſes
neptune
##rupted
##iseth
salts
reſiſting
tools
boundaries
throats
ope
ſtring
portugals
aggravate
distill
ſums
predest
##atia
proclamations
ſafetie
uſurpation
treble
##hou
burgeſſes
traiter
hearde
leaning
##cen
##eyned
gibson
conveniency
##cation
##abile
miniſtration
incouragement
sleeping
unwise
readiness
innovation
illeg
crucifie
puſh
verte
messrs
beforehand
##quainted
pha
suffic
witneſſed
penſion
joſephus
approving
aſſes
ſearched
wrongfully
vass
limerick
discouered
pureſt
##oram
priuiledge
dors
soly
unquest
colledges
woollen
ſeuenth
untrue
ſtray
worshipping
officio
successfully
vegetable
scruples
##assed
##acus
##ceſſions
middlesex
ſounding
##brook
assisting
##guards
ipſum
suſp
exhauſted
rejoyced
earned
livelihood
intermedi
graine
quartered
fiend
completion
apologie
neutr
fairest
walker
meerely
##olus
diplomatic
##ulos
apace
dutiful
viſits
cowardly
##eso
triple
sustain
conſort
cald
extremitie
signifying
controul
##uar
convoy
thirſty
advisable
laide
credulous
ynough
exhorteth
##spring
exult
perfecting
parch
someone
responsibilities
harmleſs
miſchievous
##lineſſe
romaines
councells
admittance
choller
dedic
observes
gull
johannes
iug
victoria
manager
expediency
businesses
vphold
incense
successive
dixit
boaſting
evangeliſt
garriſons
farming
##lden
publicans
mahum
resemblance
gulf
feavers
hesitate
rationall
rubb
##olem
roughly
##inom
aduice
ſtriue
##terous
knots
infernal
deth
ensue
traver
phe
publicly
ſtrikes
cradle
deciſion
splendid
childhood
beleeueth
anathema
vand
iehovah
auſ
proportionably
boundary
##ardo
enh
##awd
troupes
##mud
freder
##ainly
proceſſe
wyt
drunkenness
inſpir
vvhy
precipitate
ſolitary
seconded
knave
compaſſed
2nd
##atible
motto
accursed
##liness
reproofe
ſnatch
900
feoff
bobl
ſpouſe
##arez
releaſed
nuts
shock
##eded
ſtupid
diſcourſed
chriſto
ld
amisse
threeſcore
taxpayers
futur
inceſt
##rov
xxv
##ibion
pob
concurring
disregard
sufficiency
jeſuites
repreſentative
inclining
reſide
ſpecious
anderson
giant
dill
varieties
ſummon
vanquiſh
expiation
gwn
phen
1913
moyſt
unbelievers
dauids
##holy
mute
valer
##olia
##ceptible
inſide
ordaine
phy
falsly
melchiſed
arb
mechanical
impeachment
benefactor
augmentation
compares
egges
diaph
pledged
pamphlets
hiſtorical
commending
howsoever
employes
helm
impover
##ſſer
ſeiz
youths
cites
nurse
deſcribes
fleets
##mary
bruiſe
prouoked
intox
legat
fisheries
sobriety
oc
##vius
restoring
sports
determinate
##gran
£12
3rd
facta
lawson
magdalen
artax
##ironed
iddynt
##itiam
##icos
upbraid
bibles
grud
gloria
freeman
agr
##ufficiency
theodoſius
bloude
ceaſing
bait
colleague
ipſa
defende
als
newgate
ſongs
##kinson
bigneſs
##pow
regiſt
vipers
indisp
praef
obd
spectacle
nothyng
louer
prerogatives
unluck
viper
guest
chick
plauſible
glan
propaganda
seuenth
desc
cen
concoction
heinous
benevolent
deriued
ſimplic
nostr
ſedition
peev
reſembling
enables
entrusted
cement
confesseth
ſtraw
birrell
marcellus
intimating
##roſs
meantime
auoid
##gius
##parent
vndoubtedly
propoſals
ingage
cw
##cula
abr
chriſtus
independents
mortem
##endo
muſcle
relying
brace
totall
toy
eventually
ſtol
##entibus
actuated
comparative
alic
lik
implacable
baff
##icho
prays
batteries
enduring
disarm
conteined
leases
somewhere
moun
comme
constables
recruit
knox
ſuppoſes
ſtumble
tenets
ross
##ibilitie
inuention
fiſhing
quota
##bled
bankruptcy
suggests
faſtened
ouerc
ether
bars
cyril
ionas
innocencie
##wright
atheiſts
lists
atmos
feruent
adversary
injunction
cinnam
sacriledge
bruce
admiring
eminency
proſely
disorders
dainty
niverſ
certifie
marue
magus
profeſſeth
dioſ
unequ
toled
levying
brass
oftner
##gom
magiſtracy
volupt
fragrant
wright
wholſome
hipp
quickning
austen
refuſal
conducting
##ifting
erbyn
fleshe
1870
athanasius
phis
christmas
vouchſafed
uncircumc
##ſſours
restricted
moderately
media
bengal
superficies
appellation
drought
abhominable
ate
portugue
tendered
galway
artificiall
puritans
flaſh
jeſu
exorbitant
iulian
##iſance
chattels
malady
copious
feof
advertiſe
outbreak
3000
aggravation
wearie
illam
mortgage
diſcouered
duo
varietie
omiſſion
##arton
deportment
##athy
geld
sundrie
cleopatra
correcting
##houses
debarred
conſtables
familiarly
heaue
deniall
dominum
macc
occult
rape
unmo
reſpond
chriſtendome
##affold
ſuperfl
hating
##oir
##pole
trample
collo
diuide
##ignificant
##ieng
legges
##from
legates
suspition
transubstant
renouncing
intra
diſmiſſed
##iſin
ux
relap
dedit
abstain
resemble
apothecaries
quadrant
##phy
speculation
improv
##idus
brevity
erring
embass
propagate
resulted
leuit
##fulnes
spight
fallacy
inſtrumental
dictum
wrapped
##rhe
prun
refin
dumbe
##maid
courteſie
importing
typical
##lines
extravagance
funerall
sentenced
haman
herring
ierome
sty
crush
blade
ſtande
logical
tempers
##tles
strengthened
receyue
philist
quickned
ſlighted
##establish
parſons
undergone
genes
adhering
vehicle
abilitie
reſc
recorder
beſet
plunged
##veable
beauteous
rhetorick
##jour
nitre
booty
##onder
chalcedon
upheld
subdue
ſtaffe
hominis
dirty
##ason
idleneſs
cooke
spices
claiming
oates
alk
##acr
deputed
tracts
ouerthrowne
##manship
phoebus
fraudulent
rang
##iteth
bis
partaking
corde
archbiſhops
sire
aſſures
ridicule
culpable
voide
marius
affectation
yourſelves
nod
artery
lobby
aſſur
gules
presenting
mog
aduersaries
positively
toun
commune
flatterers
wynd
ventricle
captiuitie
expressly
##alom
deuil
arians
dine
physicians
denounce
##odi
inſufficient
ket
adequately
differently
cyrill
supplication
ſweeteſt
harlots
##oble
indeavour
rebe
obſtruct
itch
peruſe
fisher
##fulnesse
limiting
##eleſt
antichristian
ſcruples
##ights
##entiam
contractors
goddeſs
salute
esquire
platon
laurence
inhib
triang
spencer
bever
ſentiment
extraordinarie
tranquility
expans
fairfax
ineſt
governs
confeſſor
ecce
mortar
antony
stip
proveth
tainted
adhuc
ſuppreſſed
1918
adeo
valet
ſlowly
troth
##agn
thicker
cil
blasphemy
nede
maint
alienated
inſeparable
commissioned
ſhown
inviting
eliſh
spectators
disagre
diſhoneſt
carrieth
parma
ſtam
ſymptoms
inspiration
refreſhed
youthful
everie
prodigall
##affected
##rar
prizes
##aſters
unbelieving
madness
diſſimulation
##phorus
throwne
revolted
weakned
##ulde
pearle
commemoration
highway
##ardus
nol
blindneſs
godfrey
##ophon
upstairs
chriſtopher
miniſterial
chirurg
##adis
modification
faſtned
pinch
##bil
investigated
evin
caius
thyne
pilgrims
proportioned
ſecurely
supra
preferments
tavern
abroade
ambiguous
##name
stomack
wholesome
nutmeg
toledo
ery
emblem
coop
##azar
tumultuous
aptly
inveterate
eſtr
cleanſing
portsmouth
hasten
cows
stipend
lyn
candour
imbe
assistants
leaſure
adjoining
##rer
papacy
bruit
supplying
overcame
impressions
fisc
##edam
lid
entertainments
byshop
revenged
##rhus
spoile
##burne
inquis
bosom
ianuary
denotes
dyeth
kinſman
kitchen
margent
nationall
bewail
abſtinence
deities
sexton
whores
pursuit
ches
reſts
corporate
publishing
newcaſtle
dutcheſs
##eterm
ſcenes
purgation
route
signify
scenes
plucked
deserued
relatives
princesse
prayes
vvhe
vseth
historians
befell
ſhout
abuſing
leſſons
##lex
recommending
exaſ
phot
credited
##bia
antoninus
nazareth
deference
ellis
ſcrib
vniust
heaped
sunk
inconveniencies
sitt
quoniam
brightneſs
fowls
##utive
rumour
poole
ſtable
refuted
disast
fauours
perceiv
ſpoile
changeth
paſſeover
##advantages
diction
caue
ioan
overwhelmed
unthank
conſiders
tribunes
ſcra
dipping
squadrons
vppe
drago
genealog
bom
corrobor
whitehall
boldneſſe
spreading
supernatural
amale
disbur
ſinking
extracts
maritime
shores
factum
hierarchy
accepts
absor
rogers
unrighteouſneſs
lain
tink
approue
crud
capric
hammond
dexterity
braines
noyſe
##iſtes
disaster
equals
measured
achieved
extoll
messias
artificers
attractive
carp
fiercely
conſuming
engineering
ananias
##gment
footmen
cheeſe
lyar
modified
roch
clergymen
washington
dregs
peac
swallowed
pann
jurors
puzz
controverted
resignation
praised
potion
ede
##iores
dockyards
skull
fares
designe
shipbu
concurre
beleever
admonish
waues
uſuall
filthie
ius
appropriation
languiſhing
cael
convinc
jonah
overwhelming
griſt
safeguards
definitions
polish
gratify
terrours
flet
accountable
mahumet
lees
6d
gid
johns
apoſtate
lamentations
1500
ſatisfying
vrged
uttermoſt
##isses
investigate
tota
keepes
engineer
expoſt
deser
needless
reserv
##rets
ſaied
gras
##ollen
collectors
glittering
manne
phrases
sacramentes
ſubiection
reconciling
voyd
cn
hale
boyling
##inently
scottiſh
##pin
vint
imperious
sui
assessed
unwarrant
gin
##icord
purgatorie
deluſion
##lag
defences
docks
pursuance
bewitched
wring
sute
philiſtines
student
stedfast
dens
menſtru
vanish
stirring
ignorantly
transformed
expreſſes
##oſa
##icorum
floating
ſenſibly
##inte
founders
##merc
vanquished
##rendred
saintes
##iums
accomplishment
hould
iub
lace
disastrous
fetched
cromwel
corrupting
ſuppoſeth
hateful
antinom
omnino
brom
ariseth
contig
zo
rains
ſores
attendant
##ingly
juncture
armor
furies
nder
delightfull
monarchie
sinning
withheld
knowest
copie
ownership
delinquents
##work
##verſion
addresses
accusations
patrimony
relied
truthe
##zon
conquerors
hazards
ſtain
gour
abatement
rede
tat
##iels
newton
compleated
ſuited
diadem
greedily
prescribe
resolute
beſought
saile
caſh
##ckes
magick
radius
purifie
##aco
oppreſſions
vnlearned
chirur
brenin
gand
bribe
melancholly
cranmer
##ſſible
enimie
sprung
##imelech
cheare
ons
restoration
diuel
wandering
cloudy
foreknow
ſtripes
oppreſſe
tough
postal
puiſſ
cedar
exhausted
##nest
arabian
##uerit
manſion
veſ
rags
vouchsafe
grasse
category
abl
ſanctifying
ſmiles
intimates
ſtole
##itant
purposely
consulting
##vile
exto
controller
academy
inuented
porte
dues
eccho
##cribers
bitterneſſe
agn
scept
prosecuted
preter
gainſt
guer
ſubtil
peeres
psalmes
odor
dishonest
ſoueraigne
fruſtrate
watry
ministerie
guſt
banishment
stern
obliges
##mers
handsome
pruss
ſhedding
curs
gram
buxton
atmosphere
sie
lign
horrors
bonar
auoide
ormond
hallowed
spoiled
tuum
edges
shapes
catching
£200
1932
madneſſe
##ologers
noſtra
invect
dudley
adulterers
joyfull
ſued
raſ
phry
diſorderly
leproſie
teſtifieth
ſubtilty
ſute
curiouſly
licenſe
tormenting
ſticke
retro
seauen
zeph
presided
fineſt
deride
occupiers
strafford
cautions
verbo
##vre
pembroke
legem
builder
reſident
encamped
hadst
trew
sodome
ſtoop
saph
religiouſly
ſcheme
conuert
ſtopping
dreſſing
ſecre
praiſing
ſplendid
ſuits
ſpar
rebells
superannuation
endev
inviolable
eliſha
overtur
underneath
shippes
marketing
##rens
ſecuring
ungod
ſerueth
diſgra
##wys
priſons
exprest
lincolns
eraſ
fuisse
peremptorily
vrge
remot
rapine
monaſteries
unheard
variable
##wald
ſomwhat
intermed
suffers
aſtring
dionyſius
fundamentals
shareholders
poure
vague
##iſp
wald
hasty
discreet
diſcourage
##iendum
inſolence
statesman
##isco
incend
faſhions
marshal
rectified
agency
counting
ſpit
mala
diog
ſounded
arrogant
indeu
putrid
intereſted
ſtorms
divin
##unque
perpetuity
ymma
##ableneſſe
occasionally
##wind
teſtify
qualify
populi
coate
manuscript
bign
engliſhmen
inhabitant
ſtaying
aſpire
vnch
flam
heter
implying
solomons
anglo
hound
##far
theme
1911
tribulations
petrol
gabriel
garland
furlongs
##isset
pallas
teſtator
dropping
yearely
jane
exaggerated
##atri
kenworthy
reſp
ſcr
cabb
pointes
##uitable
caſtile
leſſee
blaze
inferiours
ail
##archable
##itudo
merite
adulterie
misapprehension
condescend
##opard
##ayneth
ſadly
##ayd
assaulted
ſtake
subsistence
hindrance
wig
ſcil
prouerbe
##agu
unduly
separately
preſenting
shadows
gat
diſſw
##uffer
incomprehenſible
pis
beastes
##batur
flex
septuagint
psalmist
irreſiſt
nilus
ſortes
fleshly
##iper
##sex
1946
discerned
intermediate
vacancy
chi
lefte
assuredly
deliverances
agit
prohibiting
absurdity
manifestation
accorded
spies
iewels
aggregate
bade
coniunction
auxiliary
##matick
prelats
eclipſe
worne
fum
atro
actor
acquisition
uncleanneſs
conſultation
ditches
lup
##arna
perfume
despite
1909
perplexity
##gel
toes
scri
##rows
disciple
urgency
warden
multiplying
diamonds
enw
embaſſ
1923
implyed
inſert
solve
bethel
affirmation
ratification
##icam
forreſt
boughs
##ogene
brigade
quib
differeth
strang
reckons
tasted
deface
largeſt
greeuous
##bot
muſes
##leman
babilon
##eled
untimely
pitiful
bountiful
loqu
delph
gile
ſwar
drunkenneſſe
papistes
shold
drug
butt
overr
lyght
helde
exterior
##idis
catholiques
capitall
veritie
##cta
transcend
fling
humanitie
thenceforth
depriving
##ucers
##lux
dutchy
ſain
ascribe
fermentation
sph
demonſtrations
reorgan
predict
persecute
gloriouſly
disband
newport
quoting
postpon
queries
subtle
##uſc
dicere
ranſome
gret
spear
obſeruation
helpful
johann
allusion
pente
vas
##roll
##ells
hue
octavo
mawr
##alling
bellow
ddywedyd
suited
professions
provocations
natiue
satis
praedic
terrifie
camels
touches
airy
realms
ſolemnity
canker
##enter
wouldst
irons
lazy
angrie
brill
fife
color
interpreting
regi
seraph
fancied
rewarde
artificially
##mother
lasted
occupier
excrement
trap
disfranch
maiſters
guil
phal
fiscal
chaine
vnwilling
lamenting
concernes
chooſ
pearles
laodice
pacific
briſtol
tranſmitted
forbiddeth
assurances
advisability
incenſed
yon
auaile
vniuersall
aided
ſetling
gig
impietie
deduct
cheif
paire
fleece
toe
southampton
sexes
propheſies
ranſom
ſailed
cance
leav
erant
skie
aduise
##ceiv
##orated
obſe
vessell
##uria
maintains
ſhameful
reper
semi
cyp
maturity
ſtorme
ſchol
reſtleſs
cruſh
twoo
wedded
vider
hymns
requests
aviation
defenders
inquisition
multiplication
lich
exciſe
occupying
phillip
##fel
miſtris
coinc
toto
coventry
##aunces
bastard
deductions
froth
reproue
scrut
captiue
envie
denominations
shakes
lending
saracens
gallants
hereditaments
coy
ſuam
iealous
anglic
operated
dispense
merites
commotions
redoub
resting
##isance
foretell
inlight
##thon
##erva
floures
milde
adel
punishing
peopled
ſteale
unuſual
safetie
displeased
medes
ſoftly
prouiſion
quaedam
shooting
infectious
aſſaſſ
unanimouſly
athenian
##uris
displayed
##kirk
angl
animo
greenwood
hudson
dron
cheese
honorius
ſupream
lus
saieth
drafted
##corides
parentes
abby
inceſſ
##atos
los
##vency
branded
presum
communities
gratis
impoſſibility
dans
bowe
obstruction
whyle
##ader
atteſt
lacedemonians
nac
annis
hurts
apoſtolicall
bycause
annoint
dissolve
scaliger
outragious
hearer
inferences
capp
ipsa
viewing
acknowledges
schollers
enjoys
prolo
##lot
pelop
pacified
ſpoyle
##gation
beautified
##potted
thankfulneſs
ieſuites
boxes
rump
films
spit
concealing
reaſ
membranes
severus
cope
paſte
surprize
broach
slightly
hod
quarterly
dictator
figurative
cloake
chyld
beda
sham
abus
myſterious
halt
impunity
informations
##werable
puffed
deepeſt
outlaw
07
maſſes
quoad
prognoſt
tearme
ſhell
dearth
brutes
imple
lippes
rachel
alman
##ghe
cable
conveying
hag
raises
inconſt
claſs
daungerous
foloweth
flowed
unacquainted
whenſoever
aspects
wele
deteſtation
languiſh
hunter
charities
nullum
facias
candleſt
forsooth
verely
ſoldier
martha
llaw
deuise
locked
tentation
shepheards
particuler
mournful
thirtieth
adoe
befal
##cloth
sable
##ſit
bale
miſtreſſe
preca
ſublim
grac
1922
perth
conſum
##hurst
nag
beholders
parks
prophetical
uter
confiſc
publicity
arraigned
alluding
relaxation
ſtuffe
uſurped
boke
breasts
tranſcendent
piſ
imperator
frost
circumſpect
##forward
folks
enam
folke
ree
cleanse
rho
exciting
ſouldier
reluctance
alacr
dash
impossibility
paynes
hypotheſis
vagab
figs
fielde
bullets
enormities
rescue
ſtraunge
substituted
##orah
acceler
steady
hether
##keep
possest
conforme
inquiring
boon
proteſted
philoſophie
ub
claſſ
beleeuers
priuiledges
brighter
pestilence
worſhippers
printers
parcell
echo
yno
pronouncing
constructed
jealouſy
giles
##wo
ordaining
suum
mors
weekes
##iton
nothinge
ſucceſſively
##cod
amiss
snake
withdrawal
applause
herbes
infide
perſwading
precaution
commaundements
porch
##entem
ſooth
souldiours
longeſt
worcester
accuſing
relent
myſticall
pelagius
crowded
penteco
##omena
disqual
finem
##ionably
mull
blazon
boord
vaile
ſuffereth
rifle
dillon
weed
submiſſion
tad
cyl
drugs
tayl
vnkind
annotations
caeſars
##iciouſly
conflicts
##isements
victims
1938
aſtray
1947
brasse
anguish
wnaeth
molest
ceaſeth
replace
pome
greenwich
comprehending
ſuſpend
deuiſed
argueth
intruſted
##cat
onelye
temperament
ineſtimable
reiter
neighbors
hamp
purp
madrid
ropes
consumm
ſupplication
sampſon
beleefe
incourage
retinue
knovv
ſcit
##auld
##gendred
tenths
diſappointment
arminian
primus
lighten
haber
hints
arrians
innovations
wheele
##afts
tap
ruſſe
trow
virginity
##zerland
tranſgreſs
divides
telegram
##iſtry
viſiting
heatheniſh
calculations
##imur
jealousie
goli
jay
addressing
pennance
sop
##icut
deſpiſing
cinnamon
bountifull
hald
surgeons
louis
##len
vrine
gooſe
diuiſion
phlegm
jeremy
godlines
collonel
deſart
wounding
ſurvey
1936
prerogatiue
ſage
##onſo
executions
scl
diamet
10000
understands
##alla
incorporate
##pid
vnbelee
aſſertions
debtors
fading
##giuing
swore
##uah
census
remayned
esau
diſtraction
##yrn
somerſet
hedges
##culine
ſecuritie
##aro
christendome
ferm
beggars
affoord
chase
instinct
accompanying
ſuperiority
ue
betraying
aerop
eighteenth
boaſted
brent
paraphraſe
atlantic
backwards
graec
##hampton
ſervile
solitary
diſputing
ottoman
data
conſpire
ome
wiped
hoaſt
preſup
dionys
indefinitely
montro
lull
##ilion
petro
dignified
pinn
impoſitions
##ſell
bowes
continuous
valleys
especiall
gallon
delighteth
perſuaſion
assemble
normans
morter
domeſtic
braz
ahead
afflicting
overtake
reproued
lavv
virtus
malefactor
wean
ſucceſſor
1641
forewar
bottles
ſcur
fondly
apparition
impetuous
fog
##luence
asunder
chald
dispositions
williel
amongeſt
donne
apocry
unction
leice
civilians
palate
totius
flouriſhed
organization
##itane
ascended
undertakes
##alies
augustin
##ivals
outer
highnes
chastity
enquiring
ſuprem
##elu
suppressed
remarkably
geſtures
mocke
bordering
##etical
ſharply
stability
multis
bake
scra
##ſham
##ittingly
favourites
toſſed
fict
seiz
holidays
stow
##estion
erud
stopping
ſolely
invites
clown
visiting
wrink
warnings
apocaly
producer
bathe
unworthily
clerical
dependants
voluptuous
##iſque
labyr
whereso
gide
entre
stol
continental
mysterie
stomacke
##agus
diſloy
nauarre
intercourſe
mood
##hair
honouring
abſurdities
amalg
bribes
aſſumption
recreations
pleases
settling
##risons
quidam
cane
##tershire
##iſſet
peny
commits
efficacie
nazianzen
ace
##avel
puritan
fruitleſs
##aeans
egl
ſef
disg
conſci
indeav
uncover
geneſis
##vely
iſſuing
##area
observance
nullus
##enne
coyn
lustre
duchy
conſonant
solyman
harold
innate
agricultur
fabius
disclaim
##iano
pum
traw
descending
forrest
haires
##anie
resorted
submitting
arreſted
wyſe
eſſet
ſacraments
likeneſſe
##illo
##laus
##itudinem
troubling
heavie
staffe
sne
sommer
chiefely
illuſtrate
theeves
##yght
receivers
iniury
geueth
immater
wildernesse
expansion
greaſe
##pheus
hamb
strings
laſh
contempor
faithe
englishman
bavaria
coffin
##bourne
rabbi
garb
collater
conſtrain
fragments
##iſer
gaul
reme
substances
ydy
##cock
christus
advantagious
therefrom
scatter
sworne
humbling
subtile
##phas
goths
abounded
leges
shires
prosecutions
legiſlative
determines
amitie
heretickes
acceſſ
mares
heretike
lt
vnivers
abyss
suet
buſy
statesmen
associate
tendeth
regenerated
unaccount
##arii
contume
glorify
balſam
winged
ene
hosts
calfe
1881
discontented
simul
therwith
cater
mercenary
entitle
peregr
antigonus
##selfe
striue
poetical
creatour
twig
effl
guiding
insolent
ſtu
1933
courtesy
forgery
surround
£30
complements
monarchies
undefiled
sabboth
vite
metamor
passive
##ſal
quotes
intercepted
eats
reside
mystical
##issa
fittest
nick
bundle
administred
##owner
kim
dick
waits
vulner
proſtrate
dundee
wink
jerom
homilies
covenanted
waxed
frogs
1927
herodotus
nurses
##iks
nominal
mow
hardneſſe
chuſing
ſtony
diſclaim
gesture
##had
annuities
therevnto
navarre
##went
forthcoming
ſplendor
childiſh
perſevere
citties
archdeacon
aſſiſtants
sussex
scurvy
significant
ingra
##anter
paw
oeconomy
ceſſation
ingr
transubstantiation
maled
habeas
thats
hampton
##quis
voyces
##rats
boots
##perfect
enthusias
uno
##lean
##rove
roche
aſſerts
explos
collective
09
ministred
euent
cogitations
hooker
theim
highlands
engraven
##atiate
catechiſm
yeld
scit
mold
assaults
##beck
lette
nuns
gulph
earths
##urt
##adier
tenders
tittle
resisting
intimately
parlament
hemp
memo
construct
electing
ſubmitting
imitating
socinian
infuſe
legiſlature
veine
gee
stren
aunswere
diſput
compete
paternal
notoriouſly
bounden
ſubſtances
gwne
diſpoſſe
ſeventeen
1935
gorge
illic
diſd
artes
##potamia
beguile
concurrent
bland
lessen
workhouse
##some
haered
infra
dipt
syd
tentations
bled
commotion
##lices
buckler
mended
ſaluted
##har
fawn
diſtractions
gratiam
disturbances
endeavor
pist
surrounded
##board
garrisons
exportation
inhabiting
deplore
scil
unquiet
allotments
yſpryd
##gin
barrels
##aul
vnrighte
##ouery
roaſt
carnarv
miserably
edgar
magnanimity
intern
acquiring
ſeduce
laceda
pupils
pouerty
propiti
modum
moisture
diſcourſing
perception
##aei
eject
deceiving
chaff
moſtly
strangely
offspring
godlinesse
##inies
carb
drums
barrel
1660
translate
boiling
##erun
apostolical
laz
straits
deducted
kynde
unawares
pilots
plight
disposing
circulate
tumor
encom
cherish
controuerſie
sophia
unparall
milner
discouraged
ure
bethlehem
gibe
threſh
prepares
##itely
specifically
dieu
elective
expel
accrue
toppe
uncleane
debating
deſtiny
metamorph
inan
wort
repine
potentates
chop
settlements
##inaries
##entius
nominate
byſhop
dioc
mistresse
pate
bags
nons
egreg
brod
distinctions
drowning
giants
vnde
inaſmuch
linked
philoſophical
trait
looſed
romulus
regn
bowles
esset
ſprinkled
gwa
##cliffe
iuſtifie
disappointment
redde
sheets
averſe
splendor
uſury
embaſſadors
hange
conqu
tranſlations
##berry
mixing
brabant
iewish
ignominious
welcomed
remonſtrance
raiment
disguise
effeminate
lorrain
trader
raph
sympathetic
contrariety
baſely
valentinian
gwy
occaſionally
cake
purſuance
plente
prelacy
heighth
guess
alio
virgine
unionist
farn
applauded
chooſing
eraſmus
##ucus
gilead
comments
preuented
conceipt
alexandr
forraign
##acius
commendeth
ridley
##fall
denominational
sta
watches
wealths
##itudine
##ki
deafe
thunders
undaunted
facie
praetor
injunctions
interfering
amſer
claus
chyr
clow
plaus
mammon
jeroboam
##fle
auouch
vſes
faultes
itaque
##eming
posse
perſeuer
unholy
genere
ſtealing
nly
aduanced
##pered
administr
phoc
1903
waſ
effectively
dwel
ſtim
##aeum
hopeless
##illus
unpard
ingrate
antwerp
dout
supplications
loins
kynges
##umont
collins
lil
lough
##ulam
##rest
heares
plucke
ſcourge
seignior
rolling
##ſin
##lined
##aidd
vacancies
amur
retir
gratefull
complacency
scab
courtesie
leiceſter
collector
yeeldeth
mouing
stairs
switzerland
importeth
forſook
accuſer
1906
cruisers
##aean
ſpectacle
endangered
preferr
permanently
1648
ſhadows
ſland
##bray
nect
genoa
sincl
diſtaſt
aſſignes
courted
vvilliam
dext
##ereal
burton
anna
beſie
corrections
homely
inſtructing
exquis
purgeth
granville
bindeth
historian
examiners
loathſome
chalen
lick
thame
wheate
##ucid
graciously
ſupernaturall
moveable
smoak
miſcarry
sylla
ſpacious
terram
endowment
prophete
controversial
trusting
studie
redeeming
ivory
reinforce
ordayned
confron
##iron
wholesale
juris
##quee
1937
redund
lucas
fallible
morte
epheſians
alienation
applicants
cryſt
memoriall
retour
sweetness
frightful
summers
dialog
drinketh
dreamed
hymn
terreſt
entail
agreable
brether
bittern
vagabond
revised
explains
players
##pering
rayes
ſmoak
##yp
staple
apparitions
parables
checked
hardie
shipbuilding
mane
panegy
madde
##istes
ascension
ead
##iſie
evade
nee
croſſed
forlorn
violet
newf
attainted
entreth
buſines
diſagreeable
manu
whirl
returneth
correctly
chimney
reconstruction
##gons
curb
accompted
##leneſs
ſimul
neighbor
danub
nourished
ipsum
voyde
deficit
ſhapes
##uffs
fumes
anatomy
coar
folk
ȝe
glen
allocation
poperie
runc
poſſeſſing
bartholome
gratified
obed
incommod
committ
desolate
castile
micah
intimidation
hypothesis
reverſe
hawke
hertford
##emat
adver
weaknesse
tillage
somtimes
immunities
reſpon
references
ſcandall
caſual
retention
checks
liberalitie
souera
loudly
converſant
query
lith
remembers
tyrone
ſhamefull
brok
yoak
ake
##lad
leag
askt
breeches
infuſion
agreeably
recognized
dwar
persecutions
##icide
sacramental
guaranteed
neceſſitated
##aunts
commaundeth
sapient
visions
##oci
locus
contrast
harmonious
convulſions
trains
herds
amſter
counſellor
nationalisation
fauoured
iis
steeple
##entis
iordan
credulity
chaunged
observable
avenge
veſp
wallace
reſtauration
visits
xl
enforcing
prospects
##aque
concert
##issions
shinwell
theology
##itae
olim
disdain
assets
adulterer
amidst
chanced
ceremonie
jointly
deathe
##thee
listening
exceſſ
##aidh
##ickle
perilous
macedon
fooliſhly
juxta
nymphs
oph
legend
partem
solon
ſtric
informer
emptie
degener
guinea
romes
venit
##grade
torch
cib
ſolum
poſitions
lethar
swar
dispatched
gloceſter
plunge
museum
ight
hyde
renowne
invariably
##cov
matrix
penned
##riend
dammage
unadv
vniverſ
ambaſſadours
peach
warren
materia
parentage
sundays
peſtilent
popul
prouision
##ja
##quets
license
##uſſ
exodus
ſtocke
painters
insurrection
opportunitie
##entive
regall
cheated
vizier
##iodd
sutton
##reated
##brand
dictated
sphe
duety
possessing
univerſities
guise
brooks
xiii
impoſing
##ablie
approves
ſpringing
accuſers
fraction
##anne
concrete
papiſtes
ffydd
##sell
##abilitie
abject
reciprocal
viri
ſordid
conſcient
renow
bevan
##uſa
##gomery
widen
ſuite
verbal
240
arrian
legislate
gur
##ivious
£300
##weſt
diso
##endi
##uto
coales
hight
reciproc
disputation
##olated
grievouſly
conspicuous
earning
increment
ſtoode
##iſit
ſelect
architecture
passenger
magazine
oriental
rety
pricked
ſinneth
giddy
ordeyned
attracted
landowners
armagh
witnessed
1928
orators
macedonians
reaſonings
rees
ſticks
slept
##rach
hans
secrecy
##gian
authorize
picts
ſocietie
bye
puritie
murthers
##tery
parity
archbishops
##iances
occurrence
ribs
##uest
cocks
##elaus
herac
extorted
indifferency
mentioneth
fleete
##tis
merci
forgiving
branden
menace
diſtribute
orifice
##hope
rhodd
tly
xxii
cyd
confeſsion
mulier
diſtur
purposed
unpun
ſcale
shout
reviving
##atics
##cern
europeans
bredth
thereabout
reſteth
cheval
excludes
preceed
divel
21st
##zza
##rily
proceſſion
laet
##pires
sores
mutable
##wal
cleerly
meditating
bolde
ahaz
concupisc
hackney
tubercul
rashly
miraculouſly
enjoyn
expreſſely
parson
blasphemous
plaid
peccata
ieremie
ſubſiſtence
pompous
plinie
##antia
overlooked
##ickes
belial
foed
credits
villanies
swedes
lurking
fairness
authoritative
redmond
hark
intreate
protestation
membership
##yer
##iminate
myrrh
ſlo
unſt
arraign
##wd
endless
poliſh
eſpecial
charls
smiles
##powder
##peakable
dios
flav
crete
hermit
deſigning
concom
mighte
planters
immut
oppoſers
impend
glow
elic
fishery
bountie
stiled
edifie
nub
theodos
christo
alphons
tempter
mathematic
legge
350
illy
treſpaſſe
excur
##beg
animae
hieron
##omie
wools
##ghan
proteſtations
hypocritical
##igaeth
impieties
triumphed
highnesse
ils
sublime
##ouſed
rugged
overtaken
erupt
##antick
##alonians
venome
gaming
follie
##rene
track
chine
societie
amſterdam
annos
dropſie
ejuſ
indemnity
adduced
eugenius
leaden
misunderstanding
vnable
esa
southwark
addison
brittain
cloudes
depriue
ſes
imo
generosity
edged
hague
oratory
attorn
earthquakes
wording
conformed
faileth
straunge
imbraced
wears
1934
deserts
pretenders
1945
arcad
banners
visitation
mediate
sanders
disestablish
prat
##cham
dioceſs
desolation
zuing
felon
alg
disability
outwarde
##thy
refute
lambeth
hens
willough
##zech
toyes
sails
gomor
vnſe
conſenting
sensitive
luna
##feld
archange
auer
vvil
##ueſt
berlin
enliv
tydings
deſiſt
forbearing
steal
burying
diuinity
grade
forerun
repaid
appealing
procession
compenſ
romaine
endor
heark
petitioned
enquiries
seventhly
pontus
residue
##ache
##ocracy
effuſion
churchmen
tariffs
eras
plagued
ideal
paſch
##aren
sailed
empowered
detention
runciman
frendes
caj
ebb
trusts
velo
iure
galath
proverbs
helper
robb
watchfull
doves
thoughe
posteritie
intemperate
diſappoint
alloweth
loathing
dad
##ball
certaintie
astonishment
tearmed
odium
irreligious
rider
ſtrings
##roy
promiſc
##iſition
vſuall
litt
buſineſſes
diſobey
ſhold
extinguish
lactantius
catap
sot
chaplains
fower
diſguſt
arminians
anarchy
realmes
tolerate
vox
##rol
instal
##fortable
psalms
looſing
distinguishing
storme
neutrality
##rect
nota
##gion
obſtinately
##oit
rapture
directory
abimelech
vvhom
consort
ſanctity
neglects
hugo
taxing
##utio
finest
windowes
gardiner
facultie
ety
ſurmount
1908
aliqua
belike
pim
##wyf
politicks
enlarging
fume
vitall
cac
##inta
emphatically
subiection
##atisfied
tact
simile
sixtus
##ogue
compelling
gaping
threes
unman
exerted
mordec
extinguished
fynde
ſayeſt
##apsed
##uan
ili
wavering
ſcant
condeſc
oportet
interpoſe
creates
diſpenſed
gunpowder
dockyard
comptro
decently
##mi
uninter
conſcientious
ieſuits
undermine
degraded
retrench
paſtours
countenanced
brigadier
winterton
tearing
compaſſionate
ſumptuous
##cunque
diſhes
##thorn
latins
##uble
walden
fletcher
##erus
salmon
ſureſt
diſpoſal
volum
dispensed
chances
##key
gazing
scarcity
ged
finer
divinely
joyfully
balm
iesu
mule
depriv
wilbe
cuſtomary
ſpoyled
africk
excesse
£15
calig
ſhineth
ſteady
##ribus
warranty
nonſ
##ouring
syne
##but
##inued
##irts
parnell
traced
pett
##archus
paradice
heeles
artiſt
gol
embarked
anywhere
altog
thankfully
portugues
coaches
apoplex
conceives
omnem
affraid
harvey
divels
repayment
turner
lessons
camph
brien
reueale
dair
ſorrowfull
equipage
scaffold
curr
gainst
emancip
alluſion
croft
expoundeth
flattered
handſom
rake
ioyning
dropt
drake
shippe
perfour
investment
ciuil
impaired
sakes
brewers
privation
##enia
ort
musicke
pupil
fiſher
poultry
##rea
begunne
trampled
accordyng
southward
ieremy
promont
clod
ſtreame
extirpation
behaue
cogitation
promiseth
gouernor
inad
woundes
alarming
charlem
##cera
ſtandard
races
adorne
cuppe
tvv
faſter
partiall
phyſical
approch
retard
##loe
caper
allegor
profer
cage
aſſigne
muses
maide
redreſſe
ſelfiſh
panc
wyr
adventurers
iac
apothecary
maſſacre
mourned
intere
artifices
readineſſe
parlement
superfl
##pulcher
##dome
##antibus
affronts
diſſembling
reſigned
pelagians
vntrue
tore
mayest
distracted
paren
bray
excus
diſtrict
##comb
hierusalem
reio
beſeeching
watery
darkned
milton
##umbers
thrift
sparta
laban
maclean
arundel
ceſt
quix
compleatly
melody
##esp
##abe
iesuites
stain
transition
enthusiasm
##anny
vvhether
ſulph
absolution
naughty
awaked
mercifully
storie
diſordered
delusion
youngeſt
enſl
##cont
deſpite
twould
marc
stupid
sieur
ſut
courag
4000
burnings
excelled
aurelius
dreaded
taſk
staid
vsing
competitors
paramount
wyn
discourage
lucky
##iſor
##abitur
deluſions
##rophe
ſanguine
##enum
##acia
fulnesse
clime
preston
huic
lateran
hats
aſſerting
modifications
gallia
kelly
requisition
tides
praie
criticise
monie
patris
##iſhes
deliverer
maximilian
kiſſed
choise
ſoberly
adherence
dreſt
coyne
renewal
##anders
ſpoonful
##iris
confirmeth
aſſociation
mistris
overflow
returnes
despaire
seconde
ventil
##masters
rio
bidden
unskil
fleſhy
lincolne
avert
vſually
sumptuous
electuary
welch
cancell
quatu
saddle
##ceritie
smyr
doubte
londonder
aids
matern
primacy
deſpight
dividend
##married
diogenes
niger
deinde
robertson
distribute
gerald
##ande
triumphing
fountaines
apprentice
animi
##gresse
##orship
joynson
modell
aes
ſleight
alleadge
gums
mice
ſtarted
levity
sorrowes
unavoidably
deuised
loaden
arche
emptied
##iaſt
endleſſe
appertaine
prominent
shared
covetouſneſſe
tyne
capitol
##wen
londonderry
paulo
sidney
vials
nameth
##ambles
omnipotency
talbot
hominibus
artaxerxes
##sis
miſcarriages
glasses
incompet
kinred
episcopacy
dag
vz
##ratus
hect
emily
asleep
births
##ndon
obligatory
maladies
sailing
dall
septem
allurements
burneth
entra
deane
maynt
contraction
deſperately
advertisement
salam
diverſion
groaning
nile
aſſyria
##yf
journeys
ambaſſadour
iij
complying
climates
centurion
shades
3s
eru
mari
inuiſible
marl
communicants
bitterness
##hab
happe
amadis
carnarvon
harding
nonconformists
risks
stopp
ymdd
partially
##ppery
leape
macnam
sued
illiterate
vnfit
hye
overlook
josh
pacifie
sauls
worſhips
cale
preparatory
cathedrall
exchanged
irrecon
##andis
buffet
buryed
testified
quotid
indispens
rive
seque
bewa
acceſſe
##ido
flyes
cripps
counſaile
##ippe
panis
rudiments
rehears
consecrate
suam
commonalty
compose
brough
cultivate
weal
pore
##ardes
epile
sendeth
gratian
manufacturer
enemyes
hunted
foſter
roma
kerry
chaffe
##neum
##dan
deuoure
strand
transf
digging
frankinc
##inie
distresse
sites
interch
vpward
footed
workmanſhip
impair
conjure
conſpirators
ont
##avi
inflicting
childre
assented
cec
##yde
shipowners
##riſtian
rounde
removes
unanimity
atheist
ſtrained
malitious
toss
adminiſtrations
diffidence
alienate
shoes
diversity
ſweeter
bequeathed
butchers
atheiſm
maliciouſly
reioycing
hops
bron
appeaſed
reſtraine
diminishing
brandy
petit
selden
fecer
irishmen
##emor
plundered
minerva
ipſius
abhorrence
scholler
magicians
waſting
##inteth
conuersation
kitchin
ſtrat
ture
bishoprick
autum
quel
politique
pasture
earthy
muscles
appreciated
##lli
##aug
registrar
bows
ſene
earnings
recte
kine
ſhallow
valerius
coelum
incontinent
slee
buds
##acres
chriſtmas
ſtairs
ſeconded
incong
villa
##ayled
newfound
##quies
bate
ſocial
##neill
revile
fade
ſmelling
strate
deline
buyer
understandings
##oved
treatiſes
sublim
ignoble
encountred
iiii
slowly
haul
##andam
gry
diſpleaſing
guineas
##conſ
luthers
##ulars
assizes
benefited
deepest
gravel
ſchiſm
heel
serviceable
reſembled
marking
tyll
worldlings
miscon
wrap
murmure
tayle
##nia
couched
pave
changeable
universe
riseth
julia
nationality
pricke
camel
expounds
climb
##velyan
demobil
incidents
aſtronom
initiated
axis
pronounceth
manual
deſtroys
progenitors
proportional
weſtward
##asha
profitably
##yning
inſenſibly
tuo
harrow
utterance
##eene
##ſw
intrusted
odds
bonis
berry
patriotic
##ilda
converſations
immaterial
crocod
deſcribing
##ounters
faln
doleful
adi
##quents
delin
penſ
prompted
moderne
sinclair
perfumes
accent
ony
threatening
rudely
##iections
morb
ofte
##aigne
thynge
##qua
galatians
shines
bryng
doue
trevelyan
divina
syrac
deriſion
inſurrection
locuſt
sweetly
diſabled
knaves
frenche
windſor
thumb
feaſting
##erston
conſolations
councellors
initiative
deceipt
franco
jaws
fortunately
refreſhment
chriſtum
bucer
ſtuck
senat
ſubiectes
1948
exclaimed
lone
##isti
aeſ
grieue
puff
suppression
mischiefs
aucthor
dred
craig
detestable
ſepulch
ſuppos
##wyt
subſid
obtains
##iendo
perſonages
mounting
zachar
ills
watchmen
parsons
begining
ſunder
theodore
pied
falſehood
memorials
diſſenting
##child
deſervedly
##icem
##nau
ethn
inſpection
acclamations
veritas
##ativ
filthineſſe
lyſ
##alds
whols
rupture
propitious
depressed
ſurm
unfavour
deprivation
barony
melius
beſtowing
360
decem
mathematical
coelo
mait
sacrificing
leaping
regum
confide
beholden
assertions
nineteenth
asketh
tandem
britons
conscient
##lying
macnamara
christendom
deceivers
tary
interred
ddaeth
exhaust
##zers
##atiues
##ynous
kindnesse
laie
extremes
theophilus
beleive
alios
auoyde
amalek
ouert
economical
grape
vvay
##wyſe
bullion
195
ſuppreſſe
coroner
diſpl
tunes
myra
##fulness
peasant
legacies
outstanding
attainment
tube
knocking
expiring
verm
chryst
ptolomy
cakes
##ayre
gulfe
laps
hotter
isles
chu
dolor
crum
villains
conſerve
episcopus
impartiality
irrational
##liffe
arrives
reſerued
hoare
doubtlesse
esche
##odemus
offring
ſhamefully
##itati
dyſ
desireth
civilized
##uat
movements
film
unaccountable
bout
##enda
beset
maps
appli
alci
##berries
concernments
agues
gideon
##athans
targ
fraile
ſette
bankes
fasten
coral
acquieſ
drwy
surve
tests
quatuor
buſied
paſsion
ouerthrowe
obſtruction
barly
talmud
bargaine
marryed
whim
harken
adject
weakeneſſe
croſſing
tomorrow
benefactors
furiouſly
ſher
sep
imputing
assuring
vulgarly
epicure
tendred
calamitie
ſprinkling
concubines
##bie
##rayned
hawk
ſabb
intereſting
capacitie
preserued
anomalies
vnles
roſemary
wireless
agam
ſtarre
bricks
caps
localities
sint
##uber
doome
woolwich
diag
perseverance
domeſtick
vaccination
1910
conjoyned
##iſſions
whoredome
ſoph
##wrth
##oys
ſeruing
therewithall
deliberations
colonels
stocke
reveale
##pleſs
folowe
goodwin
inlarge
unbelee
wherupon
##iters
contriving
stubborn
miſtruſt
canton
fowles
nostra
remembraunce
abrupt
incongru
gallows
gazette
##gell
derry
lach
preuailed
progreſſe
inoc
##ibet
##iſers
chaste
seest
cinamon
fryers
willoughby
extort
##bris
murthering
reflex
comel
dial
wolues
##ullus
bliſſe
nex
misunderstood
gluttony
columns
incapacity
conſtance
ſupporting
theym
especial
aegyptian
apes
##leneſſe
##ayres
##abell
soe
barred
compiled
picked
isaiah
##orable
ſtrip
befallen
whenas
entruſted
alii
onions
warrantable
wreck
encreased
acquain
againſte
careles
murdering
frauds
wiſedom
nullo
respectfully
1907
stealing
fop
hoſtile
dale
yonger
ſpecie
helena
inuincible
treading
horizont
erron
rises
friars
ſciences
##ſch
stiff
mettall
##ucc
gilded
conſulting
persuasion
entangled
weakeſt
deterior
ſolution
munday
hardships
pulpits
subtilty
diſguiſed
slaues
ſorrowful
wrack
gathereth
##iaries
jerome
rye
##nge
aliter
stray
truſty
##rare
ſupplications
healeth
perip
cells
evacuated
mede
groups
forger
topic
repreſentations
contributing
wak
penitents
##amur
blindneſſe
atten
broader
wolver
feme
aſſurances
flung
reuenged
ſag
invading
##deaux
punctual
ſint
cube
convuls
solum
bolton
empl
navig
enaid
smyrna
jot
thiſt
replying
exemptions
wiles
##yſe
neh
disclose
braun
gladneſs
firmely
bankers
deſerv
dives
footſteps
verge
domus
saturne
ſpending
wyndham
yeomanry
deceits
burma
fetcht
abſtaine
monasteries
systems
ſtraine
elbow
##iſti
palp
##nie
##vered
shifts
degenerated
rejoiced
delighting
illuminated
parchment
threescore
refract
ſafeſt
ddaiar
diodorus
presumptuous
thiefe
montgomery
hipo
vaniſhed
##pple
lydia
subscription
combuſt
enormously
ovvne
##yling
thebes
vvater
traffique
enfranch
pugn
##icating
palme
eaſtward
perfid
celebrating
locke
ſuae
diſdaine
repoſed
shells
##govern
unwarrantable
ſtratag
mortimer
betoken
glim
conclusive
target
liturgie
##antis
malcol
poorest
vial
##rho
aunſwered
emoluments
diſcuſſed
liabilities
inuentions
mander
##ſure
coffers
affid
affirmes
oed
hower
natiu
salem
vnclean
paſſengers
##ſayd
domination
acha
pigs
tremb
derided
monsters
bure
ich
baked
approv
##oo
starting
demonstrations
atheists
venomous
bewaile
outc
lutheran
caer
1200
diabolical
##inine
atchieve
orbe
inuade
scant
inducements
vvit
relatively
220
sanctifying
pricking
iury
incouraged
endeth
ſtructure
beaſtly
ſtagger
ſoundly
quaer
pease
jewell
potential
hurte
alacrity
##pre
retains
fidelitie
accep
fallacious
reprehended
quaere
surveyor
chatham
purifying
attaind
ſtudious
oliv
chil
arabick
actively
thighs
celestial
churchward
libels
enterprises
altogither
##isted
revolutionary
poenitent
subſtant
mixe
paſtures
patriots
alba
thether
dutifull
confeſt
##rimination
steven
perswasions
##rafted
##ahs
vicars
katherine
ſeemingly
governe
heerein
noun
##unk
phariſee
parthians
disarmament
forthe
theodorus
healthful
basket
upbra
haile
revealing
##ulphus
illuſtrated
##iſhe
domitian
diocess
bourbon
intangled
specie
##fters
bram
floweth
bleſſedneſſe
##bal
fantaſt
appoints
leaueth
odour
passionate
unlucky
mouſe
plainer
seasonable
betook
brewer
##how
reſerv
riddle
mules
##ſex
circumcised
subtil
likeness
ſper
learnedly
accumulated
##fited
##idore
maruel
taske
funerals
berwick
premature
chide
ſlumber
##ufferable
schiſme
fauourable
stuffe
##atica
perillous
beere
ſecrete
justifying
projected
graceful
hutch
proclaime
actus
ſayle
tenderness
bleſsing
hong
brink
##agen
preſuming
humili
##pill
bias
thomson
liturgies
impregnable
purification
accompts
diocese
longed
noxious
##udo
luxurious
fad
jest
##ſque
imbib
thouſande
quotient
spayne
kidneys
lard
##oused
intercourse
voce
paragraphs
tonight
pauſe
stande
rivals
maſon
ſtops
huius
montague
noyse
forenamed
separat
##rike
odours
5000
gloss
traj
carmel
unfruit
cabin
enactment
##yued
swept
ſauiour
leaſes
##vt
retal
bellarmin
blemish
violating
narrower
ſummons
coloſſ
rochester
excitement
richest
xerxes
topics
comforte
spaces
aragon
traiterous
watering
lucret
cats
ſaile
nationalist
sheriffe
clifford
underm
adamant
comptroller
##ya
daemon
scire
pitied
bolt
meadows
doer
##plus
diſplayed
fron
proflig
ioſh
veto
tramways
intrigues
toyle
thinne
disposs
labors
everywhere
freeholders
decalogue
evinced
##ibile
core
crab
applie
pupp
##lieſt
prints
vndone
succours
ſwine
cim
vvher
ſhades
warily
scander
enioyed
stanhope
quum
##cence
chaldeans
faithfulneſſe
##wearied
##nab
##oru
conversant
multiplyed
eſpouſed
tanto
idleneſſe
##lod
gothes
undeſ
ſcholl
conſtraint
miſdemean
striving
gair
##iatur
beats
treacle
praest
aſmuch
ʋſe
sinister
preſerves
groundleſs
cloy
ſlayne
yngh
vigilance
elle
duncan
wellington
stretched
indications
coniecture
seco
begetting
alley
ranged
ieroboam
shields
bras
regno
1642
##foot
##vereth
clapp
aduer
meru
reſtoration
theodor
impeached
##kip
conversations
aduiſed
fyrſt
haud
censured
fatigue
ous
inlarged
needleſſe
haere
compassed
raiſeth
executioners
delyuer
pomegran
vires
luce
mask
##ientes
vell
ſurpriz
fenced
##quar
velvet
chalice
ſtren
ſpin
ſtrokes
unth
morris
conquerours
contrivances
editor
franciſc
precarious
anticipation
£40
shaking
steadily
reporting
potuit
22nd
jaw
agar
oportun
exploit
indignity
apoſtolick
mores
anomaly
lawgi
bliss
230
##aungers
diſcharging
barrow
cloths
knighth
exigencies
brau
ſtrang
chymical
rox
yeelds
nouriſhing
rath
doubly
inscription
possibilities
substitution
boldness
denominated
obiections
unconverted
preſeruation
pacification
prosperitie
efficiently
poyſoned
schoolem
qualifie
vim
eccleſiam
precedence
bombay
quill
alledgeth
ioue
ardour
enthusiast
ſhepheard
effig
expiate
##undem
chickens
##fest
resigned
breakers
attonement
huſbands
vnfained
abſalom
canaanites
laſc
conſtit
diſſention
awr
garde
scourge
philips
reges
contrarily
bathing
righteouſly
vallies
wouldest
wherevnto
muſter
mortg
theb
angelica
fennel
subl
footemen
hares
##iaeth
ashley
ciuit
##vm
ethiopia
coeleſt
rightful
##ifier
attraction
schiſmaticks
shaft
commiſſioner
ultra
tighe
matches
##eno
xvi
perc
euangeliſt
moyst
##inating
##ylact
deſpot
drastic
conceded
wasting
immortalitie
retros
dainties
syrians
multiplicity
1902
##hop
dus
discharging
contrariwise
dhe
pene
facing
hairy
arabs
abram
emphasise
juſtin
couetouſneſſe
australian
loke
depose
overthrew
obviate
provokes
theological
whipt
unqueſtionable
hastily
donatiſts
byth
hoſte
rectifie
dames
agath
##issime
##ifax
resume
velle
joan
builds
sug
exertion
impudently
gloucester
agnes
midian
pigeons
stall
coelest
ſoften
sittings
turtle
cuius
rumours
covetousness
dores
tragedies
ſports
fealty
therto
mayst
evidenced
##antem
referr
##holder
elix
carpenters
regional
describes
wneuthur
confounding
emotion
lech
agonies
fortress
journals
partis
withſtood
amurath
warmed
etto
unexpectedly
payd
varn
scandall
zachary
manum
##arem
expresseth
fein
vort
dragoons
##verns
preserv
johnston
chest
vnthank
proct
blake
ſuggeſtions
caſteth
griffiths
citeth
hunters
extenſion
popularity
vlt
##ioun
reflects
vigilius
firste
belisha
purſes
##uaries
remayneth
ſyr
allured
describing
explicit
greeting
##oner
mortifying
ripen
inconsiderable
unalterable
processes
pott
tutors
hoof
dearely
painefull
aga
attur
##cland
haldane
##idum
habite
melanc
ſighing
##ivided
inaccur
wyse
audacious
loynes
cavaliers
feoffment
tranſient
ragged
ynd
##clay
stripes
incompatible
noblest
mithridates
aſſociates
seym
brightneſſe
magnum
goates
graven
imputations
glouceſter
authorise
intrin
ſtreames
##eous
unſeaſonable
##nor
preferable
immac
ſituate
ascertaining
iosh
##cerned
aſtoniſh
rufus
luſty
draughts
richards
##igree
zanch
##60
lys
perv
consolidation
runnes
complices
##antium
astronom
uſher
##pas
scholl
ſtarve
ritch
##aude
forgiveness
discoveries
regain
defunct
coldneſs
bigg
ode
meanwhile
##eland
ſtormes
rupert
enterpriſes
transgressions
peck
drud
propheticall
answereth
gaunt
whips
perte
forfeitures
indiſpenſ
reaped
brows
burdened
reſolue
tou
amalgamation
woorke
tumble
manfully
levell
##wng
silke
##yses
kiſſes
##atibus
overturn
apert
aliquo
ista
fayle
billet
juſtifies
loaf
mariae
increaſeth
lambes
kale
ſpred
committeth
medicinal
launce
avouch
##igrants
ſowing
satisfying
cherry
##cuſable
verſus
praep
ſervitude
identical
entrie
gifted
delegation
willingness
frames
lincolnshire
meanly
folowed
chorus
ſtrove
dionysius
##aga
parale
ſiniſter
gravely
discerning
humphrey
##iram
blan
voluntas
pia
praied
illustrate
originals
##iuntur
eſtimate
leban
daf
sally
practiſing
uſefulneſs
hoſea
##anters
miniſtring
ſodaine
ſauour
gage
ennem
pelagian
searched
delegated
samaritans
travail
unſound
depreciation
##iit
vindict
flank
situate
darkened
falne
sacra
dragged
accede
pennſ
abides
guests
lucy
mantua
gwir
denmar
contradicting
##rels
dos
goſpels
acquitt
meadow
##ceivable
jealousy
phile
gros
precede
gerard
orpheus
iuyce
##odr
catal
ladyſhip
deitie
mortis
frowns
faſts
##itives
imit
robberies
proviſo
##olaeth
phine
##uges
candy
rehearſed
aſpiring
greefe
vaſſals
inundation
stif
##issim
defenſive
ranc
congregational
arrogance
angelical
ſequeſt
dilke
##pore
griffith
honeſtie
subscriptions
abolishing
trot
foreigner
fray
mwy
vna
muste
obstruct
hig
grandees
##ongers
epicurus
demer
##kets
illos
deſcends
amongest
holpen
walled
##itoph
torches
magistracy
theater
##fn
chace
glorifying
ſicknes
suae
matron
muſicke
aphor
wythout
arom
cloſing
forgets
apparatus
whipping
excuses
gwedd
expedite
veracity
vnderstande
##aldus
beren
streame
nichol
##akeable
ſeats
precincts
politician
##issima
mocking
dalton
ſlack
ud
tranſitory
editions
carts
exteriour
unpop
marchants
literary
sanhed
gender
ſermons
chamberl
enfe
##utius
incest
comforteth
veſted
##pi
seduced
thickneſs
dolefull
alcoran
closer
asylum
ſpirited
customary
armenians
oe
faſhioned
bulgar
fertility
mirrour
labyrinth
ipſi
modeſtly
##keepers
##oz
drowne
externally
tories
blocks
leith
coz
210
mysterious
aram
spoils
herwydd
cheats
attentively
mordecai
nion
practis
ſtern
affayres
availe
comets
##acio
gauls
virtute
maſſach
enuious
rayment
nto
enrolled
iewiſh
farce
edified
infat
antipathy
distempers
camden
trustee
quene
##ſover
ſchoole
galile
mei
daem
newfoundland
incite
ceſar
arno
loch
deserted
fortification
confection
identity
chro
monach
miſſ
milder
pears
cluſt
connecticut
adulterous
scotus
permiss
baſſa
rebukes
solicitors
reho
rhem
secul
amuse
raptures
conſtancie
burke
filleth
conuince
unpopular
ſhows
securitie
etym
ſupplic
conciliation
persevere
pes
gog
clients
subiectes
maimed
nutmegs
caves
riotous
freight
surm
reproves
munſter
alters
pause
##gio
##edome
investigations
corporally
inſupportable
sureties
thinkeſt
incomparably
miller
supers
gratification
##keley
##zeb
aſſid
##altar
impurity
zeb
ſhook
abrode
##kenny
mindful
coher
spiritu
##opolis
gou
1915
##itz
comprehendeth
nity
foreſaw
maisters
ddyn
##aware
carolina
tenancy
reſtraining
acco
##ydon
flourished
juno
prologue
dimenſions
bereft
ſept
hyr
concourſe
23rd
clamours
parace
devoutly
curia
presidents
ceres
preſſure
allowable
treatie
peeviſh
confidential
moſa
affixed
disloy
conſid
conſpired
charitably
staffs
adon
iſabella
glorification
livers
groſly
implanted
defy
knighthood
staying
##giv
cousin
plausible
##osa
##ota
temporis
curiously
correspondent
cannons
lebanon
pluckt
encloſed
inclosed
1640
##acken
rayſed
wolverhampton
protesting
tranſgreſſed
optim
uneaſineſs
inveigh
inconſtancy
vnnaturall
defie
equipped
feſtival
mareſ
alo
babylonians
sodaine
marm
dure
ſmother
beleued
orchard
seales
medling
voluntarie
incorrig
##iaid
ſtoned
rectitude
contradicts
dane
wade
inconſtant
exactions
contemning
cowards
suspicious
derogate
##iell
opport
palatinate
choiceſt
##nton
##antry
frenchman
priam
forestry
opponent
flegm
##uction
tries
ſubordination
thrald
creeds
vnth
derives
perpetuate
rateable
heights
lids
ull
anax
whereinto
weakly
beholds
bigge
##fied
treate
medicin
riots
◊◊◊
adoring
nuper
graines
ſuſtaine
##sted
hagg
alice
handmaid
undiſ
perverſ
hastings
ſainct
ayme
midwife
knocked
##ulas
reflexion
leonard
romance
pennſylvania
gibr
officious
holily
hobhouse
nursing
cozen
flatly
vulg
ſullen
encamp
montagu
##asters
appease
arius
ſcoff
ellen
pirates
wroth
homily
hellish
middleton
folowing
drooping
christum
extendeth
designes
##phon
sences
computed
sticke
complaineth
##aviſh
syrian
taurus
##isht
backed
quietneſſe
drachm
rac
liſts
bloom
nobil
chyle
prethee
diſtances
##ellus
leuites
essay
shouldest
viſc
diſtract
mente
nouember
developing
##uro
ſeries
##aed
##keeper
imman
hierarch
reſembles
auditory
meekness
hurting
conditionally
authentic
##quy
##losure
plurality
middleſex
breede
rim
ſubſervient
mutation
##eck
depoſition
oſtentation
admirals
##oro
curates
snatch
ron
oni
ordine
neceſsity
caſu
vapors
anabaptists
reinst
obſcur
nakedneſs
vowe
emend
deſcriptions
eft
sancta
##eine
reigneth
atoms
yoong
judicium
involunt
unwr
enſued
amaze
proſelytes
aym
##alm
allocated
ſurety
counterm
xenophon
##oiſe
vulcan
leigh
prohibitions
intermiſſion
ſatiſfaction
abandoning
vexe
trodden
uninterrupted
murd
filthineſs
orations
resulting
ſingly
eurip
throughe
emanuel
##thers
warne
camer
premiſed
tuam
joſiah
conniv
ſafer
gyue
stumbling
despot
rauen
dilem
occaſional
diſtillation
populo
cherubims
chec
prety
aſtoniſhing
exo
somwhat
alpes
northe
##abbed
curses
##belie
steale
basic
cancelled
##issimus
innocents
knightes
normally
ſurround
idolater
extrin
gamb
pd
handker
forwarde
merchandise
stig
unmerc
peep
penes
porters
varro
doctrina
disclosed
neereſt
evangelists
scythians
sophist
monethes
pyrrhus
palmerston
ain
lut
laſ
maſſachuſe
intendeth
wreſted
sadd
confessing
dealeth
forests
dollar
divino
epig
undoing
reliance
choosing
unpardonable
tenſe
floure
predic
burgesses
reproving
contayned
polyd
purchases
criſt
ſatis
insertion
agriculturists
spy
carne
aduent
soz
##rica
woorkes
preacheth
cavalier
halter
adioyning
ſignificant
kneele
unciv
##iſſima
ipſ
##ka
prolix
ſtript
jaund
bals
lined
cedars
engender
miſſe
tributes
falsely
delinquent
ache
incidence
processe
departe
sixtly
mornings
##ſtan
conſpiracies
refuſ
hamlets
chappels
deuoured
conſtantius
obstacle
braw
euſt
stoke
nomber
windy
embold
epo
inconueniences
czech
spun
copulation
caesars
brilliant
irritation
adorning
caring
qd
ionathan
impoſ
adri
defends
1912
levelled
trophies
bartholomew
venial
quintus
barry
solemnities
750
aggr
elapsed
joel
##ifices
islington
brack
penetrating
reynolds
berm
patterns
denmarke
frances
begge
enſn
##lyng
stuffs
vinc
reines
readeth
sider
yng
mails
##eston
wherv
infernall
prussia
##ſant
inaug
dyer
cappado
timothe
piles
inſtitute
abort
sprinkling
moth
mostly
##ronomy
fraternity
boate
fartheſt
personall
ſerveth
expresses
ſtrengthned
pacem
diſcloſe
apoſtaſie
decorum
supposes
souther
vnfortun
hotel
nouel
immer
galley
priuile
afreſh
cycl
mockery
pwy
##iorem
rehearſe
implicit
entries
conforming
##cionable
##ool
##edek
crucifying
imprint
excluſion
ſlee
vineyards
discovering
brimstone
coeli
carelesse
beaumont
imprudent
##chey
countenances
disappear
dicta
overflowing
ranked
ſyde
surprising
##ſſy
goodwill
nathaniel
gibraltar
rats
deputie
aſſyrians
profiteth
theodosius
##down
vicinity
iacobs
hibern
schisme
rankes
ieſuite
manſions
louely
dividends
##kward
populus
##anor
ſlugg
inspire
howling
coalition
imperfectly
unmarried
germane
allev
vncon
eaſed
dioſcorides
oughte
reorganisation
capell
crossing
pitifull
citation
mahometan
cables
christopher
diuision
archdu
evills
vlcers
ſubtill
conventicles
ynt
indefat
marqueſſe
libro
##ciu
##weare
merrily
compoſitions
dugdale
##people
forraigne
whar
conſiderably
eust
israell
gratiae
hoſpitality
extirpate
poſte
unwearied
pect
bello
##iouſneſſe
confeſſ
dissemble
nocht
gloom
irregularity
winters
goliah
gallacher
##vable
expoſing
ſpeede
revoke
acland
reub
penne
ſhepherd
transportation
speculative
disobedient
##nw
ſyl
lads
deduce
interced
odde
approximate
atteſted
thoughtes
pillow
vaſ
mounts
seeketh
cogit
rabbins
lingua
##cote
##onites
##ithred
diſchar
198
ceylon
hardeſt
diſhonourable
##uſque
reviled
gaines
ſences
behoueth
candor
concupiscence
iudging
##aſhing
aſham
chyldren
mayne
ignis
tribune
acquainting
##onse
aries
confeſſes
gentlewomen
kens
attacking
arbitrator
fluxes
abaſe
tuberculosis
emotions
##pence
laboureth
shafts
salu
aliquando
disorderly
##oma
quarrelling
unme
montanus
eir
afray
goschen
locis
relict
orbis
loaves
260
novelt
roofe
moons
earneſtneſs
hypocriſy
confessions
progressive
merchandiſe
sounding
brutal
poena
marchand
exceede
superintendent
objective
inuocation
inchant
gael
avoyd
##iani
beſiege
##atiuely
peaſe
pencil
origine
viſite
elap
clemencie
negoci
imperium
integritie
libertines
juices
troopes
tempora
##owning
consuming
tickets
deſperation
euyll
republican
tighearna
daven
darkenesse
geometry
196
uncomfortable
fec
gratifying
tortured
glands
menaces
disadvantages
dipped
allotment
surveyors
empyre
physitian
dilated
oranges
ſheet
ratifie
necessitated
forwarded
uer
admonished
analogous
bemo
##oded
practitioners
precedency
chevalier
cay
uly
##anous
gentil
##works
##ylus
iudea
phillis
servile
elegantly
rally
ſhrew
niece
antichriſts
doubling
scul
marines
communicates
rows
leaveth
##brough
clerke
ſpotted
viceger
noſter
delir
dubious
uſurper
ſhooting
prefig
##aunte
peg
##ronius
aſſoon
ſowed
quickened
encouragements
ſacrificing
fyrst
impotency
extreams
inclines
studying
mentz
##point
##ouſlie
smite
ſhifts
fortis
cuſtod
ptolome
ſympathy
##tenant
hazardous
hedd
##tereth
##uitude
spoyle
ferry
tui
consistently
bloudie
customers
cip
hearbs
boile
vor
vexatious
feminine
marriners
stinking
senator
powders
adverſe
blanch
discoursed
ſalutem
disdaine
##gyl
sounded
obſtructed
refreshing
stem
£11
##iueneſſe
biddeth
warmly
##iou
quieted
shulde
buſt
bays
entailed
freind
interl
##nod
dang
quere
ſtrengthening
moveth
##ashed
michaelmas
ſubvert
giuer
awhile
##oribus
aly
preache
damaſcus
##part
##entery
sweep
ignominy
##rues
mille
ſomthing
seth
premium
inwards
abet
refugees
shipwrack
celestiall
fashions
pharaohs
##ſterous
beads
feedeth
bounties
bitten
pump
leasure
solitude
dard
priory
relieue
cheekes
##ulled
muſtard
##active
##uz
rationem
apologise
dilemma
ſolitude
fictions
yma
rell
corr
burnet
surnamed
idolatries
revert
terrest
portrait
footst
beans
laodicea
[...]
